<pad>	0
</s>	0
<unk>	0
▁	-2.01229
X	-2.48648
.	-3.54493
,	-3.64925
s	-3.9034
▁the	-3.95985
a	-4.0971
:	-4.41433
▁and	-4.42067
▁to	-4.45232
▁of	-4.57207
▁fill	-4.57502
e	-4.67492
▁in	-4.81206
t	-5.06391
-	-5.12904
▁is	-5.28343
▁de	-5.34414
▁for	-5.39302
’	-5.42283
i	-5.46986
▁that	-5.57624
▁you	-5.59638
d	-5.60473
▁I	-5.66404
▁with	-5.70373
n	-5.73789
▁on	-5.78414
'	-5.829
o	-5.92556
▁are	-5.93131
▁it	-5.93952
en	-5.94656
▁be	-5.95567
▁The	-5.99002
▁as	-6.05741
▁your	-6.13231
l	-6.1395
▁(	-6.1848
▁or	-6.24195
▁have	-6.27459
▁at	-6.32747
▁from	-6.34965
▁an	-6.35009
▁was	-6.35039
▁this	-6.35256
er	-6.36043
▁la	-6.3624
m	-6.37521
r	-6.37653
ing	-6.37786
▁can	-6.38715
!	-6.42138
▁will	-6.42398
▁by	-6.44155
?	-6.58589
▁not	-6.59591
re	-6.62007
)	-6.63657
▁we	-6.64302
y	-6.65454
▁und	-6.74147
▁has	-6.7602
▁all	-6.76818
▁die	-6.86412
▁but	-6.90683
▁our	-6.90988
▁their	-6.91325
▁A	-6.91581
▁more	-6.91867
▁un	-6.92493
▁der	-6.9254
c	-6.92571
u	-6.93294
in	-6.93406
▁so	-6.94705
▁they	-6.9893
▁one	-7.01274
▁about	-7.07149
▁my	-7.07214
ul	-7.07649
▁which	-7.09704
à	-7.1
▁In	-7.10025
/	-7.10087
he	-7.10475
f	-7.11004
▁le	-7.11294
▁out	-7.12856
▁also	-7.13358
▁des	-7.15677
▁It	-7.16212
▁up	-7.17234
▁"	-7.17281
▁time	-7.17805
ă	-7.18325
if	-7.18517
▁This	-7.19165
▁We	-7.22327
p	-7.22413
▁do	-7.22821
–	-7.23541
▁“	-7.23814
on	-7.24083
h	-7.25432
▁si	-7.27673
le	-7.29943
▁les	-7.31296
▁în	-7.31457
▁his	-7.32477
▁who	-7.35106
▁like	-7.37136
b	-7.37537
▁when	-7.3802
;	-7.38085
▁been	-7.38669
▁other	-7.38852
ly	-7.39466
"	-7.40721
g	-7.408
▁cu	-7.41528
▁care	-7.43241
▁what	-7.43304
▁new	-7.43709
or	-7.44541
▁some	-7.46195
▁get	-7.479
▁were	-7.49155
▁just	-7.4925
▁there	-7.49319
▁would	-7.49438
S	-7.49741
▁them	-7.5136
▁any	-7.52054
).	-7.52105
al	-7.52306
▁into	-7.5279
▁me	-7.52834
▁had	-7.53243
▁se	-7.54515
▁make	-7.58271
at	-7.58943
▁than	-7.59236
▁du	-7.59585
▁over	-7.60788
▁You	-7.62611
▁how	-7.63555
▁no	-7.63729
▁people	-7.63995
an	-7.64084
”	-7.64453
é	-7.64692
it	-7.64864
▁If	-7.64869
k	-7.66056
▁pe	-7.66214
is	-7.66726
▁her	-7.67338
▁work	-7.68039
ve	-7.68741
▁only	-7.69786
▁may	-7.70239
▁its	-7.70245
▁first	-7.70437
▁most	-7.70831
▁well	-7.70876
▁use	-7.71509
▁zu	-7.71878
▁pour	-7.73671
z	-7.74565
il	-7.74591
▁need	-7.74779
▁these	-7.76332
▁din	-7.76989
▁den	-7.77566
▁us	-7.77813
able	-7.77971
▁S	-7.78189
▁mit	-7.79252
▁very	-7.79971
▁am	-7.8141
&	-7.82953
▁au	-7.83012
▁many	-7.83834
▁mai	-7.84363
A	-7.84983
th	-7.85554
▁through	-7.85959
▁pentru	-7.86392
▁two	-7.87361
▁von	-7.87496
▁way	-7.88712
ll	-7.88775
I	-7.8913
▁ce	-7.90156
▁și	-7.90444
▁help	-7.90741
▁best	-7.90791
),	-7.90821
un	-7.92502
▁years	-7.92596
▁2	-7.92827
▁C	-7.93696
▁nu	-7.93952
▁good	-7.944
v	-7.94747
▁1	-7.94766
w	-7.94798
▁das	-7.96054
▁ca	-7.96243
▁where	-7.96491
▁know	-7.96623
▁year	-7.97106
▁He	-7.97461
▁see	-7.98001
▁für	-7.984
▁auf	-7.98425
▁3	-7.98443
de	-7.9854
est	-8.00209
▁back	-8.00702
▁such	-8.00852
▁should	-8.01175
x	-8.01505
▁after	-8.01761
▁could	-8.01967
▁ist	-8.02078
▁now	-8.02285
▁much	-8.02311
and	-8.0239
...	-8.03011
▁home	-8.03627
to	-8.03821
▁ein	-8.04834
▁even	-8.04866
▁que	-8.04983
▁day	-8.05155
▁take	-8.05419
▁want	-8.05444
▁For	-8.06217
▁said	-8.06325
▁sur	-8.07347
▁une	-8.07703
▁să	-8.08292
▁dans	-8.08455
▁great	-8.08806
▁este	-8.08947
▁because	-8.09431
▁information	-8.10409
ului	-8.10545
▁find	-8.11217
C	-8.11995
▁she	-8.12532
▁im	-8.12606
ation	-8.13012
▁then	-8.13021
▁est	-8.13099
▁par	-8.13859
▁used	-8.14187
▁E	-8.14679
▁made	-8.14998
▁So	-8.15785
am	-8.16289
▁eine	-8.16546
▁şi	-8.16837
▁business	-8.17335
▁right	-8.17359
▁here	-8.17613
▁being	-8.18497
▁B	-8.18536
▁those	-8.18574
▁before	-8.19472
▁And	-8.1995
▁P	-8.20071
ers	-8.20092
▁don	-8.20403
B	-8.20487
▁life	-8.20627
▁go	-8.20974
▁As	-8.21055
▁M	-8.22117
▁each	-8.22955
▁qui	-8.23324
▁place	-8.23625
com	-8.23748
ant	-8.25292
▁sich	-8.25593
▁There	-8.26195
ar	-8.26499
▁Sie	-8.27387
▁own	-8.27753
▁part	-8.27944
ent	-8.28105
▁world	-8.28174
ment	-8.282
▁while	-8.29447
▁But	-8.29537
▁around	-8.3008
▁L	-8.30108
us	-8.30404
▁plus	-8.31305
▁To	-8.31369
▁5	-8.31412
▁high	-8.31863
▁long	-8.31938
D	-8.32008
▁D	-8.32028
▁really	-8.32292
▁nicht	-8.33204
▁Le	-8.33533
▁service	-8.34125
▁4	-8.34209
▁different	-8.34254
▁Die	-8.34809
▁think	-8.35377
—	-8.356
▁auch	-8.35716
▁look	-8.3622
▁both	-8.36682
lor	-8.36687
▁down	-8.368
ten	-8.36889
▁La	-8.37807
▁off	-8.38004
▁vous	-8.38054
▁They	-8.38146
M	-8.38325
▁pas	-8.38451
▁data	-8.38571
▁T	-8.38675
▁love	-8.3881
▁every	-8.39001
▁10	-8.39118
▁last	-8.39208
▁same	-8.39348
▁using	-8.39549
▁free	-8.40883
▁dem	-8.40895
▁still	-8.40998
ate	-8.41093
ist	-8.41561
▁between	-8.42028
P	-8.42098
be	-8.42817
▁available	-8.42944
man	-8.43298
▁company	-8.43968
▁G	-8.44164
▁experience	-8.44495
▁going	-8.44907
▁site	-8.45383
j	-8.45514
are	-8.4569
▁set	-8.47066
2	-8.47368
▁system	-8.47468
▁important	-8.47679
▁few	-8.48244
▁fi	-8.48255
ich	-8.4833
▁What	-8.48865
▁services	-8.50243
▁under	-8.50257
▁When	-8.50309
▁online	-8.507
▁New	-8.51494
▁come	-8.52487
▁provide	-8.52565
F	-8.52645
▁team	-8.52782
▁always	-8.52941
▁De	-8.53041
▁că	-8.53252
▁him	-8.53586
▁F	-8.53831
▁things	-8.55008
▁including	-8.55094
▁support	-8.55261
▁number	-8.55411
T	-8.55718
▁during	-8.55886
▁family	-8.56046
▁little	-8.56132
▁three	-8.56773
▁water	-8.5681
▁man	-8.56976
▁An	-8.57193
based	-8.57216
▁R	-8.57443
▁sau	-8.57443
▁avec	-8.57604
▁better	-8.57683
▁„	-8.58225
▁too	-8.58635
ge	-8.58672
▁must	-8.58974
▁per	-8.58992
ele	-8.5904
▁oder	-8.59265
au	-8.59555
▁aus	-8.59573
▁werden	-8.59865
▁does	-8.59914
▁without	-8.59927
▁ou	-8.59993
▁design	-8.60101
▁va	-8.60544
▁did	-8.61568
▁O	-8.61906
▁U	-8.62357
up	-8.62901
▁end	-8.63368
▁local	-8.63623
▁next	-8.63897
▁sure	-8.64098
▁lot	-8.64645
▁Re	-8.64702
▁top	-8.64764
▁Our	-8.65689
▁small	-8.65698
▁full	-8.65942
▁something	-8.66289
ung	-8.66672
▁vor	-8.67325
E	-8.67334
▁give	-8.67604
▁might	-8.67661
▁another	-8.67933
▁6	-8.68078
▁All	-8.68132
▁process	-8.68167
L	-8.68258
▁found	-8.68942
▁sind	-8.69004
▁since	-8.69529
▁With	-8.69556
K	-8.69699
um	-8.70102
▁within	-8.70167
▁post	-8.70661
▁car	-8.70937
une	-8.7141
▁N	-8.71504
▁J	-8.7156
ic	-8.71824
R	-8.72231
ter	-8.72744
ur	-8.72827
▁She	-8.73131
▁public	-8.73201
▁keep	-8.73578
▁H	-8.73618
▁order	-8.74076
▁start	-8.7422
ez	-8.74746
▁‘	-8.74983
uri	-8.7511
▁20	-8.75248
▁On	-8.75352
▁offer	-8.76301
▁quality	-8.76499
▁working	-8.76999
▁No	-8.77031
▁That	-8.77516
▁game	-8.78632
▁bei	-8.78664
▁today	-8.78866
▁never	-8.79459
▁week	-8.79587
▁St	-8.79779
▁feel	-8.79932
▁put	-8.8019
▁website	-8.80322
Y	-8.80448
▁days	-8.80471
▁program	-8.80545
▁looking	-8.81046
▁K	-8.81081
▁students	-8.81144
▁create	-8.8118
▁change	-8.81262
▁book	-8.81293
ity	-8.81376
▁At	-8.81521
▁possible	-8.81567
▁sunt	-8.81651
▁7	-8.81812
▁real	-8.82337
▁al	-8.82417
▁making	-8.82537
▁Be	-8.82576
▁products	-8.82592
▁case	-8.82654
▁school	-8.82721
▁say	-8.83035
area	-8.83208
▁My	-8.83384
▁point	-8.83473
▁als	-8.83561
▁children	-8.83619
▁course	-8.84406
▁show	-8.84799
▁8	-8.84927
▁These	-8.84935
▁18	-8.85114
▁large	-8.85132
co	-8.85436
▁über	-8.85479
▁second	-8.85656
▁market	-8.85981
▁fost	-8.86049
▁easy	-8.86398
▁plan	-8.8643
▁project	-8.86493
G	-8.86518
W	-8.86957
3	-8.87194
▁son	-8.87333
la	-8.87905
▁face	-8.88137
▁needs	-8.88148
ch	-8.88314
▁personal	-8.88344
me	-8.88603
▁sont	-8.88738
▁je	-8.89493
▁non	-8.89547
▁got	-8.89659
▁Do	-8.89738
the	-8.89765
▁health	-8.89909
▁special	-8.90555
."	-8.90771
1	-8.90785
den	-8.90862
▁state	-8.90936
▁open	-8.91019
▁money	-8.91054
▁again	-8.91308
▁food	-8.91317
▁page	-8.9146
▁together	-8.91628
age	-8.91911
▁qu	-8.92193
hat	-8.92239
▁ver	-8.92699
▁W	-8.92779
▁away	-8.92876
▁wird	-8.93164
▁until	-8.93425
V	-8.93494
▁pre	-8.93585
▁One	-8.93643
▁product	-8.93656
▁often	-8.93933
▁wir	-8.94411
▁nach	-8.94513
▁include	-8.94656
▁um	-8.9482
▁room	-8.95371
▁group	-8.95377
▁name	-8.95495
ce	-8.95545
H	-8.95618
N	-8.95814
▁person	-8.95818
▁social	-8.95861
▁list	-8.96367
▁How	-8.96413
▁why	-8.96571
▁community	-8.966
▁contact	-8.97303
­	-8.97559
▁co	-8.97968
▁play	-8.98396
▁having	-8.98417
▁power	-8.98692
▁call	-8.99169
▁against	-8.99182
▁become	-8.99778
▁cost	-9.00379
▁V	-9.00459
▁research	-9.00691
▁12	-9.00731
▁wie	-9.00828
der	-9.00839
▁thing	-9.01403
▁along	-9.0173
4	-9.01733
▁access	-9.02039
▁level	-9.02051
▁price	-9.02282
▁einen	-9.02371
▁side	-9.02636
▁Un	-9.02685
▁means	-9.03042
(	-9.03234
▁big	-9.03437
▁God	-9.0365
▁dass	-9.03731
im	-9.03737
▁30	-9.03743
▁event	-9.04167
▁development	-9.04206
▁form	-9.04226
▁read	-9.04258
▁hand	-9.04319
▁control	-9.04447
▁However	-9.04632
▁done	-9.04806
▁job	-9.05169
▁hard	-9.05662
▁war	-9.05754
▁area	-9.05841
▁add	-9.05866
▁votre	-9.05939
▁live	-9.05949
▁range	-9.0601
▁After	-9.06016
▁Les	-9.06051
▁far	-9.06441
ver	-9.06473
▁old	-9.06958
▁perfect	-9.06976
▁15	-9.07043
▁space	-9.07365
▁house	-9.07407
ine	-9.07409
▁enough	-9.07433
0	-9.07582
▁several	-9.07712
The	-9.08116
mm	-9.08562
▁University	-9.08638
▁diese	-9.08757
▁Co	-9.08834
▁comes	-9.0885
▁across	-9.08886
▁already	-9.0901
,”	-9.09034
▁body	-9.09276
▁Das	-9.09459
▁einer	-9.09596
▁left	-9.09922
▁future	-9.10571
▁times	-9.10667
▁dar	-9.10965
▁simple	-9.11041
ry	-9.11241
▁getting	-9.11316
▁try	-9.11536
ți	-9.1169
ness	-9.12004
▁makes	-9.12038
▁past	-9.12062
ca	-9.1213
▁light	-9.12221
▁Der	-9.123
▁run	-9.12584
▁four	-9.12694
ance	-9.1305
▁ever	-9.1315
▁einem	-9.13182
▁below	-9.13372
O	-9.13407
▁9	-9.13728
▁learn	-9.14004
out	-9.14036
▁video	-9.14318
▁etc	-9.14693
▁«	-9.1488
▁zum	-9.14971
▁kann	-9.15045
▁minutes	-9.15118
▁example	-9.15419
▁nous	-9.15462
▁Se	-9.15744
▁sie	-9.15996
▁industry	-9.16161
▁problem	-9.16202
J	-9.16248
▁country	-9.16337
▁fact	-9.16419
▁type	-9.16419
ner	-9.16424
▁companies	-9.16586
▁line	-9.16985
▁city	-9.17271
▁check	-9.17371
▁doing	-9.17441
elle	-9.17504
▁fun	-9.17655
▁En	-9.17755
▁Your	-9.1786
ling	-9.18145
▁share	-9.18186
ile	-9.18201
▁actually	-9.18754
▁value	-9.18775
zi	-9.18866
▁ab	-9.18988
▁offers	-9.19055
▁less	-9.19057
▁night	-9.19356
▁Dr	-9.19519
▁started	-9.19545
▁least	-9.19802
▁short	-9.19856
▁main	-9.20114
▁single	-9.20294
▁though	-9.20378
▁prin	-9.20393
time	-9.20531
▁hours	-9.20661
▁others	-9.20685
▁called	-9.2073
▁visit	-9.20887
▁bit	-9.20901
ée	-9.21082
▁customers	-9.21138
▁music	-9.212
▁members	-9.21719
ies	-9.21743
▁pay	-9.21918
nd	-9.21974
▁once	-9.22113
gen	-9.22174
▁können	-9.22298
▁low	-9.22377
▁durch	-9.22739
▁story	-9.22808
▁understand	-9.22954
“	-9.22986
▁Am	-9.23183
▁didn	-9.2346
▁content	-9.23722
son	-9.24181
▁building	-9.24224
▁result	-9.24261
▁aux	-9.24311
▁complete	-9.245
▁doesn	-9.24511
▁haben	-9.24607
▁questions	-9.24662
line	-9.24708
▁technology	-9.24743
▁Pro	-9.24798
▁current	-9.2485
▁won	-9.24888
▁let	-9.25071
▁features	-9.25198
▁please	-9.25826
5	-9.25852
▁above	-9.25939
ive	-9.26213
▁management	-9.26239
▁lui	-9.26254
her	-9.26306
▁training	-9.26571
▁everything	-9.26654
▁noch	-9.26685
▁came	-9.26771
▁web	-9.27282
▁ensure	-9.27299
▁months	-9.27313
▁art	-9.27313
▁sub	-9.27436
▁million	-9.27456
▁professional	-9.27504
▁results	-9.27837
▁kind	-9.2784
▁season	-9.27929
▁unique	-9.28107
ze	-9.28436
▁enjoy	-9.28488
▁early	-9.28777
▁major	-9.2882
▁yet	-9.29153
▁Ver	-9.29333
one	-9.29678
▁media	-9.29719
▁[	-9.30095
▁property	-9.30297
▁beautiful	-9.30447
▁given	-9.30529
▁due	-9.30672
▁government	-9.30718
▁nur	-9.30881
▁email	-9.3091
▁total	-9.31108
▁natural	-9.31126
▁test	-9.31145
▁provides	-9.31164
▁various	-9.31263
▁American	-9.31561
▁moment	-9.31811
▁air	-9.31895
▁idea	-9.31924
▁known	-9.31998
▁Il	-9.3205
▁friends	-9.32058
▁final	-9.32092
▁buy	-9.3214
▁specific	-9.32223
▁issues	-9.32455
▁took	-9.32523
▁mind	-9.32626
▁study	-9.32676
▁addition	-9.32842
▁size	-9.33245
▁pro	-9.33405
▁film	-9.33546
▁pot	-9.33564
▁thought	-9.33812
▁tell	-9.3389
▁While	-9.33968
▁head	-9.33998
▁clients	-9.34043
▁performance	-9.3462
▁question	-9.34684
▁whether	-9.34793
▁certain	-9.34827
▁model	-9.34876
▁following	-9.35093
▁energy	-9.35421
▁office	-9.35421
▁whole	-9.35669
▁bring	-9.35696
▁required	-9.35726
ţi	-9.35822
▁date	-9.3587
_	-9.35898
que	-9.35979
▁da	-9.36026
▁US	-9.3612
▁taking	-9.36144
go	-9.36279
▁living	-9.36342
▁someone	-9.36349
▁heart	-9.36512
▁key	-9.36578
▁areas	-9.36624
▁says	-9.36701
▁2018	-9.36913
▁month	-9.37013
▁Er	-9.37135
ste	-9.37508
▁11	-9.37518
▁front	-9.37528
▁Now	-9.3767
▁class	-9.37695
▁choose	-9.37708
pe	-9.37809
▁further	-9.37902
▁believe	-9.37936
of	-9.37959
▁among	-9.38099
sch	-9.38169
▁child	-9.38261
▁aber	-9.38376
▁Please	-9.38627
rea	-9.38725
▁later	-9.38727
▁amount	-9.38876
ice	-9.39013
▁National	-9.39018
▁style	-9.39075
▁tout	-9.39149
▁staff	-9.39294
▁white	-9.39793
▁ge	-9.39918
▁five	-9.40098
▁blog	-9.4011
▁designed	-9.40126
▁went	-9.40222
▁Da	-9.40269
▁general	-9.4038
▁rest	-9.40387
▁zur	-9.4058
▁quite	-9.40595
per	-9.40687
▁customer	-9.40838
▁close	-9.40875
▁Some	-9.41055
▁women	-9.41076
▁move	-9.41076
▁software	-9.41136
▁Ein	-9.41365
▁Ab	-9.41382
▁history	-9.41386
▁either	-9.41565
▁seen	-9.4174
▁card	-9.41973
▁City	-9.42154
▁hope	-9.42177
▁16	-9.42207
és	-9.42283
va	-9.42329
▁Al	-9.42383
▁especially	-9.42483
▁view	-9.42614
men	-9.42736
▁account	-9.42749
▁needed	-9.42978
▁United	-9.42979
]	-9.43239
▁yourself	-9.43279
▁100	-9.43306
▁receive	-9.43342
▁ideas	-9.43369
▁writing	-9.43459
▁simply	-9.43474
▁present	-9.43509
▁continue	-9.43611
▁application	-9.44115
▁build	-9.44187
▁turn	-9.44249
ated	-9.44292
▁everyone	-9.44306
cette	-9.44311
▁bien	-9.44496
less	-9.44522
▁Si	-9.44536
▁original	-9.44687
8	-9.44795
▁individual	-9.4489
tre	-9.44943
▁works	-9.45171
▁options	-9.45182
▁May	-9.45446
▁Not	-9.45494
▁report	-9.45547
mer	-9.45724
▁human	-9.45912
▁provided	-9.4596
▁By	-9.46093
▁series	-9.46201
7	-9.46227
▁modern	-9.46388
▁meet	-9.46392
▁50	-9.46412
▁25	-9.4697
▁color	-9.47009
▁download	-9.47011
▁Here	-9.47114
6	-9.47132
▁poate	-9.47145
▁În	-9.47232
▁phone	-9.4737
▁likely	-9.47437
▁table	-9.47647
▁ma	-9.47655
▁Or	-9.47918
Z	-9.48026
▁19	-9.48222
▁insurance	-9.48254
▁anything	-9.48381
▁search	-9.48503
▁Ge	-9.48521
▁issue	-9.48556
▁includes	-9.48569
▁clear	-9.48734
les	-9.48802
▁almost	-9.48826
ilor	-9.48935
▁14	-9.49072
by	-9.49406
▁Du	-9.49624
▁mais	-9.4973
ier	-9.49916
▁law	-9.49924
▁added	-9.50013
▁con	-9.50096
,"	-9.50153
▁ago	-9.50213
▁His	-9.5047
▁points	-9.50498
▁mult	-9.50558
▁financial	-9.50622
▁problems	-9.50643
▁however	-9.50648
▁events	-9.50675
▁half	-9.50789
ard	-9.51118
▁ask	-9.51157
▁version	-9.51163
end	-9.51248
▁created	-9.51264
▁lead	-9.51292
▁focus	-9.51385
▁increase	-9.5151
ex	-9.51512
▁allow	-9.5158
▁extra	-9.51646
▁24	-9.51669
▁credit	-9.51677
▁production	-9.5168
zu	-9.51726
▁black	-9.51754
▁systems	-9.51804
▁17	-9.51818
▁opportunity	-9.51853
▁bis	-9.51922
▁fast	-9.51981
ring	-9.52117
▁Don	-9.52211
▁via	-9.52243
fer	-9.52252
▁comme	-9.5228
▁popular	-9.52372
▁South	-9.52449
ating	-9.525
▁State	-9.5252
ator	-9.52568
▁common	-9.52597
con	-9.52673
▁throughout	-9.52756
▁risk	-9.52775
▁young	-9.52853
▁Je	-9.52869
▁image	-9.52928
ha	-9.52938
▁third	-9.52959
▁taken	-9.53005
▁Z	-9.53143
▁dis	-9.53162
▁From	-9.53358
▁details	-9.53486
▁games	-9.53517
▁practice	-9.53604
che	-9.53615
▁security	-9.53736
▁medical	-9.53765
▁learning	-9.53781
▁material	-9.53851
▁international	-9.5407
▁forward	-9.54125
▁paper	-9.54125
▁action	-9.54135
▁file	-9.54238
▁oil	-9.5431
▁self	-9.54378
▁private	-9.54525
▁interest	-9.54556
bar	-9.54607
▁sale	-9.54712
▁stay	-9.54735
ke	-9.54809
▁San	-9.54905
▁matter	-9.54987
▁reason	-9.55025
ted	-9.55148
▁potential	-9.55174
▁brand	-9.55244
▁field	-9.55315
▁treatment	-9.55342
▁period	-9.55352
▁York	-9.55389
▁Park	-9.55474
▁acest	-9.55601
ou	-9.55693
▁Ce	-9.55701
▁ready	-9.55811
▁rather	-9.5586
▁outside	-9.56009
▁standard	-9.56012
▁located	-9.56077
▁marketing	-9.56231
cu	-9.56404
▁Can	-9.56456
▁education	-9.56611
use	-9.56664
▁role	-9.56683
▁men	-9.57151
▁probably	-9.57155
▁store	-9.57222
▁John	-9.57236
▁rate	-9.57396
▁code	-9.57399
▁kids	-9.57441
▁currently	-9.57553
▁near	-9.57648
▁sales	-9.57672
▁usually	-9.57701
▁activities	-9.57724
▁party	-9.57737
▁leur	-9.57743
▁particular	-9.57763
▁mehr	-9.57771
ill	-9.57876
▁percent	-9.57911
▁fait	-9.57954
▁happy	-9.5799
▁inside	-9.58005
▁save	-9.58051
▁skills	-9.58077
▁consider	-9.58103
▁recent	-9.58162
▁strong	-9.58178
▁position	-9.58208
▁knowledge	-9.5823
▁tax	-9.58387
▁users	-9.58426
und	-9.58556
▁coming	-9.5859
▁article	-9.58592
min	-9.58635
▁sein	-9.58656
▁travel	-9.58687
▁changes	-9.58766
▁impact	-9.58818
▁wanted	-9.58846
▁address	-9.58856
▁soon	-9.58873
▁North	-9.58892
ată	-9.58924
▁trying	-9.58985
▁app	-9.59061
▁School	-9.59251
▁Es	-9.59255
we	-9.59262
▁conditions	-9.59293
▁digital	-9.59329
▁similar	-9.59481
▁solution	-9.59514
▁location	-9.59518
▁Of	-9.59542
▁follow	-9.59584
▁red	-9.59753
▁review	-9.5992
▁skin	-9.59958
▁pretty	-9.60037
day	-9.60056
▁dé	-9.60207
▁cause	-9.60217
▁Sa	-9.60246
▁user	-9.60252
▁Man	-9.60338
”.	-9.60415
▁Just	-9.60437
▁faire	-9.60448
▁member	-9.60562
▁iar	-9.60689
▁higher	-9.60772
▁step	-9.60789
▁wide	-9.60819
▁uns	-9.60892
▁World	-9.60914
▁additional	-9.61177
ber	-9.6132
▁easily	-9.61399
▁deal	-9.61507
▁ways	-9.61551
▁mobile	-9.61684
▁national	-9.61691
▁couple	-9.61739
▁ihre	-9.6194
▁choice	-9.61961
for	-9.61969
ous	-9.6207
▁Google	-9.62086
▁environment	-9.62243
urile	-9.62332
▁Center	-9.62668
mp	-9.62859
▁»	-9.62973
qui	-9.63068
▁growth	-9.63105
ler	-9.63317
▁improve	-9.63361
▁items	-9.63367
▁Nu	-9.63394
▁leave	-9.63407
▁true	-9.63481
▁wurde	-9.63487
▁cannot	-9.635
▁13	-9.6351
▁running	-9.63602
▁anti	-9.63618
▁option	-9.63631
▁reading	-9.63657
▁Car	-9.6367
▁Wir	-9.63811
▁April	-9.63976
▁behind	-9.64064
▁client	-9.64075
▁cover	-9.64101
▁stop	-9.64109
ja	-9.64128
▁built	-9.64131
▁Con	-9.64131
ement	-9.64137
▁projects	-9.64183
▁variety	-9.64184
▁Ihre	-9.64267
ș	-9.64303
▁unter	-9.64386
▁longer	-9.64658
year	-9.64716
▁photo	-9.64837
▁Also	-9.64934
▁received	-9.6511
▁return	-9.65268
00	-9.65308
▁bar	-9.65334
ary	-9.65443
elor	-9.65514
▁Home	-9.65619
our	-9.6563
▁Me	-9.65771
▁held	-9.65911
▁click	-9.66014
▁ex	-9.66018
▁cum	-9.66156
▁takes	-9.66395
▁computer	-9.6658
▁told	-9.66819
+	-9.67065
▁patients	-9.67081
ting	-9.67217
▁direct	-9.67225
▁quickly	-9.67241
tic	-9.67288
▁vom	-9.67372
▁di	-9.67381
▁kitchen	-9.67402
▁network	-9.67564
▁2015	-9.67669
▁effective	-9.67723
▁collection	-9.6777
▁2017	-9.67775
▁words	-9.67815
▁cele	-9.67886
▁student	-9.67886
▁amazing	-9.67893
eur	-9.68042
.”	-9.68227
▁ale	-9.68272
”,	-9.68414
▁purchase	-9.68435
▁mean	-9.68478
▁West	-9.68685
▁nice	-9.68891
▁age	-9.68913
▁base	-9.68924
▁summer	-9.68928
▁multi	-9.6895
▁allows	-9.68957
▁latest	-9.6896
▁global	-9.68993
▁chance	-9.69079
▁sense	-9.69087
ieren	-9.69279
▁difficult	-9.69313
ité	-9.69475
ka	-9.69479
du	-9.69484
▁providing	-9.69574
▁Art	-9.69694
▁drive	-9.69855
▁Go	-9.69888
▁très	-9.69941
U	-9.69958
▁Pre	-9.69985
▁shows	-9.70004
▁hair	-9.70132
▁success	-9.70151
▁UK	-9.70317
red	-9.70324
ü	-9.70337
ish	-9.70363
▁weeks	-9.70484
▁solutions	-9.7055
▁Pe	-9.70575
▁equipment	-9.70614
și	-9.70648
▁worked	-9.70707
".	-9.70863
▁legal	-9.70872
▁bad	-9.70892
▁40	-9.70956
▁Internet	-9.7098
▁included	-9.70998
▁upon	-9.71098
▁excellent	-9.71106
▁goal	-9.7113
▁El	-9.71141
▁Mo	-9.7117
▁policy	-9.7132
▁aussi	-9.71354
▁weight	-9.71369
ici	-9.71513
▁approach	-9.71558
▁six	-9.7158
▁entire	-9.71591
9	-9.71634
▁send	-9.71683
▁1.	-9.71897
▁wenn	-9.71906
▁photos	-9.71994
://	-9.72101
ger	-9.72282
▁favorite	-9.7231
ley	-9.72348
▁else	-9.72463
▁types	-9.72468
▁link	-9.72533
▁recently	-9.72584
▁Mit	-9.72632
▁hot	-9.72655
tra	-9.7266
ş	-9.72731
▁according	-9.72851
▁necessary	-9.72851
▁multiple	-9.72927
▁Im	-9.72951
▁sehr	-9.72966
▁sign	-9.73226
▁anyone	-9.73284
▁land	-9.73361
▁States	-9.73404
▁unsere	-9.73412
ées	-9.73464
We	-9.73567
▁nothing	-9.73585
▁commercial	-9.73686
ful	-9.73727
▁seems	-9.73933
▁International	-9.7401
▁March	-9.74164
▁Thanks	-9.74331
▁County	-9.74365
▁books	-9.74464
▁Ca	-9.74518
▁mi	-9.7463
▁meeting	-9.74666
▁tools	-9.74759
▁cut	-9.74765
▁related	-9.74766
▁lives	-9.748
way	-9.7485
▁develop	-9.74865
▁sound	-9.74872
▁safe	-9.74895
▁Her	-9.74938
▁average	-9.75128
▁clean	-9.75174
▁talk	-9.75236
▁peut	-9.75242
▁dann	-9.75255
▁terms	-9.75327
▁foarte	-9.75351
▁super	-9.75428
▁programs	-9.75485
▁decision	-9.75541
▁costs	-9.75606
▁être	-9.75629
▁2019	-9.75767
led	-9.75948
▁parents	-9.75962
▁Mr	-9.7617
▁lower	-9.76236
▁door	-9.76298
▁été	-9.76393
▁box	-9.76495
▁record	-9.76552
▁win	-9.76565
ster	-9.7664
▁America	-9.76675
▁immer	-9.76876
▁road	-9.76997
▁leading	-9.77276
▁section	-9.77284
▁Facebook	-9.77299
▁Most	-9.77387
iert	-9.77435
▁morning	-9.7745
▁asked	-9.77519
▁involved	-9.77552
▁hier	-9.77761
▁images	-9.77821
▁House	-9.77826
▁highly	-9.78076
▁Bar	-9.78162
▁Service	-9.78251
▁attention	-9.78432
▁normal	-9.78457
▁plans	-9.78588
▁source	-9.78593
▁Aus	-9.78809
▁benefits	-9.78866
▁ses	-9.78935
des	-9.78987
▁internet	-9.78995
▁materials	-9.79008
▁même	-9.79132
▁fine	-9.79152
▁fit	-9.79223
▁21	-9.79261
▁itself	-9.79374
▁wieder	-9.79397
▁Many	-9.79531
▁nature	-9.7954
▁pain	-9.79547
▁device	-9.79618
art	-9.79699
pro	-9.79718
▁France	-9.79727
lich	-9.79731
▁2014	-9.79954
▁inter	-9.79996
▁Li	-9.80045
▁career	-9.80114
▁looks	-9.80145
▁ré	-9.80225
▁ability	-9.80256
▁situation	-9.80315
ville	-9.80316
▁2016	-9.8032
tes	-9.80346
▁remember	-9.80388
▁TV	-9.804
▁levels	-9.80585
▁subject	-9.80772
ally	-9.80844
▁reduce	-9.81023
▁*	-9.81085
▁Day	-9.81087
▁write	-9.81215
▁pick	-9.81425
ence	-9.8154
▁fresh	-9.81652
▁traditional	-9.81666
chi	-9.81769
▁machine	-9.81805
▁resources	-9.81913
â	-9.8195
▁countries	-9.82001
▁Even	-9.82034
▁green	-9.82128
▁Free	-9.82191
▁daily	-9.82211
▁respect	-9.82301
▁instead	-9.82371
▁Once	-9.82418
▁word	-9.82441
▁construction	-9.82489
▁huge	-9.82506
▁feature	-9.82522
▁themselves	-9.82637
▁loss	-9.8292
%	-9.83006
▁safety	-9.83026
▁economic	-9.83141
▁require	-9.83195
30	-9.83255
▁planning	-9.83339
▁mal	-9.83448
▁directly	-9.83521
ure	-9.83572
▁track	-9.83573
▁tool	-9.83614
▁positive	-9.83639
▁piece	-9.83708
▁parts	-9.83714
ang	-9.83741
▁trip	-9.83745
▁organization	-9.83794
▁sites	-9.83827
▁fire	-9.83832
▁China	-9.83888
▁Pour	-9.83929
▁plant	-9.84011
▁board	-9.84034
▁interesting	-9.84123
gar	-9.84171
▁fie	-9.84175
▁late	-9.84217
▁wall	-9.84229
▁walk	-9.84274
ham	-9.84387
▁Ne	-9.84543
▁First	-9.84546
▁double	-9.8457
▁budget	-9.84766
▁cases	-9.84767
cal	-9.84974
old	-9.8498
▁Bo	-9.84982
▁spend	-9.85044
port	-9.85083
▁worth	-9.85093
ique	-9.85131
nes	-9.8519
cul	-9.85227
era	-9.85297
▁text	-9.85303
▁decided	-9.85495
▁floor	-9.85504
▁requirements	-9.8553
▁cel	-9.85536
▁effect	-9.85541
▁gibt	-9.85616
▁news	-9.85924
▁vos	-9.85993
▁players	-9.86057
▁saw	-9.86273
▁auto	-9.86306
▁town	-9.86321
▁myself	-9.86411
▁lost	-9.86499
▁$	-9.86512
▁June	-9.86609
▁significant	-9.8662
▁giving	-9.86623
▁stand	-9.86674
▁stock	-9.86766
▁hold	-9.86777
▁Are	-9.86908
▁shall	-9.86924
▁ideal	-9.86928
▁London	-9.8708
▁answer	-9.87085
▁Vor	-9.87158
▁gives	-9.87312
ative	-9.87317
▁timp	-9.87317
▁center	-9.87362
▁Group	-9.87458
▁sans	-9.87514
▁Ar	-9.87547
▁Ma	-9.87557
▁reach	-9.87628
ren	-9.87665
▁More	-9.87745
mit	-9.87807
▁guide	-9.87833
▁fully	-9.87883
▁Since	-9.87895
▁Inc	-9.87924
▁culture	-9.87978
eat	-9.88053
▁written	-9.88072
▁Ho	-9.88134
▁India	-9.88163
▁Well	-9.88171
back	-9.88175
▁goes	-9.88217
▁completely	-9.88218
▁tour	-9.88308
▁began	-9.8832
▁picture	-9.88326
▁mare	-9.88353
▁playing	-9.88422
▁trebuie	-9.88493
ils	-9.88494
chen	-9.88522
▁hit	-9.88542
▁complex	-9.88591
▁Thank	-9.88614
▁Let	-9.88635
▁applications	-9.88712
▁friend	-9.88831
▁English	-9.88955
▁charge	-9.89004
▁recommend	-9.89345
▁message	-9.89367
In	-9.89372
▁Mar	-9.89476
pp	-9.89585
▁method	-9.89692
▁successful	-9.897
tion	-9.89888
▁release	-9.89992
▁creating	-9.9004
▁despre	-9.90142
esc	-9.90243
▁eye	-9.90275
▁apply	-9.90595
net	-9.906
side	-9.90654
▁ar	-9.90695
▁platform	-9.90714
▁touch	-9.90733
▁towards	-9.90785
▁match	-9.90822
▁Black	-9.90934
▁fall	-9.90962
▁ground	-9.91023
▁High	-9.91074
▁Q	-9.91116
▁schon	-9.91171
▁hotel	-9.91175
▁prices	-9.91203
▁developed	-9.91341
uk	-9.91348
ide	-9.91367
▁September	-9.91371
ized	-9.9142
▁War	-9.9147
!!	-9.91629
▁grow	-9.917
▁watch	-9.91707
▁storage	-9.91741
eau	-9.91751
can	-9.91837
▁Get	-9.91952
▁See	-9.91953
▁European	-9.9197
▁language	-9.91983
ează	-9.92018
▁court	-9.92033
▁Why	-9.92111
▁hear	-9.92134
▁doar	-9.9218
lan	-9.9233
▁Christmas	-9.92381
▁Web	-9.92387
vo	-9.92406
▁sent	-9.92498
▁businesses	-9.92587
▁Red	-9.92628
tel	-9.92638
▁Ha	-9.92651
▁wonderful	-9.92665
ations	-9.92674
za	-9.92749
▁22	-9.92866
▁thinking	-9.92942
▁became	-9.92973
▁cool	-9.92984
▁speed	-9.93037
mar	-9.93043
▁--	-9.93174
▁groups	-9.93192
▁interested	-9.93198
ak	-9.93219
▁60	-9.93267
▁screen	-9.9337
▁Design	-9.93379
▁limited	-9.93565
▁expected	-9.93596
▁opportunities	-9.93638
▁regular	-9.93687
off	-9.93702
▁Best	-9.9373
Re	-9.93844
▁ihr	-9.93872
▁Great	-9.93891
▁employees	-9.93925
▁custom	-9.93968
▁multe	-9.94012
let	-9.94088
▁benefit	-9.94249
▁term	-9.94262
▁bine	-9.94287
▁deep	-9.94453
▁August	-9.94526
▁President	-9.94538
▁Auf	-9.94585
▁wish	-9.94692
▁sometimes	-9.94727
ari	-9.94779
▁pressure	-9.94818
▁ani	-9.9486
▁trade	-9.94993
▁firm	-9.95003
▁comment	-9.95004
▁November	-9.95024
▁expect	-9.9511
▁2012	-9.95249
▁Ich	-9.95328
▁relationship	-9.95364
▁active	-9.95468
org	-9.95471
▁heat	-9.95673
▁wood	-9.95679
▁notre	-9.95792
▁function	-9.95833
▁2.	-9.95909
▁wedding	-9.96005
▁starting	-9.96124
▁Health	-9.96125
",	-9.96171
▁death	-9.96217
▁pages	-9.96276
▁vehicle	-9.96294
▁request	-9.96387
▁helps	-9.96392
▁blue	-9.96402
▁analysis	-9.96441
▁posted	-9.96454
▁healthy	-9.96481
▁contract	-9.96499
▁•	-9.96526
▁Each	-9.96529
▁Fa	-9.96618
▁dintre	-9.96622
▁Friday	-9.9672
▁considered	-9.96799
cher	-9.96826
▁quick	-9.96873
▁understanding	-9.96916
▁condition	-9.96938
ization	-9.97105
▁document	-9.97166
▁prevent	-9.97189
▁growing	-9.97253
▁protection	-9.97262
▁cat	-9.974
▁#	-9.97506
10	-9.97528
▁join	-9.97595
▁serve	-9.97658
▁blood	-9.9771
▁July	-9.97734
▁region	-9.97779
car	-9.97934
▁entre	-9.97979
▁physical	-9.98129
▁cash	-9.98132
aux	-9.98182
ng	-9.98265
▁stage	-9.98281
▁seem	-9.98303
▁definitely	-9.9838
▁investment	-9.98383
▁purpose	-9.98544
▁begin	-9.98549
®	-9.9855
▁break	-9.9857
itate	-9.98729
▁moving	-9.98929
▁met	-9.99068
ize	-9.99083
▁select	-9.99117
▁tous	-9.99131
▁Europe	-9.99164
@	-9.99272
▁individuals	-9.99339
▁Zeit	-9.99352
gu	-9.99567
▁unit	-9.99575
▁noi	-9.99609
▁places	-9.99617
all	-9.99632
▁wait	-9.99676
▁difference	-9.99723
▁round	-9.99802
50	-9.99954
rie	-9.99955
▁Et	-9.99993
20	-10.0007
▁activity	-10.0008
е	-10.0009
▁Windows	-10.0011
▁produce	-10.0014
▁keine	-10.0021
▁Air	-10.0026
▁January	-10.0049
▁deux	-10.0051
▁entry	-10.0052
king	-10.0065
▁goals	-10.0067
▁previous	-10.0078
▁+	-10.008
▁Business	-10.0083
ont	-10.0086
▁Sunday	-10.0087
▁offering	-10.0104
▁response	-10.011
▁surface	-10.0114
▁Department	-10.0121
▁exactly	-10.0122
▁Online	-10.0126
dem	-10.0138
ischen	-10.014
▁hands	-10.0151
▁hour	-10.0162
▁dog	-10.0169
▁damage	-10.017
▁capital	-10.0188
▁toate	-10.0205
▁wrong	-10.0207
unui	-10.0222
tri	-10.024
▁sell	-10.024
▁published	-10.0242
▁families	-10.0247
▁avoid	-10.0255
▁Ko	-10.0255
▁mod	-10.0267
rat	-10.0277
▁Make	-10.03
▁October	-10.0302
▁former	-10.0313
▁Services	-10.0328
▁felt	-10.033
▁selection	-10.0333
eaza	-10.0342
gel	-10.0344
▁Good	-10.0358
▁actual	-10.0364
▁gut	-10.0369
▁gas	-10.0371
15	-10.0382
▁structure	-10.0383
▁act	-10.0386
▁Zu	-10.0387
▁creative	-10.0391
▁Vi	-10.0392
▁shop	-10.0407
▁Lo	-10.0407
şi	-10.0422
▁mis	-10.0422
ungen	-10.0423
▁fan	-10.0424
▁|	-10.0434
▁Bei	-10.044
▁protect	-10.0445
▁Na	-10.0448
q	-10.0457
ok	-10.0471
▁California	-10.0473
▁political	-10.0473
25	-10.0475
▁feeling	-10.0479
▁ces	-10.0483
▁display	-10.0489
▁essential	-10.0496
ând	-10.05
▁seine	-10.0506
▁soft	-10.0509
ach	-10.051
▁happen	-10.0511
▁Paul	-10.0533
▁Cu	-10.054
house	-10.0554
ante	-10.0558
▁easier	-10.0566
▁sort	-10.0567
▁Post	-10.0571
▁accept	-10.0573
field	-10.0576
zen	-10.0577
▁character	-10.0578
▁beginning	-10.0584
▁Jesus	-10.0588
▁weekend	-10.0597
▁certainly	-10.0611
▁THE	-10.0613
▁alle	-10.0619
▁transport	-10.0622
▁Saturday	-10.063
▁basic	-10.0641
▁loved	-10.0643
ros	-10.0653
▁offered	-10.066
▁camera	-10.067
▁Green	-10.0679
ology	-10.0695
ä	-10.0696
▁manage	-10.0704
▁paid	-10.0709
▁advice	-10.0716
▁patient	-10.0722
▁spent	-10.0723
▁mir	-10.0724
▁baby	-10.0724
ö	-10.0732
▁basis	-10.0733
▁cancer	-10.0738
▁Although	-10.074
▁gift	-10.0743
▁3.	-10.0749
dieser	-10.0752
▁overall	-10.0752
▁Sch	-10.0753
▁Ex	-10.0763
▁December	-10.0769
▁released	-10.0782
▁prior	-10.079
▁sowie	-10.0811
▁club	-10.0813
▁Street	-10.0815
▁College	-10.0825
▁î	-10.0831
over	-10.0832
▁gave	-10.0845
▁truly	-10.0848
par	-10.0848
▁Canada	-10.0849
▁existing	-10.0854
lie	-10.0863
▁ganz	-10.0867
▁setting	-10.0871
▁supply	-10.0874
▁college	-10.0875
▁communication	-10.0884
▁23	-10.0888
▁pass	-10.0915
▁devices	-10.0919
▁glass	-10.0921
▁experienced	-10.0924
▁grand	-10.0934
▁Po	-10.0934
▁beyond	-10.094
▁format	-10.0942
▁mon	-10.0946
▁perform	-10.0946
sten	-10.0951
▁1,	-10.0963
▁Per	-10.0966
▁sold	-10.0972
▁rates	-10.0973
▁regarding	-10.0978
▁Paris	-10.0983
▁Dar	-10.0996
▁challenge	-10.0996
▁feet	-10.1006
▁Su	-10.102
je	-10.1026
▁Bank	-10.1026
ven	-10.1031
jo	-10.1033
▁band	-10.1035
▁delivery	-10.1049
Vous	-10.1049
tele	-10.105
▁East	-10.1054
▁pictures	-10.1061
▁useful	-10.1065
*	-10.1076
▁increased	-10.1077
▁stories	-10.1081
sion	-10.1083
bra	-10.1083
▁brought	-10.1085
▁effort	-10.1099
▁payment	-10.1106
▁heard	-10.1109
▁played	-10.1112
▁White	-10.1114
▁metal	-10.1117
tal	-10.1118
▁engine	-10.112
▁Club	-10.1122
ical	-10.1146
▁effects	-10.1154
▁degree	-10.1158
▁bed	-10.1159
ette	-10.116
▁David	-10.1164
°	-10.1177
▁Au	-10.1179
▁Company	-10.1185
▁player	-10.1194
▁Today	-10.1206
▁maintain	-10.1209
▁minute	-10.1212
mail	-10.1222
▁race	-10.1224
▁comfortable	-10.1239
▁responsible	-10.1241
vor	-10.1246
▁associated	-10.1247
▁weather	-10.1247
▁$1	-10.1256
▁tried	-10.1262
▁Check	-10.1276
▁solid	-10.1279
▁movie	-10.1284
▁coffee	-10.1287
board	-10.1291
▁po	-10.1295
▁warm	-10.1296
▁connect	-10.1317
▁Ad	-10.1338
work	-10.1339
mal	-10.134
▁Act	-10.1346
▁achieve	-10.1348
▁Nach	-10.1366
www	-10.1367
term	-10.1367
▁claim	-10.1373
▁particularly	-10.1382
▁cas	-10.1384
▁furniture	-10.1385
▁finish	-10.139
▁temps	-10.139
▁disease	-10.1391
▁lots	-10.1392
▁ball	-10.1393
▁sun	-10.1401
▁strategy	-10.1405
bre	-10.1405
▁mine	-10.1415
▁Click	-10.1417
ran	-10.142
▁Will	-10.1422
▁garden	-10.143
▁stuff	-10.1436
▁limit	-10.1446
▁bottom	-10.1449
▁shown	-10.145
ship	-10.1453
▁habe	-10.1459
▁Super	-10.1462
▁completed	-10.147
▁wine	-10.147
ische	-10.1473
▁largest	-10.1475
▁appropriate	-10.1483
▁immediately	-10.1502
▁Hi	-10.1524
▁trust	-10.1528
ability	-10.1543
▁powerful	-10.1551
▁helping	-10.1556
▁schedule	-10.1557
▁correct	-10.1557
▁transfer	-10.1565
pre	-10.1567
▁journey	-10.1569
pm	-10.157
don	-10.1584
▁highest	-10.1592
▁finally	-10.16
form	-10.1603
▁extremely	-10.1604
▁window	-10.1605
▁Over	-10.1622
▁remove	-10.1625
wood	-10.1625
▁2013	-10.1636
▁mother	-10.1641
▁Auto	-10.1644
▁annual	-10.1646
▁Star	-10.1648
▁Di	-10.1661
о	-10.1671
▁gold	-10.1671
tar	-10.1674
ju	-10.1678
▁Use	-10.1695
▁thanks	-10.1696
▁centre	-10.1701
▁Australia	-10.1704
▁estate	-10.1705
▁eyes	-10.1714
▁force	-10.1716
▁income	-10.174
▁science	-10.174
ori	-10.1742
▁enter	-10.1749
▁28	-10.1754
ire	-10.1757
▁schools	-10.1758
▁restaurant	-10.1761
▁Council	-10.177
aus	-10.1779
▁agree	-10.1791
▁campaign	-10.1792
▁Ta	-10.1794
▁letter	-10.1798
▁central	-10.1799
▁Because	-10.1801
▁path	-10.1803
▁loc	-10.1809
▁files	-10.1826
▁population	-10.1827
▁explore	-10.1827
▁mid	-10.1827
▁concept	-10.1827
▁church	-10.183
80	-10.183
▁einfach	-10.1858
▁reasons	-10.1867
▁determine	-10.1868
▁February	-10.1871
▁evidence	-10.188
▁sleep	-10.188
▁Board	-10.1887
▁maybe	-10.1896
▁wasn	-10.1897
▁Monday	-10.1901
▁director	-10.1905
well	-10.191
During	-10.191
▁sweet	-10.1911
▁assist	-10.1912
▁police	-10.1915
▁repair	-10.1917
▁techniques	-10.1917
▁served	-10.1918
vi	-10.192
▁sports	-10.1923
▁opening	-10.1924
▁ones	-10.1927
▁notice	-10.1935
▁PC	-10.1935
▁alte	-10.1942
▁Bi	-10.1943
▁cold	-10.1956
▁billion	-10.1958
▁balance	-10.1964
cer	-10.1964
▁nearly	-10.1967
▁wear	-10.1973
free	-10.1976
▁Have	-10.1977
▁comfort	-10.1992
▁studies	-10.1992
▁traffic	-10.1995
▁item	-10.2002
▁teaching	-10.2005
▁turned	-10.2013
isation	-10.2014
12	-10.202
▁greater	-10.2022
▁knew	-10.2023
▁Association	-10.2033
▁Office	-10.2038
▁established	-10.2041
45	-10.2042
▁Love	-10.2043
▁changed	-10.2049
▁pan	-10.2052
van	-10.2057
▁Mi	-10.2057
▁tend	-10.2064
▁connection	-10.2065
▁lack	-10.207
▁bank	-10.2085
cat	-10.2087
▁helped	-10.2091
▁spot	-10.2094
▁spring	-10.2097
▁Wi	-10.2109
▁Mac	-10.2117
▁Christ	-10.212
▁saying	-10.2128
▁General	-10.2131
▁port	-10.2131
▁Mal	-10.2132
▁System	-10.2135
▁According	-10.2153
▁chiar	-10.2157
log	-10.2158
▁mix	-10.216
▁Lake	-10.216
▁intr	-10.2166
▁deliver	-10.2168
mon	-10.2169
▁Ro	-10.2171
▁Management	-10.2175
bri	-10.2187
▁pieces	-10.2188
▁announced	-10.2189
▁Yes	-10.2193
▁dark	-10.2209
val	-10.2218
▁rights	-10.2231
▁Diese	-10.2231
ki	-10.2234
vent	-10.2238
▁born	-10.2238
▁muss	-10.224
compared	-10.2247
▁demand	-10.2247
▁handle	-10.2255
▁mode	-10.2261
lic	-10.2261
▁ahead	-10.2264
▁sharing	-10.2276
▁micro	-10.2278
▁Par	-10.2286
▁Every	-10.2295
▁bag	-10.2297
▁daca	-10.2297
▁Apple	-10.2302
▁Mark	-10.2302
▁larger	-10.2313
eze	-10.232
▁progress	-10.2322
▁stress	-10.2329
▁cards	-10.2337
▁driving	-10.2337
▁dry	-10.234
▁relevant	-10.2346
▁Jo	-10.2348
▁tree	-10.235
▁reported	-10.2358
ities	-10.2358
▁tea	-10.2358
▁although	-10.2361
▁Research	-10.2363
▁pool	-10.2369
▁fin	-10.2372
▁Und	-10.2381
▁decide	-10.2392
▁expert	-10.2393
rate	-10.2394
zeit	-10.24
▁26	-10.2404
▁Ka	-10.2406
▁fix	-10.2407
igen	-10.2407
▁direction	-10.2412
▁star	-10.2417
▁middle	-10.2419
▁Ja	-10.242
▁Land	-10.2421
ken	-10.2426
▁button	-10.2426
▁rules	-10.2427
▁également	-10.2427
▁viel	-10.2432
▁welcome	-10.2437
că	-10.2439
▁Top	-10.2453
▁allowed	-10.2455
▁tip	-10.2456
▁cei	-10.2458
▁Nous	-10.246
té	-10.2469
▁unei	-10.2469
▁efforts	-10.2473
▁note	-10.2477
▁title	-10.248
ric	-10.248
berg	-10.2483
▁ainsi	-10.2486
▁led	-10.2487
▁alone	-10.2488
ward	-10.2492
▁vie	-10.2493
▁brain	-10.2494
light	-10.2501
▁Court	-10.2506
set	-10.2509
▁steps	-10.2513
pri	-10.2514
Q	-10.2517
sti	-10.2519
▁voice	-10.2521
▁models	-10.2527
▁parties	-10.2544
▁radio	-10.2553
▁mission	-10.2555
▁methods	-10.2557
▁Te	-10.256
air	-10.2565
▁essay	-10.2567
my	-10.2568
▁competition	-10.257
ses	-10.2574
▁serious	-10.2587
▁Ti	-10.2587
▁Hand	-10.2596
not	-10.2596
▁winter	-10.2613
24	-10.2617
▁vision	-10.2617
▁technical	-10.2621
▁cross	-10.2628
▁update	-10.2629
▁Team	-10.2636
▁evening	-10.2643
▁experts	-10.2644
part	-10.2646
▁wo	-10.2652
▁App	-10.2657
▁peu	-10.2663
▁mich	-10.2663
▁reports	-10.267
▁km	-10.2676
▁print	-10.2679
▁Hotel	-10.2681
▁earlier	-10.2682
▁uses	-10.2683
▁menu	-10.2684
▁miles	-10.2685
▁classes	-10.2685
▁mo	-10.2685
▁loan	-10.2691
▁host	-10.2692
▁author	-10.2693
-1	-10.2694
▁bun	-10.2699
19	-10.27
uch	-10.2707
ble	-10.2708
▁holiday	-10.2709
los	-10.2719
▁looked	-10.2727
▁Test	-10.2728
▁moved	-10.273
▁numbers	-10.2733
▁covered	-10.2734
ker	-10.2737
TM	-10.2738
▁album	-10.2747
▁27	-10.2748
▁când	-10.2752
▁shopping	-10.2752
▁Ihr	-10.2753
▁requires	-10.2758
▁USA	-10.2759
000	-10.276
▁official	-10.276
▁states	-10.2763
▁tips	-10.2766
ible	-10.2773
▁Lu	-10.2776
ces	-10.2783
▁figure	-10.2784
▁Take	-10.2786
▁după	-10.2787
▁teams	-10.279
▁song	-10.2791
▁master	-10.2794
ED	-10.2798
▁cleaning	-10.2805
▁drop	-10.2807
▁primary	-10.2809
▁Life	-10.2811
▁carry	-10.2811
▁initial	-10.2813
▁encore	-10.2816
▁Add	-10.2817
▁woman	-10.2821
▁Water	-10.2822
▁advantage	-10.2828
see	-10.2832
ré	-10.2833
▁motor	-10.2835
mel	-10.2839
▁finding	-10.2844
▁plastic	-10.2864
▁IT	-10.2866
▁Church	-10.2869
▁shape	-10.2873
▁gets	-10.2878
▁followed	-10.2882
▁100%	-10.2883
▁Program	-10.2891
▁Another	-10.2893
▁zwei	-10.2895
▁father	-10.2898
▁rich	-10.2903
où	-10.2908
▁lines	-10.2909
▁distance	-10.2918
▁cell	-10.2919
▁parte	-10.2921
bit	-10.2924
▁perhaps	-10.2927
rii	-10.2936
▁session	-10.2941
▁Pentru	-10.2945
ING	-10.295
ants	-10.2955
▁remain	-10.2955
13	-10.2956
▁finished	-10.2958
bel	-10.2987
▁organizations	-10.2995
▁Any	-10.2999
▁taste	-10.3003
Whether	-10.3006
ram	-10.3009
like	-10.3013
▁artist	-10.3013
aire	-10.3034
▁French	-10.3034
▁donc	-10.3036
ow	-10.3039
▁200	-10.304
▁paint	-10.3045
▁Open	-10.3045
▁appear	-10.3047
▁Washington	-10.3048
▁target	-10.3049
pir	-10.3056
▁generally	-10.306
▁British	-10.3068
▁seven	-10.3069
▁bio	-10.3072
▁sector	-10.3074
90	-10.3078
▁fapt	-10.3079
▁prefer	-10.3083
▁partner	-10.3084
ăm	-10.3085
▁diverse	-10.3086
▁onto	-10.3093
▁refer	-10.3098
▁Law	-10.3103
▁Ri	-10.3106
▁critical	-10.3107
▁copy	-10.3109
ck	-10.3115
ix	-10.3117
tag	-10.3118
▁Road	-10.3119
▁concern	-10.3121
▁maximum	-10.3121
▁train	-10.3121
▁într	-10.3122
ura	-10.313
▁Qu	-10.3135
▁links	-10.3135
▁audience	-10.314
▁foot	-10.3146
▁Blue	-10.3146
ification	-10.3154
▁developing	-10.3158
▁interior	-10.3159
=	-10.3166
▁aceasta	-10.317
▁dedicated	-10.3174
▁movement	-10.3174
sta	-10.3189
▁challenges	-10.319
inte	-10.3191
▁Euro	-10.3191
▁classic	-10.3203
▁Um	-10.3208
▁alternative	-10.3214
mann	-10.3216
▁Une	-10.3223
qu	-10.3224
▁heavy	-10.3224
▁install	-10.3225
▁fiind	-10.3225
▁leaders	-10.323
▁views	-10.323
▁www	-10.3231
▁standards	-10.3233
ong	-10.3236
40	-10.3238
▁cm	-10.3238
▁park	-10.3243
▁himself	-10.3244
▁People	-10.3246
▁separate	-10.3248
▁secure	-10.325
sie	-10.3251
▁maintenance	-10.3252
▁encourage	-10.3277
ein	-10.3281
▁reviews	-10.3282
▁Michael	-10.3282
▁background	-10.3283
▁therefore	-10.3284
▁server	-10.3285
▁dream	-10.3287
ping	-10.329
▁block	-10.3299
▁2009	-10.3307
▁facilities	-10.3309
▁II	-10.3314
▁attend	-10.3316
▁cap	-10.3322
35	-10.3324
▁steel	-10.3328
▁shared	-10.3334
▁doctor	-10.3339
▁River	-10.3341
▁Bay	-10.3345
▁length	-10.335
▁jobs	-10.3355
▁Plus	-10.336
▁station	-10.3361
▁elements	-10.3363
▁rock	-10.3367
▁professionals	-10.3367
cle	-10.3368
▁dont	-10.3369
urilor	-10.3371
▁gain	-10.3373
▁programme	-10.3375
▁Cor	-10.3384
▁leader	-10.3385
ării	-10.3388
▁>	-10.3391
▁task	-10.3395
▁seeing	-10.3399
▁statement	-10.3405
vin	-10.3411
▁fish	-10.3417
▁advanced	-10.3424
▁discuss	-10.3425
die	-10.3429
isch	-10.3429
▁plenty	-10.3429
▁Hall	-10.3431
▁Other	-10.3433
▁homes	-10.3449
▁Ni	-10.345
▁testing	-10.3451
▁Last	-10.3454
▁Note	-10.3456
▁talking	-10.3459
▁exchange	-10.347
▁exercise	-10.3472
▁cea	-10.3475
▁wife	-10.3482
▁Für	-10.3485
▁Texas	-10.3498
▁fr	-10.3507
▁speak	-10.3509
17	-10.351
70	-10.3515
▁promote	-10.3519
tul	-10.352
apos	-10.3521
▁Jahr	-10.3521
▁Trump	-10.3522
▁ohne	-10.3524
▁learned	-10.3537
▁Sp	-10.3538
▁owner	-10.3543
mor	-10.3544
▁fois	-10.3545
▁meaning	-10.3552
▁dacă	-10.3552
nic	-10.3555
а	-10.3555
14	-10.3558
▁driver	-10.3563
▁Amazon	-10.3568
▁flow	-10.3585
▁shot	-10.3587
▁sous	-10.3591
▁Gold	-10.3593
▁straight	-10.3596
▁conference	-10.3596
▁peste	-10.3597
whose	-10.3603
▁installation	-10.3605
▁produced	-10.3606
▁independent	-10.3619
▁Institute	-10.362
▁James	-10.3624
▁mental	-10.3626
ara	-10.3628
ium	-10.363
▁husband	-10.3631
▁guests	-10.3639
27	-10.3643
▁Che	-10.3647
▁Indian	-10.3647
zer	-10.3648
▁minimum	-10.365
500	-10.3651
▁sit	-10.3656
put	-10.3666
▁avea	-10.3667
▁ride	-10.3671
gan	-10.3672
▁Ke	-10.3675
book	-10.3675
ages	-10.368
▁presented	-10.3682
▁Com	-10.3689
▁Call	-10.3691
▁fee	-10.3698
ări	-10.3699
▁putea	-10.3707
▁Public	-10.371
▁pa	-10.3712
28	-10.3712
▁Director	-10.3713
▁contains	-10.3718
▁factors	-10.3726
▁famous	-10.3726
▁bathroom	-10.373
▁core	-10.3735
▁viele	-10.3736
▁acum	-10.3744
▁animal	-10.3744
▁Ihnen	-10.3744
▁Find	-10.3745
▁Fall	-10.3749
ford	-10.3761
▁coverage	-10.3765
▁smart	-10.3768
ries	-10.3769
▁memory	-10.3773
▁dance	-10.3774
11	-10.3775
▁communities	-10.3777
eurs	-10.3781
▁Florida	-10.3785
▁sport	-10.3794
▁bus	-10.3799
▁colors	-10.38
▁affect	-10.38
▁score	-10.3802
▁properties	-10.3805
18	-10.3806
▁astfel	-10.3813
▁beach	-10.3824
▁friendly	-10.3828
izing	-10.3829
▁buying	-10.3831
▁forget	-10.3832
este	-10.3832
▁capacity	-10.3836
▁lose	-10.3837
▁listed	-10.3841
ica	-10.3841
han	-10.3841
▁selbst	-10.3844
▁values	-10.3844
▁Power	-10.3846
▁comments	-10.3848
eux	-10.3853
ați	-10.3854
▁context	-10.3857
liche	-10.3859
▁keeping	-10.3862
▁2008	-10.3865
▁su	-10.3867
▁biggest	-10.3868
▁fiecare	-10.3874
ight	-10.3885
▁toute	-10.3898
▁dinner	-10.3898
bau	-10.3907
▁Mai	-10.3908
▁status	-10.3908
rez	-10.3913
▁selected	-10.3915
▁cells	-10.3926
▁eight	-10.3933
▁package	-10.3933
▁scale	-10.3933
din	-10.3934
▁Who	-10.3934
▁century	-10.3934
▁bi	-10.3935
▁Africa	-10.3938
▁http	-10.3941
▁named	-10.3942
▁adding	-10.3949
▁mention	-10.395
▁casino	-10.3954
▁couldn	-10.3956
▁outdoor	-10.3959
▁sugar	-10.3961
▁prepared	-10.3961
21	-10.3965
▁Ba	-10.3966
vers	-10.3967
ration	-10.3968
▁ja	-10.397
▁aspect	-10.3972
▁31	-10.3975
▁treat	-10.3975
tru	-10.3978
▁flat	-10.3979
32	-10.398
▁reality	-10.3982
▁waste	-10.3988
▁King	-10.3996
▁drug	-10.3999
▁operations	-10.4001
▁aim	-10.4004
▁fans	-10.4004
▁vers	-10.4009
▁plants	-10.401
▁Dis	-10.4015
▁Daten	-10.4015
être	-10.4027
▁placed	-10.4033
▁bon	-10.404
beim	-10.4041
▁slow	-10.405
cri	-10.4055
▁Care	-10.4057
mes	-10.4062
26	-10.4063
box	-10.4063
▁helpful	-10.4064
▁documents	-10.4065
▁visitors	-10.4068
ture	-10.4069
▁Menschen	-10.4069
▁Chi	-10.407
▁recipe	-10.4076
▁kept	-10.4077
▁Grand	-10.4079
▁operating	-10.4082
point	-10.4083
▁bin	-10.4084
▁Tri	-10.4085
Be	-10.4085
▁experiences	-10.4086
▁academic	-10.4086
▁finden	-10.4087
▁sera	-10.4091
act	-10.4105
▁Pa	-10.4109
▁society	-10.4111
▁combination	-10.4112
5%	-10.4118
▁owners	-10.4119
▁poor	-10.412
▁Robert	-10.4124
▁military	-10.413
▁economy	-10.413
▁aware	-10.4131
rot	-10.4134
mie	-10.4135
▁Thursday	-10.4144
▁2011	-10.4149
▁fantastic	-10.4155
▁numerous	-10.4159
▁fair	-10.4166
med	-10.4168
▁welche	-10.4169
▁fruit	-10.4171
ku	-10.4173
▁Social	-10.4176
▁funds	-10.4182
▁atunci	-10.4182
▁Part	-10.4182
▁Big	-10.4183
▁2010	-10.4194
▁detail	-10.4199
▁Peter	-10.4199
ani	-10.4202
▁Wie	-10.4208
▁Tu	-10.4216
ear	-10.4217
▁Wenn	-10.4219
▁manager	-10.422
▁Dan	-10.4224
▁Pi	-10.4226
▁wants	-10.4227
▁Data	-10.4232
pos	-10.4239
▁older	-10.4239
▁Download	-10.4241
▁Was	-10.4241
▁corner	-10.4242
▁president	-10.4242
mas	-10.4242
▁smaller	-10.4244
▁bright	-10.4245
▁proper	-10.4246
▁Kinder	-10.4246
▁Two	-10.4247
▁award	-10.4247
▁premier	-10.4252
▁seek	-10.4256
▁thank	-10.4257
▁proud	-10.4265
▁workers	-10.4268
▁2000	-10.427
▁gone	-10.4275
▁medium	-10.4277
▁grade	-10.4278
▁Ru	-10.4278
cro	-10.4279
▁interview	-10.4283
23	-10.4288
▁mari	-10.4294
▁80	-10.4298
▁Ga	-10.43
▁90	-10.4318
▁anderen	-10.4326
▁cultural	-10.433
but	-10.4331
rum	-10.4333
get	-10.4334
▁pop	-10.4336
▁Information	-10.4336
▁press	-10.435
▁Project	-10.4354
▁excited	-10.4358
▁Saint	-10.4361
▁England	-10.4362
▁beauty	-10.4364
▁agreement	-10.4365
▁Like	-10.4376
▁strength	-10.4377
▁waiting	-10.4382
и	-10.4383
Le	-10.4383
▁residents	-10.4384
▁Ben	-10.4386
▁mentioned	-10.4393
▁etwas	-10.4393
▁rooms	-10.4393
▁neue	-10.4395
▁Microsoft	-10.4397
▁passed	-10.4402
▁sea	-10.4409
▁electric	-10.4412
▁forms	-10.4414
▁Central	-10.4416
▁Lord	-10.4426
ute	-10.4428
▁pré	-10.4428
▁square	-10.4431
itatea	-10.4435
▁debt	-10.4438
▁street	-10.444
▁pi	-10.4449
▁happened	-10.4453
▁Tuesday	-10.4456
recht	-10.4461
▁Eine	-10.4463
▁Set	-10.4468
▁federal	-10.4468
CC	-10.4469
....	-10.4469
lig	-10.4475
▁Christian	-10.4487
▁truth	-10.4492
▁map	-10.4497
▁secret	-10.45
▁Chinese	-10.4508
hol	-10.4509
▁wrote	-10.4515
▁hospital	-10.4518
▁Island	-10.4519
▁frame	-10.4519
▁sources	-10.4521
pan	-10.4532
▁29	-10.4535
▁changing	-10.4545
▁Where	-10.4546
▁negative	-10.4547
▁processes	-10.4549
▁leadership	-10.455
▁nos	-10.4552
▁info	-10.4558
▁Gu	-10.456
▁CO	-10.4561
▁reference	-10.4569
▁corporate	-10.4571
▁characters	-10.4576
▁dining	-10.4577
▁becoming	-10.4597
▁4.	-10.4603
▁Science	-10.4606
▁Education	-10.4619
▁camp	-10.4621
fall	-10.4621
▁Auch	-10.4625
▁topic	-10.4625
▁influence	-10.4635
▁70	-10.4639
▁identify	-10.4645
▁(19	-10.4646
care	-10.4652
ions	-10.4662
ray	-10.4664
▁Both	-10.4666
▁collect	-10.467
▁practices	-10.4677
▁fight	-10.4681
▁injury	-10.4687
▁nici	-10.4691
▁depuis	-10.4696
▁actions	-10.4696
▁Wednesday	-10.4709
▁bill	-10.4711
▁cheap	-10.4713
lui	-10.4717
▁awesome	-10.4717
tig	-10.4726
▁expensive	-10.4726
ceea	-10.4728
▁exact	-10.4729
22	-10.4735
▁avant	-10.4735
▁fat	-10.4735
▁spending	-10.4744
▁designs	-10.4761
▁damit	-10.4761
▁comp	-10.4762
▁whatever	-10.4764
▁Light	-10.4764
▁quarter	-10.4768
hand	-10.4773
▁connected	-10.4776
▁technologies	-10.4777
ges	-10.4778
▁shower	-10.479
▁500	-10.4792
▁Time	-10.4794
▁zone	-10.4805
▁vote	-10.4806
▁andere	-10.4809
▁otherwise	-10.481
tur	-10.4813
▁happens	-10.4815
hin	-10.4816
▁volume	-10.4822
▁thousands	-10.4824
war	-10.4826
▁Play	-10.4829
▁temperature	-10.4837
▁industrial	-10.4838
▁fuel	-10.4839
100	-10.4841
top	-10.4842
kin	-10.4843
▁efficient	-10.4844
teil	-10.4845
alt	-10.4846
▁monde	-10.4848
▁Ra	-10.4849
▁bedroom	-10.4851
▁showing	-10.4853
▁continued	-10.4855
▁Plan	-10.4855
▁assistance	-10.486
▁discover	-10.4862
▁Year	-10.4862
▁applied	-10.4864
▁audio	-10.4876
▁thus	-10.4876
▁permet	-10.4881
▁fashion	-10.4885
cra	-10.4886
ious	-10.4887
▁focused	-10.4893
16	-10.4893
▁arm	-10.4894
▁Their	-10.4898
▁Foundation	-10.4902
▁majority	-10.4902
▁wind	-10.4908
▁bought	-10.4911
▁factor	-10.4919
▁opened	-10.4921
tern	-10.4924
▁cars	-10.4926
▁exciting	-10.4927
▁affordable	-10.4935
ches	-10.4936
▁panel	-10.4937
▁caused	-10.4938
▁travail	-10.494
▁roof	-10.4941
▁enable	-10.4942
▁toward	-10.4945
▁Development	-10.4947
▁foreign	-10.4953
avi	-10.4953
long	-10.4953
De	-10.4958
▁Mon	-10.4959
▁Va	-10.4959
AP	-10.4961
▁asta	-10.4972
▁prepare	-10.4972
▁German	-10.4973
▁Centre	-10.4973
ère	-10.4974
▁fear	-10.4975
▁Este	-10.4979
▁Des	-10.4979
▁Kon	-10.4993
á	-10.4999
stand	-10.5008
▁Real	-10.5008
lichen	-10.501
▁Beach	-10.5015
▁expertise	-10.5019
▁route	-10.5024
▁nation	-10.5026
▁snow	-10.503
▁articles	-10.5031
▁Wood	-10.5044
▁operation	-10.5049
▁passion	-10.5052
▁cand	-10.5057
haus	-10.5057
OR	-10.5057
▁senior	-10.5065
▁becomes	-10.5065
▁sounds	-10.5069
▁enjoyed	-10.507
▁gegen	-10.5075
▁courses	-10.5079
▁absolutely	-10.5083
tim	-10.5083
uff	-10.5085
▁moins	-10.5086
▁TO	-10.5091
▁fabric	-10.5093
poli	-10.5093
▁Bre	-10.5098
▁bo	-10.5099
▁Elle	-10.5105
bu	-10.5123
▁participants	-10.5124
stone	-10.5128
ties	-10.5137
▁listen	-10.5137
▁Spiel	-10.5138
pot	-10.5139
▁selling	-10.5144
▁geht	-10.5147
▁mini	-10.5151
▁trans	-10.5154
▁ingredients	-10.5156
auf	-10.5157
▁orice	-10.516
▁Next	-10.5163
▁cream	-10.5168
▁edge	-10.517
▁recommended	-10.517
▁Form	-10.5173
▁processing	-10.5175
vert	-10.5177
▁described	-10.5184
▁installed	-10.5188
▁managed	-10.519
▁electronic	-10.519
▁performed	-10.5191
▁raise	-10.5191
▁imagine	-10.5193
down	-10.5195
▁fond	-10.52
▁Inter	-10.5204
▁Mc	-10.5206
▁Dans	-10.5207
istic	-10.521
▁miss	-10.5211
sur	-10.5211
▁Col	-10.5219
cut	-10.522
▁dupa	-10.5222
▁Twitter	-10.5226
▁bowl	-10.5237
▁remains	-10.5237
▁Jan	-10.524
▁smooth	-10.5242
▁fees	-10.5244
▁aid	-10.5245
▁presence	-10.5248
▁Android	-10.525
▁decisions	-10.5254
▁names	-10.5254
▁Music	-10.5255
▁innovative	-10.5256
▁Tom	-10.526
▁spread	-10.5262
▁lovely	-10.5262
▁daughter	-10.5264
US	-10.5271
▁facility	-10.5271
▁peace	-10.5271
▁department	-10.5273
▁weiter	-10.5276
▁Sun	-10.5278
▁fund	-10.5278
▁2018.	-10.5279
▁discussion	-10.5282
75	-10.5288
EC	-10.5291
▁lunch	-10.5291
▁videos	-10.5293
05	-10.5313
ige	-10.5313
▁parking	-10.5316
▁relationships	-10.5317
▁George	-10.533
▁teachers	-10.533
room	-10.5335
▁Tra	-10.5336
▁Sam	-10.5337
▁properly	-10.5356
▁Book	-10.5356
▁CA	-10.537
▁calls	-10.5376
▁stat	-10.5382
ux	-10.5382
▁soit	-10.5384
▁Community	-10.5387
▁Jahren	-10.5387
▁increasing	-10.5396
▁civil	-10.5402
app	-10.5406
▁35	-10.5406
▁rise	-10.5406
▁dabei	-10.541
▁studio	-10.5418
▁policies	-10.5421
▁agent	-10.5421
▁Before	-10.5426
▁Cal	-10.543
▁2005	-10.5434
▁sample	-10.5438
▁manner	-10.5452
wing	-10.5452
stra	-10.5456
▁fel	-10.5458
▁Show	-10.546
▁scene	-10.5466
mic	-10.5468
nom	-10.547
▁typically	-10.5471
▁pair	-10.5471
▁detailed	-10.5474
▁Work	-10.5474
▁cities	-10.5475
▁Rock	-10.5475
▁Gar	-10.5479
▁serving	-10.5484
▁machen	-10.5485
▁trees	-10.5489
▁accident	-10.5492
▁cloud	-10.5492
▁animals	-10.5493
▁Den	-10.5499
▁Wa	-10.5499
▁suggest	-10.5502
putting	-10.5504
▁suite	-10.5504
▁clearly	-10.5508
▁net	-10.5513
▁funding	-10.5515
▁salt	-10.5519
▁Men	-10.5521
ped	-10.5524
▁Food	-10.5531
▁leaving	-10.5535
▁Government	-10.5542
ick	-10.5544
▁seat	-10.5551
▁Los	-10.5552
▁teacher	-10.5556
▁iPhone	-10.5557
▁300	-10.5561
▁commitment	-10.5562
▁aspects	-10.5565
▁previously	-10.5571
▁cent	-10.5573
▁Vo	-10.5573
▁artists	-10.558
▁runs	-10.5581
>	-10.5582
▁Gi	-10.5583
▁mar	-10.5585
!!!	-10.5585
▁Media	-10.5589
▁feedback	-10.5591
▁resolution	-10.5591
IN	-10.5592
▁wurden	-10.5595
▁busy	-10.5598
▁adult	-10.56
29	-10.5605
elles	-10.5614
▁closed	-10.5618
▁trouble	-10.5618
▁rent	-10.562
lot	-10.5622
▁importance	-10.5623
▁units	-10.5626
Pro	-10.5627
▁provider	-10.563
▁visual	-10.5633
IT	-10.5634
▁diet	-10.5637
▁appearance	-10.5639
pin	-10.5646
▁Din	-10.5648
▁eating	-10.5655
Fi	-10.5658
ball	-10.5658
är	-10.5659
ney	-10.5659
▁records	-10.5661
▁Fi	-10.5662
▁faut	-10.5663
▁CD	-10.5668
ign	-10.5669
▁vă	-10.567
▁agency	-10.5672
ierung	-10.5673
▁Back	-10.5674
▁windows	-10.5675
▁pull	-10.5679
ash	-10.568
▁profit	-10.5686
▁brings	-10.5686
▁Committee	-10.5691
▁girl	-10.5692
▁vehicles	-10.5694
▁Hier	-10.5696
ES	-10.5696
până	-10.5699
▁Kunden	-10.5704
pen	-10.5705
▁explain	-10.5705
▁cadru	-10.5708
▁attack	-10.5711
▁markets	-10.5711
▁claims	-10.5713
▁walking	-10.5714
▁pouv	-10.5715
low	-10.5716
▁showed	-10.5721
▁principal	-10.5721
▁lucru	-10.5721
▁precum	-10.5727
TA	-10.5731
▁partners	-10.5731
▁exist	-10.5731
▁internal	-10.5733
hen	-10.5739
▁Master	-10.574
unless	-10.574
▁doubt	-10.5747
$	-10.5748
▁Long	-10.5749
▁leaves	-10.5749
allowing	-10.5751
pol	-10.5753
▁Up	-10.5755
▁Contact	-10.5761
▁practical	-10.5771
▁suit	-10.5776
▁Site	-10.5777
▁formation	-10.5777
▁signal	-10.5782
▁approximately	-10.5784
▁ourselves	-10.5785
▁colour	-10.5785
▁species	-10.5785
▁advance	-10.5788
▁PM	-10.5789
ans	-10.5791
▁locations	-10.5794
vous	-10.5796
▁updated	-10.5796
▁faith	-10.5797
mus	-10.5797
▁stores	-10.5799
heim	-10.5801
▁suitable	-10.5806
▁continues	-10.5807
▁fac	-10.5811
ever	-10.5812
▁Bill	-10.5812
▁chose	-10.5812
▁inform	-10.5812
▁environmental	-10.5814
▁responsibility	-10.5819
99	-10.5825
▁competitive	-10.5837
▁strategies	-10.5839
▁toujours	-10.5843
tive	-10.5843
▁automatically	-10.5856
▁dress	-10.5856
▁Minister	-10.5856
har	-10.5861
▁Start	-10.5862
▁=	-10.5866
▁pattern	-10.5866
tier	-10.5868
▁pays	-10.587
▁profile	-10.5873
▁raised	-10.5873
ange	-10.5873
▁drink	-10.5878
▁element	-10.588
▁landscape	-10.5888
▁Tag	-10.5891
▁cheese	-10.5896
ific	-10.59
▁Stadt	-10.5902
39	-10.5914
▁launch	-10.5921
▁wouldn	-10.5922
AS	-10.5922
▁push	-10.5931
▁mill	-10.5935
▁mass	-10.5936
▁category	-10.5938
sondern	-10.5941
col	-10.5941
▁climate	-10.5943
lier	-10.5944
▁slightly	-10.5955
95	-10.5965
ace	-10.5966
▁domain	-10.5976
kan	-10.5983
▁feed	-10.5985
▁Live	-10.5988
▁Mais	-10.5991
▁après	-10.5994
▁village	-10.5994
▁hatte	-10.5997
▁joined	-10.5999
▁Museum	-10.6003
head	-10.6009
▁draw	-10.601
▁concerns	-10.601
ER	-10.6015
▁technique	-10.6016
▁Bio	-10.6019
▁Sea	-10.6019
▁@	-10.6019
wer	-10.6021
▁battery	-10.6025
▁mostly	-10.6027
▁familiar	-10.6027
▁Sub	-10.6027
▁delicious	-10.6032
doch	-10.6033
60	-10.6034
▁carte	-10.6036
▁avut	-10.6041
▁premium	-10.6046
▁attempt	-10.6047
▁Über	-10.6047
▁combined	-10.6049
lement	-10.6049
▁voi	-10.605
▁wonder	-10.6054
▁failure	-10.6061
which	-10.6061
esti	-10.6063
31	-10.6065
▁sta	-10.6067
▁transform	-10.6067
▁license	-10.6067
▁depending	-10.6068
▁specifically	-10.6068
▁OF	-10.6069
band	-10.607
▁Sport	-10.6073
list	-10.6074
▁Tour	-10.6075
▁Israel	-10.6076
▁filled	-10.6077
▁manual	-10.6078
▁watching	-10.6086
▁rule	-10.6089
mat	-10.609
▁notes	-10.6096
▁Oh	-10.6096
▁bereits	-10.6096
▁foundation	-10.6099
▁vital	-10.6101
▁lassen	-10.6107
▁cât	-10.6112
▁shipping	-10.6114
▁registered	-10.6115
▁jour	-10.6127
▁island	-10.6128
▁sets	-10.6131
▁football	-10.6137
▁EU	-10.6139
▁stone	-10.614
▁Press	-10.6147
▁adapt	-10.6151
ised	-10.6154
▁thoughts	-10.6154
▁doors	-10.6159
€	-10.616
▁components	-10.616
rig	-10.6163
▁generation	-10.6166
▁guess	-10.6167
cker	-10.6169
▁realize	-10.6172
▁Roman	-10.6173
▁contre	-10.6177
▁Out	-10.6179
▁IN	-10.6191
cip	-10.6191
59	-10.6193
▁enhance	-10.6198
▁battle	-10.6198
▁monitor	-10.6199
▁Martin	-10.6205
▁websites	-10.6205
▁DE	-10.6206
▁Festival	-10.621
ân	-10.6213
▁Place	-10.6214
▁rare	-10.6216
această	-10.6217
▁sollte	-10.6217
▁Read	-10.6218
ware	-10.6222
Those	-10.6227
ende	-10.6235
▁prix	-10.6238
▁roman	-10.6241
▁creation	-10.6242
▁confidence	-10.6246
▁Japan	-10.6246
▁rain	-10.6249
▁guys	-10.6252
▁south	-10.6252
▁trading	-10.6256
▁€	-10.6261
▁Film	-10.6263
▁pana	-10.6271
▁asemenea	-10.6271
36	-10.6272
▁instance	-10.6279
cou	-10.6294
▁nun	-10.6301
▁Pass	-10.6304
Cette	-10.6306
▁Network	-10.6309
▁prime	-10.631
▁spiritual	-10.6321
▁tough	-10.633
▁AND	-10.6331
▁Cat	-10.6336
▁boat	-10.6336
▁leads	-10.6349
▁Germany	-10.6351
▁valuable	-10.6356
57	-10.6359
lect	-10.6361
▁distribution	-10.6364
dar	-10.6365
▁Manager	-10.6377
cha	-10.6377
▁obtain	-10.6377
GB	-10.6379
▁unor	-10.6381
schaft	-10.6386
▁zwischen	-10.6387
▁winning	-10.6392
▁suis	-10.6398
58	-10.6401
▁Party	-10.6404
▁ceva	-10.6404
▁comprehensive	-10.6407
▁aceste	-10.6407
▁committed	-10.6407
▁Hu	-10.6414
ţ	-10.6415
▁north	-10.642
werk	-10.6425
▁interface	-10.6428
▁Valley	-10.6428
▁anywhere	-10.6428
▁Only	-10.6429
TE	-10.6433
hui	-10.6437
bus	-10.644
vis	-10.644
▁Society	-10.6451
▁reliable	-10.6456
▁quelques	-10.6456
tech	-10.6462
ual	-10.6464
▁educational	-10.6464
serv	-10.6465
▁opinion	-10.6466
▁appears	-10.6467
▁count	-10.6468
irea	-10.647
ban	-10.6475
▁45	-10.6475
▁contain	-10.6477
ost	-10.6477
▁anul	-10.6477
rien	-10.6482
gra	-10.6484
▁counter	-10.6489
-3	-10.6504
▁resource	-10.6505
▁Wo	-10.6505
▁posts	-10.6506
▁employee	-10.6513
rol	-10.6519
▁ended	-10.652
met	-10.6531
▁meine	-10.6532
▁reached	-10.6534
gri	-10.6537
▁Bra	-10.6537
▁conduct	-10.6543
▁housing	-10.6544
▁tickets	-10.6548
▁database	-10.6557
IL	-10.6562
▁perspective	-10.6564
▁Har	-10.6564
▁error	-10.6565
▁meal	-10.6566
▁hearing	-10.6572
▁transition	-10.6573
▁browser	-10.6576
▁supported	-10.6576
▁starts	-10.6588
țe	-10.6589
▁adults	-10.6589
▁România	-10.6592
dra	-10.6599
▁worry	-10.6602
▁avoir	-10.6605
▁regional	-10.6605
▁min	-10.6607
▁Does	-10.6608
▁Keep	-10.6612
rom	-10.6612
sco	-10.6613
tem	-10.6619
▁Old	-10.662
▁Under	-10.6626
▁Commission	-10.6626
▁Bau	-10.6633
▁News	-10.6634
▁mois	-10.6634
▁respond	-10.6636
▁alles	-10.6639
▁chair	-10.6645
▁ho	-10.6649
right	-10.6649
▁totally	-10.6655
gle	-10.6655
▁32	-10.6656
66	-10.6657
town	-10.6659
Ch	-10.6663
▁gr	-10.6663
▁garage	-10.6663
ții	-10.6665
▁Union	-10.6671
ică	-10.6673
▁2,	-10.6684
▁reflect	-10.6692
▁retail	-10.6694
▁unde	-10.6696
▁accessible	-10.6703
water	-10.6706
▁regard	-10.6707
▁logo	-10.6715
▁inspired	-10.6715
▁Wall	-10.6719
▁Ste	-10.6721
▁asking	-10.6722
▁Journal	-10.673
▁Teil	-10.674
▁collaboration	-10.6742
▁acid	-10.6743
▁Fund	-10.6744
▁spirit	-10.6744
despite	-10.6745
▁delivered	-10.6748
▁girls	-10.6754
▁Look	-10.6759
rant	-10.6759
▁District	-10.6765
▁rental	-10.6767
▁spune	-10.6767
els	-10.6775
▁permanent	-10.6777
▁iron	-10.6777
▁Thomas	-10.6777
EL	-10.6781
▁except	-10.6781
▁catch	-10.6784
▁providers	-10.6784
▁2006	-10.6784
▁chat	-10.6799
▁emergency	-10.6803
gre	-10.6803
site	-10.6809
▁missing	-10.6809
abil	-10.6809
▁Hill	-10.681
urs	-10.6813
▁plusieurs	-10.6817
▁birthday	-10.6817
DS	-10.682
ersten	-10.6824
▁5.	-10.6825
▁library	-10.6833
▁earth	-10.6835
CI	-10.6836
▁lighting	-10.6844
▁fixed	-10.6849
tori	-10.6849
▁replace	-10.685
▁administration	-10.6851
leurs	-10.6852
▁meat	-10.6861
▁songs	-10.6867
▁confirm	-10.6869
▁rapid	-10.687
▁Special	-10.687
▁holding	-10.6871
▁honor	-10.6873
▁Market	-10.6874
La	-10.6875
▁measure	-10.6878
▁guarantee	-10.6879
▁switch	-10.6881
▁extensive	-10.6883
▁Neu	-10.6887
avez	-10.6889
▁protein	-10.689
▁infrastructure	-10.6895
▁functions	-10.6895
▁cont	-10.6895
row	-10.6898
star	-10.6898
▁Port	-10.6902
Using	-10.6903
▁faster	-10.6906
44	-10.6912
▁measures	-10.6916
▁celor	-10.6919
▁exam	-10.6919
200	-10.692
î	-10.6925
▁conversation	-10.6928
▁brands	-10.693
▁Code	-10.6936
▁Website	-10.6937
OS	-10.6938
▁alors	-10.6938
▁organ	-10.694
▁removed	-10.6948
▁Head	-10.6949
▁Cha	-10.6949
▁visiting	-10.6949
▁wild	-10.6949
▁seit	-10.695
49	-10.6951
▁organic	-10.6954
aţi	-10.6958
▁kit	-10.6959
68	-10.696
▁flowers	-10.6961
▁appreciate	-10.697
▁dead	-10.6974
▁Fire	-10.6975
▁cela	-10.6976
▁Ph	-10.6976
▁arrive	-10.6979
▁purposes	-10.6982
▁qualité	-10.6982
▁restaurants	-10.6985
▁advertising	-10.6985
cur	-10.6986
▁ça	-10.699
▁introduced	-10.6991
▁returned	-10.6991
▁desire	-10.6995
▁soul	-10.7
▁Technology	-10.7
);	-10.7002
▁Royal	-10.7003
tant	-10.7007
▁possibly	-10.7007
▁consumers	-10.7008
▁doua	-10.701
ified	-10.701
▁Award	-10.7011
toutes	-10.7013
▁meant	-10.7013
ezi	-10.7016
▁plu	-10.7018
ţii	-10.7021
▁talent	-10.7028
▁Security	-10.7033
arii	-10.7034
▁zi	-10.7035
▁Shop	-10.7037
▁breakfast	-10.7041
▁trial	-10.7045
ami	-10.7049
▁register	-10.7053
unserer	-10.7056
▁solar	-10.7057
▁deals	-10.7059
▁Ku	-10.7059
To	-10.7062
bat	-10.7068
MC	-10.707
▁Global	-10.707
у	-10.7074
▁nor	-10.7078
▁milk	-10.7079
▁choices	-10.7082
»	-10.7087
▁Sur	-10.7087
more	-10.7087
48	-10.709
67	-10.7094
▁replacement	-10.7099
34	-10.7104
▁chocolate	-10.7105
▁Family	-10.7106
This	-10.7112
▁novel	-10.7114
▁Chicago	-10.7116
▁participate	-10.7117
▁trei	-10.7127
▁monthly	-10.7137
▁survey	-10.714
▁End	-10.7143
▁Medical	-10.7144
autres	-10.7147
rich	-10.7147
▁bike	-10.7147
▁eventually	-10.7147
▁HD	-10.7147
bil	-10.7147
cent	-10.7149
▁afin	-10.7157
▁surgery	-10.7162
▁sin	-10.7165
▁manufacturing	-10.717
▁consumer	-10.7172
system	-10.7173
▁object	-10.7174
▁Ju	-10.7174
ered	-10.7178
rac	-10.7181
▁clinical	-10.7187
▁dollars	-10.7198
▁chain	-10.7199
▁afternoon	-10.7202
▁ligne	-10.7204
▁accounts	-10.7218
ving	-10.722
▁Australian	-10.7224
38	-10.7225
▁persoane	-10.7226
▁grande	-10.7227
▁Report	-10.7235
▁revenue	-10.7236
▁spre	-10.7238
▁cutting	-10.724
▁approved	-10.7241
▁glad	-10.7242
chaque	-10.7244
win	-10.7244
▁waren	-10.7247
▁launched	-10.7251
▁layer	-10.7256
▁airport	-10.7257
▁effectively	-10.7257
▁coach	-10.7259
dé	-10.7261
LE	-10.7263
▁müssen	-10.7264
plan	-10.7266
dan	-10.7267
55	-10.7268
bringing	-10.7269
▁$2	-10.727
nce	-10.7272
▁inspiration	-10.7282
You	-10.7287
▁soll	-10.7291
▁seemed	-10.7296
▁flight	-10.7297
▁prima	-10.7299
▁Welt	-10.7301
▁jetzt	-10.7303
ky	-10.7304
▁Western	-10.7305
▁label	-10.7306
▁möglich	-10.7308
▁input	-10.7309
▁laws	-10.731
▁personnes	-10.7317
▁paying	-10.7317
▁Uhr	-10.7317
▁Mary	-10.7317
pur	-10.7319
▁covers	-10.7321
▁throw	-10.7325
▁Tor	-10.7333
▁bat	-10.7336
▁Gr	-10.7337
▁farm	-10.7338
▁improved	-10.7338
▁fără	-10.7343
▁theme	-10.7344
pens	-10.7349
▁Cup	-10.735
▁settings	-10.7351
▁hire	-10.7352
▁massive	-10.7352
▁generate	-10.7354
▁earn	-10.7358
▁tab	-10.7364
For	-10.7366
gang	-10.7369
▁hin	-10.7371
▁roll	-10.7371
▁engagement	-10.7372
▁signed	-10.7372
▁League	-10.7373
▁registration	-10.7379
▁première	-10.7388
isse	-10.739
▁university	-10.739
ell	-10.7392
▁nou	-10.7392
rog	-10.7392
▁sitting	-10.7392
▁cazul	-10.7396
▁surrounding	-10.7398
▁Asia	-10.7404
▁bath	-10.7408
hal	-10.7409
▁plate	-10.741
▁tests	-10.7412
▁presentation	-10.7412
▁chicken	-10.7415
▁Val	-10.7416
ably	-10.7417
▁magazine	-10.7417
▁Maybe	-10.7419
▁sauce	-10.7427
TC	-10.7429
▁exclusive	-10.743
86	-10.7431
▁teeth	-10.7435
▁regularly	-10.7435
sed	-10.7438
gro	-10.7442
He	-10.7442
▁2017.	-10.7443
▁template	-10.7449
▁gleich	-10.7449
bal	-10.7451
▁African	-10.7451
în	-10.7452
▁rep	-10.7454
▁beat	-10.7459
▁deck	-10.7461
▁intended	-10.7462
▁para	-10.7465
▁IP	-10.7467
▁bra	-10.7469
▁forces	-10.747
▁routine	-10.7472
▁Jahre	-10.7478
▁Bad	-10.748
▁drivers	-10.7481
▁updates	-10.7481
▁elegant	-10.7483
▁external	-10.7484
▁engineering	-10.7488
ender	-10.7495
table	-10.7498
inter	-10.7499
▁Romania	-10.7499
▁zile	-10.7505
▁luxury	-10.7506
▁calling	-10.7508
▁cooking	-10.751
▁component	-10.7511
wan	-10.7512
schen	-10.7512
▁birth	-10.7512
asupra	-10.7513
Co	-10.7515
▁opt	-10.7515
▁discovered	-10.7519
▁teach	-10.7521
▁Son	-10.7523
▁guest	-10.7524
▁dogs	-10.7527
▁2003	-10.7527
▁behavior	-10.7528
pé	-10.753
63	-10.7532
▁Human	-10.7537
▁expression	-10.7548
▁nevoie	-10.7549
▁recherche	-10.7553
ging	-10.7558
related	-10.7559
▁discount	-10.756
▁Brown	-10.7561
▁Such	-10.7561
▁Ve	-10.7571
▁height	-10.7573
clo	-10.7574
▁incredible	-10.7579
▁bas	-10.7579
▁mă	-10.758
▁purchased	-10.7582
▁compte	-10.7583
▁instructions	-10.7585
▁Instead	-10.7587
▁output	-10.7587
▁mom	-10.7589
DR	-10.7598
89	-10.7602
▁reduced	-10.7606
98	-10.7607
▁constant	-10.7609
▁therapy	-10.7624
▁capable	-10.7628
mark	-10.7633
▁Sometimes	-10.7633
▁joy	-10.7634
▁perfectly	-10.7636
▁painting	-10.7637
avait	-10.7638
▁Sha	-10.7644
▁dat	-10.7645
▁produits	-10.7645
tric	-10.7646
ierte	-10.7652
▁Smith	-10.7658
▁trebui	-10.7663
▁beaucoup	-10.7666
▁chosen	-10.7672
▁cre	-10.7673
▁complet	-10.7673
▁Ltd	-10.7676
▁recovery	-10.7678
▁district	-10.7684
78	-10.7686
▁Unter	-10.7687
▁schnell	-10.7687
▁apart	-10.7689
▁phase	-10.7689
▁seeking	-10.7691
▁mark	-10.7691
▁pet	-10.7692
▁PDF	-10.7693
▁efficiency	-10.7696
▁buildings	-10.7696
69	-10.7697
▁sens	-10.7699
▁Video	-10.7701
▁destination	-10.7702
▁female	-10.7703
▁supporting	-10.7707
▁signs	-10.7708
▁appeal	-10.7708
76	-10.7711
▁favourite	-10.7716
ock	-10.7717
▁readers	-10.7718
▁Did	-10.7719
rou	-10.772
PA	-10.7722
▁Jean	-10.7725
▁Em	-10.7726
pass	-10.7728
▁Zi	-10.7731
▁între	-10.7733
▁fly	-10.7734
mos	-10.7737
▁emotional	-10.7739
asse	-10.7748
▁sessions	-10.7751
▁symptoms	-10.7756
▁died	-10.7762
▁seconds	-10.7766
▁procedure	-10.7772
▁express	-10.7774
▁două	-10.7779
▁valid	-10.7784
▁euro	-10.7789
▁interests	-10.779
Having	-10.7792
▁hundreds	-10.7797
grad	-10.78
▁neuen	-10.7801
▁cook	-10.7806
▁pur	-10.7808
▁charges	-10.781
sche	-10.7812
▁smile	-10.7815
▁festival	-10.7816
cho	-10.7817
▁£	-10.7819
cht	-10.782
▁macht	-10.782
▁Wasser	-10.782
▁Cap	-10.7823
▁Learn	-10.7827
▁load	-10.7832
▁aici	-10.7832
▁Ch	-10.7841
▁cycle	-10.7842
▁carried	-10.7843
▁jusqu	-10.7845
stein	-10.7851
ski	-10.7851
cap	-10.7858
▁Bal	-10.7859
▁minor	-10.7861
77	-10.7862
▁considering	-10.7863
innen	-10.7864
▁greatest	-10.7871
▁Training	-10.7871
08	-10.7873
▁significantly	-10.7876
gé	-10.7877
▁dumpster	-10.7884
▁allem	-10.7889
▁bonus	-10.7889
▁guy	-10.789
fel	-10.789
▁lifestyle	-10.7892
▁Bro	-10.7896
▁implement	-10.7897
lock	-10.79
▁Earth	-10.7901
kar	-10.7907
▁invest	-10.7908
▁river	-10.7909
▁accurate	-10.7915
▁mu	-10.7916
▁celebrate	-10.7921
▁ran	-10.7926
▁bigger	-10.793
▁Mer	-10.7935
▁millions	-10.7935
▁partie	-10.7936
▁dazu	-10.794
▁Full	-10.7941
gie	-10.7942
bot	-10.7944
roll	-10.7947
▁Women	-10.7953
▁compare	-10.7961
▁van	-10.7965
▁apps	-10.7965
PC	-10.7971
▁drei	-10.7974
▁maison	-10.7976
▁knows	-10.7977
rid	-10.798
62	-10.7984
class	-10.7985
▁chez	-10.7987
char	-10.7988
88	-10.799
▁cast	-10.7995
▁examples	-10.7997
▁Therefore	-10.7998
▁topics	-10.7999
with	-10.8001
▁Anti	-10.8006
how	-10.8006
▁whom	-10.8009
▁Deutschland	-10.8011
tine	-10.8011
▁CEO	-10.8012
▁truck	-10.8014
▁Which	-10.8016
erie	-10.802
fect	-10.8021
bou	-10.8027
▁(1	-10.8028
sum	-10.803
▁bonne	-10.8031
▁remaining	-10.8032
▁equal	-10.8035
▁engage	-10.8036
▁RE	-10.8038
style	-10.8042
▁urma	-10.8043
▁Grund	-10.805
ür	-10.8051
▁font	-10.8054
▁assets	-10.8059
AL	-10.8061
▁rear	-10.8064
▁contemporary	-10.8065
▁occur	-10.8067
rated	-10.8069
▁tight	-10.8071
▁machines	-10.8079
▁0.	-10.8085
▁Aber	-10.8085
sol	-10.8085
rü	-10.8086
▁2007	-10.8095
gg	-10.8095
▁unul	-10.8097
▁était	-10.8099
▁capture	-10.81
▁command	-10.81
▁wire	-10.8104
▁shift	-10.8108
▁bread	-10.8108
▁causes	-10.8109
PI	-10.8109
SC	-10.8111
▁lights	-10.8112
▁lived	-10.8113
mul	-10.8114
▁Cur	-10.8119
▁Richard	-10.812
37	-10.8126
▁cup	-10.8127
▁fields	-10.813
▁crusher	-10.8134
65	-10.8138
avons	-10.8138
▁gear	-10.8138
▁standing	-10.8138
▁thick	-10.8145
aff	-10.8151
ments	-10.8154
▁conflict	-10.8157
ität	-10.8158
▁worse	-10.8163
SE	-10.8163
imi	-10.8165
▁dating	-10.817
Do	-10.8171
▁flexible	-10.8171
ologie	-10.8171
SU	-10.8172
▁contribute	-10.8173
▁denn	-10.8174
▁appointment	-10.8175
▁ticket	-10.8175
bed	-10.8179
▁2019.	-10.8179
▁tasks	-10.8187
▁carbon	-10.8187
▁situations	-10.8194
MA	-10.8194
▁portion	-10.8195
▁urban	-10.8196
▁Canadian	-10.8198
▁Bur	-10.8199
▁pack	-10.82
▁effet	-10.82
▁Ball	-10.8201
▁timpul	-10.8201
▁owned	-10.8202
▁surprise	-10.8204
▁Mu	-10.8206
▁decades	-10.821
▁affected	-10.8217
▁proven	-10.8217
▁Fe	-10.822
zy	-10.822
42	-10.8222
▁trend	-10.8224
▁autres	-10.8226
No	-10.823
▁nine	-10.8236
ON	-10.8238
NE	-10.824
oli	-10.8244
▁Daniel	-10.8244
▁spa	-10.8249
▁messages	-10.8251
PS	-10.8252
47	-10.8257
▁doch	-10.826
▁improvement	-10.8262
▁mountain	-10.8264
▁Room	-10.8265
▁edition	-10.8265
▁musical	-10.8267
CP	-10.827
▁Mill	-10.827
▁steht	-10.8277
▁determined	-10.8281
you	-10.8284
weg	-10.8286
▁Digital	-10.8286
▁filter	-10.8289
▁youth	-10.829
▁assessment	-10.8293
▁butter	-10.8294
▁Watch	-10.8294
▁zusammen	-10.8295
▁View	-10.8296
09	-10.8296
▁sole	-10.8298
.00	-10.83
33	-10.8302
▁export	-10.8302
ery	-10.8304
▁zurück	-10.8304
▁walls	-10.8305
▁recognize	-10.8307
law	-10.8308
▁parent	-10.8309
ST	-10.8314
▁description	-10.8317
MS	-10.8319
SM	-10.8319
▁Finally	-10.8319
▁hardware	-10.832
ident	-10.8325
▁brown	-10.8326
▁kinds	-10.833
▁Arts	-10.833
▁concert	-10.8334
▁sec	-10.8334
▁represent	-10.8335
▁institutions	-10.8336
▁fur	-10.834
▁Support	-10.834
87	-10.8341
▁ease	-10.8342
▁feels	-10.8342
▁sheet	-10.8343
▁Though	-10.8344
▁propose	-10.8344
▁personnel	-10.8344
bie	-10.8348
▁contest	-10.8348
▁successfully	-10.8352
▁direkt	-10.8354
bietet	-10.8356
▁submit	-10.8359
▁sicher	-10.8359
▁Personal	-10.8361
94	-10.8363
61	-10.8364
▁Very	-10.8365
bol	-10.8366
▁ha	-10.8371
▁channel	-10.8372
mut	-10.8373
▁mouth	-10.8373
▁vast	-10.8374
▁Ob	-10.8376
lit	-10.8376
▁poly	-10.8379
▁trained	-10.8381
▁specialist	-10.8381
UL	-10.8382
▁seiner	-10.8383
SS	-10.8386
▁vacation	-10.8387
▁resume	-10.8392
▁constantly	-10.8397
▁treated	-10.8399
▁150	-10.8409
▁native	-10.8412
▁Russian	-10.8413
▁patterns	-10.8414
▁knowing	-10.8417
▁Pan	-10.8417
peri	-10.8418
aci	-10.8419
▁answers	-10.8421
▁heute	-10.843
93	-10.8431
▁Winter	-10.8441
▁yes	-10.8442
SP	-10.8442
].	-10.8444
▁kein	-10.8449
▁introduce	-10.8451
-4	-10.8456
▁shoot	-10.8458
AR	-10.8458
▁receiving	-10.8459
▁intre	-10.847
▁appeared	-10.8471
▁brother	-10.8473
▁extend	-10.8478
▁fara	-10.8487
▁kommt	-10.8489
ali	-10.8489
▁numai	-10.849
▁scientific	-10.8491
▁virtual	-10.8491
▁Ac	-10.8495
▁procedures	-10.8496
▁silver	-10.8498
▁leather	-10.85
DA	-10.8501
▁executive	-10.8503
▁officials	-10.8505
▁agencies	-10.8505
▁Software	-10.8505
▁cor	-10.8507
Con	-10.8507
▁log	-10.8511
ț	-10.8511
02	-10.8512
▁7.	-10.8525
▁accepted	-10.8525
▁Berlin	-10.8525
ID	-10.8526
cot	-10.8528
▁employment	-10.8528
run	-10.853
▁identified	-10.8532
96	-10.8539
▁déjà	-10.8539
▁cuisine	-10.854
turi	-10.8541
▁Japanese	-10.8543
▁golf	-10.8545
▁Ki	-10.8548
▁carefully	-10.8549
▁remote	-10.855
▁2018,	-10.8551
▁sus	-10.8552
tique	-10.8553
▁residential	-10.8557
97	-10.8558
▁Spring	-10.8559
▁Marketing	-10.8562
▁Control	-10.8563
var	-10.8563
▁historical	-10.8564
▁freedom	-10.8564
sure	-10.8564
▁broken	-10.8568
▁criminal	-10.8569
▁innovation	-10.8571
▁Italian	-10.8572
sper	-10.8573
▁cake	-10.8577
▁candidates	-10.8579
▁sizes	-10.8583
pel	-10.8584
▁frequently	-10.8589
▁planet	-10.8591
▁writer	-10.8595
1,	-10.8596
uvent	-10.8596
▁awareness	-10.8598
name	-10.86
▁Children	-10.86
▁relatively	-10.8603
▁pu	-10.8603
▁quiet	-10.8604
▁planned	-10.8607
▁election	-10.8614
▁6.	-10.8618
▁broad	-10.8618
▁skill	-10.8618
▁reasonable	-10.862
▁Fort	-10.8623
▁aceea	-10.8624
▁arrived	-10.8626
▁payments	-10.8627
ack	-10.8627
▁Ort	-10.8634
▁investors	-10.8634
▁operate	-10.8635
ME	-10.8636
dic	-10.8637
▁foods	-10.8637
▁stick	-10.8638
▁agents	-10.8641
▁crowd	-10.8642
▁Students	-10.8645
▁concerned	-10.8646
test	-10.8647
▁designer	-10.8653
▁Conference	-10.8656
▁saving	-10.8661
▁recorded	-10.8664
▁proposed	-10.8666
▁ship	-10.8666
▁cred	-10.8673
▁Ci	-10.8674
RE	-10.8676
▁tradition	-10.8678
▁worldwide	-10.8678
64	-10.8679
▁television	-10.868
▁projet	-10.8681
ency	-10.8685
▁struggle	-10.8685
▁twice	-10.869
▁Off	-10.8692
▁begins	-10.8696
key	-10.8698
▁Table	-10.87
▁demande	-10.8702
▁liquid	-10.8704
meter	-10.8707
▁2001	-10.8712
▁willing	-10.8717
▁medicine	-10.8717
▁expand	-10.8717
▁2004	-10.8718
▁2002	-10.872
▁accord	-10.8723
▁Chris	-10.8724
▁prove	-10.8725
ston	-10.8727
mettre	-10.8728
▁moments	-10.8735
tik	-10.8737
such	-10.8741
2.	-10.8744
▁UN	-10.8746
▁jump	-10.8747
▁dish	-10.8754
▁Key	-10.8757
▁challenging	-10.876
▁domestic	-10.8764
▁impressive	-10.8768
iger	-10.877
▁Ram	-10.8772
▁doit	-10.8773
▁concrete	-10.8773
▁Unternehmen	-10.8774
▁LED	-10.8774
▁trouver	-10.8775
▁fundamental	-10.8779
▁implementation	-10.8781
85	-10.8782
▁hosting	-10.8786
▁Game	-10.8787
▁taught	-10.879
tung	-10.879
ront	-10.8794
▁shoes	-10.8796
79	-10.8798
▁stunning	-10.8798
▁Congress	-10.8801
▁Ent	-10.8803
▁Wer	-10.8806
▁alt	-10.8806
ör	-10.8807
▁calm	-10.8808
46	-10.8811
▁Daca	-10.8814
71	-10.8819
▁Dec	-10.8824
▁Fo	-10.8824
▁defense	-10.8831
▁expectations	-10.8832
▁Alle	-10.8832
▁brief	-10.8837
▁Hospital	-10.884
▁sides	-10.8841
▁yellow	-10.8841
lei	-10.8845
▁speaking	-10.8846
▁crucial	-10.8852
▁Town	-10.8854
▁married	-10.8856
▁acesta	-10.8856
▁noted	-10.8856
▁Word	-10.8857
▁conducted	-10.886
▁decor	-10.8862
kon	-10.8866
▁supplies	-10.8867
▁adventure	-10.8867
▁exhibition	-10.8872
heit	-10.8873
▁36	-10.8874
eria	-10.8875
ines	-10.8876
ological	-10.8876
quel	-10.8881
▁Van	-10.8883
-19	-10.8885
2,	-10.8886
▁Band	-10.889
▁soil	-10.8892
▁Tim	-10.8896
▁NOT	-10.8897
▁pilot	-10.8898
▁Sh	-10.8898
Ho	-10.8904
CA	-10.8905
▁Eu	-10.8907
▁committee	-10.8908
▁Store	-10.8911
▁joint	-10.8911
▁Op	-10.8913
▁Jack	-10.892
quality	-10.8922
▁Has	-10.8925
▁wenig	-10.8925
hood	-10.8925
▁Class	-10.8926
rus	-10.8928
▁grown	-10.8929
▁About	-10.8935
▁sum	-10.8939
▁Fair	-10.8939
SA	-10.8941
92	-10.8942
▁fourth	-10.8944
▁featured	-10.8944
▁Pen	-10.8944
▁natürlich	-10.8949
ched	-10.8949
▁ban	-10.8951
anne	-10.8952
▁theory	-10.8954
bin	-10.8954
iers	-10.8958
▁strategic	-10.8959
▁jours	-10.896
▁communicate	-10.8961
▁pin	-10.8963
▁Bon	-10.8972
kom	-10.8973
-5	-10.8982
▁degrees	-10.8986
▁entertainment	-10.899
ară	-10.8992
ales	-10.8994
▁pendant	-10.8995
▁Series	-10.8996
▁holds	-10.8996
▁Mini	-10.8998
▁Obama	-10.8999
▁conform	-10.9002
-10	-10.9002
▁preparation	-10.9009
▁autre	-10.9011
▁mortgage	-10.9012
▁Kan	-10.9015
▁typical	-10.9015
01	-10.9017
▁Review	-10.9019
▁laptop	-10.9021
CR	-10.9026
▁thread	-10.9027
BS	-10.9027
▁upper	-10.9027
▁searching	-10.9029
▁pen	-10.9032
▁Middle	-10.9033
73	-10.9034
▁leg	-10.9037
onic	-10.9043
IS	-10.9044
▁Kar	-10.9046
anz	-10.9047
▁circuit	-10.9049
▁Casino	-10.9054
07	-10.9058
▁petit	-10.9059
TV	-10.906
level	-10.9063
▁Point	-10.9063
rau	-10.9065
▁cabinet	-10.907
▁failed	-10.907
▁stated	-10.9071
LA	-10.9075
▁privacy	-10.9076
vol	-10.9079
ativ	-10.9082
▁matters	-10.9082
▁Mor	-10.9086
▁Ur	-10.9086
view	-10.909
▁consultation	-10.9092
TS	-10.9093
▁apartment	-10.9094
▁integrated	-10.9094
74	-10.9097
▁Through	-10.9097
▁kick	-10.9098
▁perioada	-10.9099
▁entirely	-10.91
▁impossible	-10.9102
▁consideration	-10.9103
▁Alt	-10.9105
▁Come	-10.9111
▁outstanding	-10.9113
83	-10.9117
▁prezent	-10.9119
▁Local	-10.912
▁Camp	-10.9121
▁bear	-10.9121
enden	-10.9123
life	-10.9124
▁Haus	-10.9125
▁William	-10.9126
“,	-10.9127
▁Instagram	-10.9129
▁solve	-10.9132
▁Ze	-10.9134
▁everyday	-10.9136
bla	-10.9136
eng	-10.9137
ough	-10.9142
84	-10.9145
?"	-10.9146
rely	-10.9148
TH	-10.9148
lang	-10.9151
82	-10.9158
▁removal	-10.9159
ală	-10.916
▁circumstances	-10.9161
ente	-10.9162
▁lieu	-10.9165
▁2016.	-10.9171
▁ales	-10.9173
▁pure	-10.9175
▁choosing	-10.9176
▁Russia	-10.9177
amp	-10.9177
▁Santa	-10.9179
▁happening	-10.9182
▁crew	-10.9182
▁lei	-10.9186
IP	-10.9186
RO	-10.9194
▁resort	-10.9195
ened	-10.9197
MB	-10.92
▁styles	-10.9201
▁dernier	-10.9205
uck	-10.9207
▁Guide	-10.9207
fic	-10.921
▁fitness	-10.922
▁healthcare	-10.9222
mol	-10.9224
▁vis	-10.9227
▁atmosphere	-10.923
▁motion	-10.923
▁closer	-10.9231
▁SA	-10.9234
▁default	-10.9234
▁architecture	-10.9235
iile	-10.9235
zel	-10.9237
cla	-10.9239
OP	-10.9244
▁west	-10.925
▁Energy	-10.9256
▁positions	-10.9258
▁contrast	-10.9259
▁serves	-10.9261
cup	-10.9263
▁rose	-10.9265
pers	-10.9266
▁noise	-10.9268
mont	-10.9269
#	-10.9271
lies	-10.9273
pat	-10.9277
IC	-10.928
arc	-10.928
▁winner	-10.9285
tent	-10.9287
▁Preis	-10.9291
▁vin	-10.9293
blo	-10.9293
ție	-10.9295
▁OR	-10.9303
▁Buch	-10.9308
▁nearby	-10.9312
▁meetings	-10.9313
▁48	-10.9315
▁quand	-10.9315
▁usual	-10.9319
▁weitere	-10.9325
▁caught	-10.9326
▁issued	-10.9326
ști	-10.9329
upcoming	-10.9332
▁agreed	-10.9332
place	-10.9334
▁Brand	-10.9334
▁relation	-10.934
▁atât	-10.9341
▁Tre	-10.9342
▁lors	-10.9344
▁adopt	-10.9345
▁celui	-10.9346
cken	-10.9351
▁partnership	-10.9353
?”	-10.9354
▁ba	-10.9357
▁ID	-10.9358
▁consistent	-10.9358
▁Ya	-10.9359
▁Academy	-10.9362
cial	-10.9362
1%	-10.9364
▁mise	-10.9367
▁gute	-10.9367
gli	-10.9369
▁Bu	-10.9377
▁reduction	-10.9379
acy	-10.9381
aga	-10.9382
▁Sc	-10.9383
▁Informationen	-10.9383
▁kommen	-10.9384
press	-10.9384
▁bridge	-10.9384
▁qualified	-10.9387
position	-10.9388
▁combat	-10.9389
!"	-10.939
eva	-10.9392
oase	-10.9394
▁inner	-10.9394
▁loans	-10.9397
made	-10.9398
▁Mexico	-10.9399
▁formal	-10.9401
▁fell	-10.9402
91	-10.9405
▁campus	-10.9407
ienne	-10.9409
▁framework	-10.9411
ncing	-10.9412
▁Para	-10.9412
▁password	-10.9413
▁sei	-10.9414
▁Cross	-10.9415
▁Ten	-10.9419
bank	-10.9419
▁gun	-10.942
ient	-10.942
▁usage	-10.9422
▁(2	-10.9423
Gra	-10.9423
▁prea	-10.9425
▁Als	-10.9426
▁finance	-10.9426
tate	-10.9427
ition	-10.9427
▁regulations	-10.9427
▁Professional	-10.943
▁pl	-10.9434
▁SEO	-10.9435
▁trecut	-10.9435
▁aller	-10.9435
▁violence	-10.944
▁membership	-10.9441
▁picked	-10.9442
▁collected	-10.9443
▁extended	-10.9444
▁religious	-10.9447
▁salle	-10.9448
RA	-10.9448
▁blend	-10.9452
▁Min	-10.9453
kal	-10.9459
▁featuring	-10.9459
▁researchers	-10.9463
▁Search	-10.9466
CE	-10.9467
▁recognized	-10.9468
▁semi	-10.9469
▁exposure	-10.9472
grew	-10.9475
▁candidate	-10.9483
▁shares	-10.9489
▁edit	-10.9497
CS	-10.9499
▁Cl	-10.9502
▁Enjoy	-10.9514
▁hurt	-10.9515
▁bottle	-10.9516
▁Buy	-10.9516
▁superior	-10.9523
▁missed	-10.9524
▁workshop	-10.9524
action	-10.9524
ple	-10.9527
▁Schul	-10.9528
▁houses	-10.9531
▁2017,	-10.9536
▁killed	-10.9538
▁calendar	-10.9543
▁Mike	-10.9546
FA	-10.9546
nut	-10.9549
▁establish	-10.9551
▁alcohol	-10.9551
▁closely	-10.9552
▁MA	-10.9554
pul	-10.9554
▁defined	-10.9557
aires	-10.9557
▁Shi	-10.9557
▁plays	-10.9563
▁sister	-10.9569
▁cable	-10.9572
▁desk	-10.9572
▁apoi	-10.9577
▁identity	-10.9579
▁stars	-10.9579
▁fata	-10.958
▁obvious	-10.9583
▁dental	-10.9584
AM	-10.9588
▁sharp	-10.9588
duc	-10.9591
▁manufacturer	-10.9591
!)	-10.9593
▁objects	-10.9597
▁Ag	-10.96
referred	-10.9602
▁Ak	-10.9603
burg	-10.9604
▁nouveau	-10.9609
▁Pal	-10.961
▁Arbeits	-10.9613
▁personally	-10.9613
▁Dé	-10.9613
▁import	-10.9617
▁justice	-10.9619
▁photography	-10.9627
▁portfolio	-10.9628
56	-10.9631
▁nouvelle	-10.9633
▁oven	-10.9642
▁400	-10.9643
▁mixed	-10.9644
▁relax	-10.9644
▁imp	-10.9647
▁».	-10.9647
▁mail	-10.9648
rage	-10.9649
nos	-10.965
▁drugs	-10.9652
▁jede	-10.9652
▁einige	-10.9652
▁8.	-10.9653
ters	-10.9654
▁electrical	-10.9654
▁puis	-10.9658
▁films	-10.9659
41	-10.966
▁moral	-10.9664
lage	-10.9664
▁spaces	-10.9664
▁Ed	-10.9665
▁classroom	-10.9666
▁große	-10.9666
▁baza	-10.9669
face	-10.9673
▁informed	-10.9673
▁improving	-10.9675
▁guidance	-10.9679
▁gallery	-10.968
cular	-10.968
53	-10.9681
Despite	-10.9682
▁forme	-10.9683
▁système	-10.9684
▁Win	-10.9685
▁Small	-10.9685
▁Mobile	-10.9686
▁tape	-10.9686
▁erhalten	-10.9689
▁movies	-10.9689
▁Unfortunately	-10.969
▁Looking	-10.9695
▁guard	-10.9696
▁pr	-10.9698
▁confident	-10.9699
BA	-10.9702
bas	-10.9703
hum	-10.9705
ular	-10.9705
▁Still	-10.9706
▁flavor	-10.9707
▁boost	-10.9708
▁division	-10.9708
ising	-10.971
▁monitoring	-10.971
▁Sen	-10.9711
▁https	-10.9715
mainly	-10.9717
play	-10.9723
▁dynamic	-10.9724
▁coup	-10.9724
▁carpet	-10.9726
iner	-10.9728
ral	-10.9733
iser	-10.9733
RC	-10.974
▁definition	-10.9748
▁Za	-10.9748
friendly	-10.9749
43	-10.9751
link	-10.9752
▁Multi	-10.9752
▁einmal	-10.9753
▁stopped	-10.9754
vel	-10.9755
▁ongoing	-10.9756
▁ancient	-10.9763
take	-10.9763
cia	-10.9764
▁USB	-10.9765
▁attorney	-10.9769
▁slot	-10.9769
▁Line	-10.9769
rice	-10.9771
ify	-10.9775
ó	-10.9783
▁flash	-10.9785
▁extension	-10.9786
▁Ende	-10.979
▁powder	-10.9791
ească	-10.9791
03	-10.9793
▁normally	-10.9794
▁pun	-10.9801
viewed	-10.9801
ssen	-10.9809
ache	-10.9811
ește	-10.9812
▁PA	-10.9813
FI	-10.9819
▁Frank	-10.982
▁apa	-10.9824
▁coast	-10.9826
▁boy	-10.9827
lim	-10.9829
▁putin	-10.9832
▁script	-10.9833
▁noticed	-10.9837
▁dealing	-10.9839
▁Trans	-10.9841
▁border	-10.9844
▁reputation	-10.9847
-2	-10.9847
HS	-10.9847
▁supports	-10.9847
▁horse	-10.9851
nik	-10.9852
▁clothes	-10.9852
▁Card	-10.9856
▁relief	-10.986
▁Visit	-10.9863
▁luni	-10.9866
81	-10.9867
qua	-10.9869
▁Comp	-10.987
▁investigation	-10.9871
▁depth	-10.9876
▁earned	-10.9877
▁Ren	-10.9881
▁Dumnezeu	-10.9881
▁Joe	-10.9882
▁goods	-10.9883
▁Vol	-10.9887
▁certified	-10.9891
▁favor	-10.9893
▁Scott	-10.9896
▁protest	-10.9898
▁pace	-10.9898
▁Angeles	-10.9904
inch	-10.9905
▁charged	-10.9905
code	-10.991
▁convenient	-10.9914
▁Nord	-10.9916
▁yesterday	-10.9917
Dacă	-10.9917
▁Travel	-10.9918
▁kid	-10.9919
ction	-10.992
▁groupe	-10.9928
pu	-10.9931
bzw	-10.9932
▁mixture	-10.9935
▁Farm	-10.9937
▁acces	-10.9939
matic	-10.994
▁comparison	-10.994
reich	-10.9941
pet	-10.9945
▁lit	-10.9947
▁organized	-10.9948
just	-10.9956
▁fellow	-10.996
Ver	-10.9962
▁trends	-10.9962
▁evaluation	-10.9963
feld	-10.9964
▁Pu	-10.9967
▁equipped	-10.9973
▁catre	-10.9973
eck	-10.9974
▁facing	-10.998
▁instrument	-10.9984
▁pleased	-10.9985
▁tap	-10.9988
dom	-10.9988
▁pump	-10.9994
▁functional	-10.9994
▁authority	-10.9995
▁experiment	-10.9995
LO	-10.9995
▁scheduled	-10.9996
halt	-10.9996
▁ceiling	-10.9998
▁Step	-11.0003
▁orders	-11.0003
▁speech	-11.001
▁stands	-11.0011
▁disc	-11.0019
▁rec	-11.0019
▁Text	-11.0024
▁banks	-11.0029
▁oameni	-11.003
▁communications	-11.0032
trag	-11.0033
▁trail	-11.0038
AN	-11.0043
▁Federal	-11.0045
▁quote	-11.0046
▁spus	-11.0046
▁managing	-11.005
▁booking	-11.0051
▁Blog	-11.0057
▁tank	-11.0057
pon	-11.0058
GE	-11.0058
▁fiscal	-11.0059
▁satisfaction	-11.006
cre	-11.0061
▁protected	-11.0065
▁enfants	-11.0068
▁dort	-11.0076
▁Mel	-11.008
▁turns	-11.008
▁savings	-11.0081
▁voir	-11.0084
▁Boston	-11.0084
▁debate	-11.0085
▁SO	-11.0089
▁tables	-11.0092
▁honest	-11.0092
mate	-11.0093
▁chart	-11.0095
decât	-11.0097
▁Radio	-11.0097
54	-11.0099
▁vol	-11.01
last	-11.0101
▁tall	-11.0104
▁Should	-11.0105
▁sink	-11.0105
▁Right	-11.0105
▁male	-11.0107
▁Modern	-11.0108
▁indeed	-11.0109
▁Garden	-11.0111
▁Mod	-11.0113
▁turning	-11.0115
▁inches	-11.0116
▁Police	-11.0118
▁Pay	-11.012
UE	-11.0126
mé	-11.0127
EE	-11.013
▁cookies	-11.0131
rip	-11.0134
▁Motor	-11.0135
▁lung	-11.0138
▁Ap	-11.014
▁sustainable	-11.0141
▁instant	-11.0142
▁Rose	-11.0145
▁Carolina	-11.0149
▁Help	-11.015
IE	-11.0154
▁Jersey	-11.0155
▁Spanish	-11.0156
▁wheel	-11.0157
▁fishing	-11.0158
gram	-11.0159
▁ST	-11.0162
▁Nov	-11.0163
▁reporting	-11.0164
ked	-11.0165
▁Leben	-11.0166
▁organisation	-11.0168
▁tiny	-11.0171
▁Alex	-11.0172
▁obtained	-11.0173
▁Acest	-11.0174
▁dangerous	-11.0175
utter	-11.0176
▁rev	-11.018
Un	-11.0182
▁revealed	-11.0184
▁decade	-11.0187
▁possibility	-11.0195
service	-11.0196
è	-11.0197
▁Chief	-11.0197
▁Durch	-11.0198
▁cadre	-11.0198
▁wearing	-11.0198
sized	-11.0199
LY	-11.0199
▁unser	-11.02
▁2016,	-11.02
▁fail	-11.02
iques	-11.0201
▁Angel	-11.0203
▁transportation	-11.0204
▁dates	-11.0204
▁danger	-11.0207
▁forum	-11.0208
zug	-11.0209
▁filed	-11.0212
loc	-11.0212
éri	-11.0212
tribu	-11.0214
▁entered	-11.0216
▁porte	-11.0219
▁arts	-11.022
▁reform	-11.022
▁Main	-11.0221
▁dir	-11.0221
▁approval	-11.0225
▁juice	-11.0228
vier	-11.0228
▁nivel	-11.0232
▁returns	-11.0234
▁formed	-11.0237
▁combine	-11.0244
▁cours	-11.0244
▁Standard	-11.0245
▁certification	-11.0247
escu	-11.025
▁achieved	-11.0253
▁Model	-11.0253
rul	-11.0254
▁Tage	-11.0255
▁injuries	-11.0256
▁Sal	-11.0257
▁expenses	-11.0259
▁cet	-11.026
▁taxes	-11.026
diesen	-11.0263
▁fairly	-11.0266
▁Access	-11.0269
wind	-11.0271
IM	-11.0273
ense	-11.0275
▁hang	-11.028
▁citizens	-11.028
3%	-11.0281
lum	-11.0283
▁discussed	-11.0283
AC	-11.0284
‘	-11.0287
▁Sol	-11.0287
06	-11.0288
stellen	-11.0292
▁participation	-11.0292
▁Box	-11.0292
▁bieten	-11.0297
▁Louis	-11.0297
▁lessons	-11.0298
▁visible	-11.03
▁Cam	-11.0301
▁Ban	-11.0305
▁Far	-11.0306
▁travers	-11.0308
▁telling	-11.0308
▁magic	-11.0309
▁Night	-11.0313
▁judge	-11.0314
▁Pat	-11.0315
▁Southern	-11.0319
OL	-11.0319
fully	-11.0322
▁acestea	-11.0322
▁Order	-11.0324
▁facut	-11.0325
▁Matt	-11.0326
registr	-11.0328
▁Yet	-11.0328
ß	-11.0336
▁făcut	-11.0336
▁versions	-11.0338
▁Force	-11.034
rick	-11.0342
▁rund	-11.0346
ike	-11.0347
▁Young	-11.0347
▁ski	-11.0349
CU	-11.0354
▁Second	-11.0355
▁graduate	-11.0355
▁Bible	-11.036
▁vary	-11.0361
▁celebration	-11.0362
▁risks	-11.0362
erii	-11.0363
rance	-11.0366
▁MP	-11.0368
▁tale	-11.0368
▁Ford	-11.037
▁attached	-11.0373
▁Sy	-11.0373
▁Ly	-11.0377
stellung	-11.0377
▁trop	-11.0377
▁années	-11.0377
▁linked	-11.0379
pit	-11.0384
So	-11.0384
ţe	-11.0385
▁origin	-11.0385
▁boys	-11.0393
holder	-11.0394
read	-11.0395
▁relative	-11.0395
▁industries	-11.0396
making	-11.0397
▁tun	-11.0399
▁forced	-11.0411
▁Welcome	-11.0411
▁explained	-11.0411
MP	-11.0414
▁Three	-11.0416
aza	-11.0418
▁1999	-11.0419
▁erst	-11.0422
RS	-11.0426
▁attractive	-11.0428
▁visited	-11.0428
▁nom	-11.0429
▁drum	-11.0429
cast	-11.0431
ogen	-11.0431
▁tech	-11.0436
▁Comment	-11.0437
▁Little	-11.0441
▁suggested	-11.0441
▁gar	-11.0442
▁crack	-11.0446
▁shooting	-11.0447
▁Try	-11.0448
▁Remember	-11.045
▁folks	-11.0452
▁MS	-11.0455
▁Dia	-11.0458
3)	-11.0466
arbeit	-11.047
▁pepper	-11.0471
zz	-11.0471
▁extreme	-11.0472
▁extrem	-11.0474
▁severe	-11.0478
▁networks	-11.0479
păr	-11.0479
sent	-11.0479
▁structures	-11.048
▁Join	-11.0481
▁privind	-11.0483
▁marriage	-11.0487
▁liegt	-11.0489
eben	-11.049
▁produse	-11.0491
▁tested	-11.0491
▁Queen	-11.0491
▁Tax	-11.0497
rian	-11.0497
▁Problem	-11.0502
izat	-11.0502
udi	-11.0503
▁LA	-11.0507
▁afford	-11.0511
▁percentage	-11.0512
▁cute	-11.0515
▁gorgeous	-11.0519
▁indoor	-11.0519
▁configuration	-11.0521
▁immediate	-11.0523
▁exemple	-11.0525
▁Being	-11.0526
▁introduction	-11.0526
ella	-11.0532
bare	-11.0535
▁besser	-11.0535
▁Put	-11.0537
gon	-11.0542
▁Italy	-11.0543
▁Thus	-11.0544
tari	-11.0544
0.000	-11.0545
▁Price	-11.0547
▁Trust	-11.0548
▁contra	-11.0549
▁layout	-11.055
▁Ireland	-11.0552
ctor	-11.0553
atoare	-11.0555
pra	-11.0557
rent	-11.0559
▁Seite	-11.0561
▁ori	-11.0563
spiel	-11.0565
▁Times	-11.0569
primarily	-11.057
nov	-11.057
▁desired	-11.0571
▁Would	-11.0571
PL	-11.0572
▁originally	-11.0574
▁Ana	-11.0575
EN	-11.0575
▁occasion	-11.0576
▁grant	-11.0576
igkeit	-11.058
▁scheme	-11.0581
▁2015.	-11.0586
izare	-11.0588
gate	-11.0588
▁poker	-11.0589
pping	-11.059
▁Wild	-11.0595
▁YouTube	-11.06
▁assume	-11.0603
с	-11.0606
▁rapport	-11.0606
▁labor	-11.061
teur	-11.061
▁genre	-11.0612
▁plat	-11.0617
▁listening	-11.0618
sky	-11.0618
▁neighborhood	-11.0618
▁3-	-11.0622
▁Library	-11.0622
agit	-11.0622
▁platforms	-11.0628
bei	-11.0629
AB	-11.0629
▁manufacturers	-11.063
▁printing	-11.0631
▁crisis	-11.0633
▁Smart	-11.0634
▁drawing	-11.0634
MO	-11.0635
▁durable	-11.0636
chant	-11.0637
▁chemical	-11.0638
▁savoir	-11.0638
▁Max	-11.0638
gestellt	-11.0638
▁rural	-11.0639
52	-11.0641
▁invited	-11.0642
▁fil	-11.0643
▁Rob	-11.0643
▁Bell	-11.0644
▁neck	-11.0648
pac	-11.0649
wal	-11.0649
▁là	-11.0649
▁Virginia	-11.0651
▁applicable	-11.0651
▁abuse	-11.0652
aide	-11.0653
▁increases	-11.0654
▁moi	-11.0656
▁Non	-11.0656
▁Produkt	-11.0656
FC	-11.0656
▁shops	-11.0657
▁prendre	-11.0659
atul	-11.066
▁sal	-11.0661
▁société	-11.0663
▁Hot	-11.0663
rim	-11.0666
gue	-11.0666
▁enterprise	-11.0666
▁33	-11.0673
mittel	-11.0674
ged	-11.0674
▁formula	-11.0678
▁spin	-11.0678
als	-11.0678
2%	-11.0679
bon	-11.0682
▁Executive	-11.0683
▁wirklich	-11.0684
îl	-11.0686
1.	-11.0689
▁Arm	-11.0692
▁rid	-11.0694
aries	-11.0697
▁incident	-11.0698
▁copii	-11.07
▁Charles	-11.0701
▁meals	-11.0701
▁wireless	-11.0702
Ex	-11.0704
▁Financial	-11.0705
▁AM	-11.0706
▁fest	-11.0706
▁Ol	-11.0714
oir	-11.0714
300	-11.0719
▁punct	-11.0721
▁Mad	-11.0728
▁Ali	-11.0729
lag	-11.0732
▁ocean	-11.0733
▁mirror	-11.0733
▁Additionally	-11.0739
alia	-11.0739
▁county	-11.0739
▁hip	-11.0743
dale	-11.0744
▁Stra	-11.0744
▁drag	-11.0746
▁Sand	-11.0749
▁historic	-11.075
ière	-11.0754
▁examine	-11.0756
soci	-11.0756
ime	-11.0761
▁Insurance	-11.0762
▁crime	-11.0767
▁pare	-11.0769
▁craft	-11.0771
▁Building	-11.0773
mission	-11.0775
▁Americans	-11.0776
▁mg	-11.0778
▁passage	-11.0779
▁deposit	-11.0783
▁widely	-11.0784
nch	-11.0785
▁Coast	-11.0788
▁recipes	-11.0788
▁Ziel	-11.0795
▁duty	-11.0796
▁gerne	-11.0797
most	-11.08
▁argument	-11.0802
▁root	-11.0802
▁consult	-11.0802
▁muscle	-11.0803
▁spoke	-11.0804
▁Cum	-11.081
▁orange	-11.081
▁reader	-11.0811
schw	-11.0812
▁commission	-11.0813
histoire	-11.0818
▁represents	-11.0821
▁meilleur	-11.0823
▁10.	-11.0824
HA	-11.0824
▁Systems	-11.0826
▁blind	-11.0826
▁HP	-11.0832
▁doi	-11.0833
▁signature	-11.0834
▁invite	-11.0835
▁Samsung	-11.0838
▁liber	-11.0839
▁letters	-11.084
▁primul	-11.0842
▁losing	-11.0843
resulting	-11.0845
▁Computer	-11.0847
▁poll	-11.0848
rile	-11.0851
TI	-11.0851
▁cur	-11.0857
▁fonction	-11.0858
gat	-11.0864
AA	-11.0865
tiv	-11.0867
▁Str	-11.0871
ești	-11.0877
▁officer	-11.0877
reducing	-11.0877
▁gifts	-11.0878
▁performing	-11.0879
▁»,	-11.0883
▁guitar	-11.0884
▁segment	-11.0886
▁Tar	-11.0886
▁ultimately	-11.0888
▁cam	-11.089
▁Arbeit	-11.0891
▁accessories	-11.0894
bad	-11.0898
home	-11.0899
▁clip	-11.09
range	-11.0904
CM	-11.0909
▁printed	-11.0909
▁Pet	-11.0912
▁attract	-11.0913
date	-11.0915
▁Senior	-11.0915
▁genau	-11.0922
num	-11.0924
▁attended	-11.0927
▁Turn	-11.0928
▁History	-11.0928
some	-11.0929
▁describe	-11.0931
▁Lee	-11.0931
▁Fre	-11.0933
▁league	-11.0933
new	-11.0935
tors	-11.0935
▁storm	-11.094
▁Beispiel	-11.0942
▁index	-11.0943
▁awarded	-11.0946
state	-11.0946
▁1990	-11.0949
▁ends	-11.0949
kor	-11.0951
far	-11.0954
▁Page	-11.0955
▁promotion	-11.0956
▁weekly	-11.0957
400	-11.096
iuni	-11.0964
▁Summer	-11.0964
▁thin	-11.0966
▁dafür	-11.0967
51	-11.0968
PR	-11.097
▁Hy	-11.097
gas	-11.097
▁atat	-11.0972
▁mining	-11.0973
▁principles	-11.0974
gent	-11.0975
ika	-11.0977
▁religion	-11.0978
▁ordered	-11.0983
▁developers	-11.0983
▁pleasure	-11.0985
vit	-11.0985
mers	-11.0988
▁Section	-11.0989
▁por	-11.099
▁Name	-11.0992
▁pink	-11.0993
dig	-11.0993
▁eligible	-11.0994
▁Happy	-11.0994
▁fo	-11.0995
▁availability	-11.0995
GO	-11.0996
▁Europa	-11.0996
▁Unit	-11.0997
▁1000	-11.0998
▁Berg	-11.0998
fini	-11.0999
▁$3	-11.1006
iza	-11.1007
▁promo	-11.1008
▁Low	-11.1012
abord	-11.1013
äh	-11.1015
▁Professor	-11.1016
▁array	-11.1016
▁hate	-11.1016
▁recording	-11.1016
RI	-11.1016
▁proof	-11.1017
lay	-11.1019
DE	-11.102
▁surprised	-11.1021
▁boxes	-11.1022
▁noastre	-11.1024
zie	-11.1024
▁însă	-11.1025
▁ajuta	-11.1028
▁weil	-11.1028
▁whenever	-11.103
shi	-11.1032
satz	-11.1036
▁remind	-11.104
▁consist	-11.1041
▁motiv	-11.1042
▁PS	-11.1043
▁trois	-11.1045
pad	-11.1048
▁besten	-11.1049
▁Stone	-11.1051
itz	-11.1052
fit	-11.1052
▁Mountain	-11.1052
OC	-11.1052
▁depends	-11.1052
▁Cover	-11.1054
▁bags	-11.1061
▁Bel	-11.1062
▁Engineering	-11.1063
▁flower	-11.1066
▁gratuit	-11.1067
▁smartphone	-11.1068
stan	-11.1072
spect	-11.1073
SL	-11.1073
sho	-11.1074
▁Ser	-11.1079
▁Perhaps	-11.1082
▁codes	-11.1083
▁Wind	-11.1085
aient	-11.1088
▁Prin	-11.1088
▁(1)	-11.1091
▁figures	-11.1095
▁ausge	-11.1097
▁episode	-11.1101
▁Spa	-11.1104
▁Silver	-11.1104
▁Sky	-11.1104
▁capabilities	-11.1107
▁Uni	-11.1107
▁încă	-11.1109
TO	-11.1113
▁Hal	-11.1114
ghi	-11.1114
▁sofa	-11.1114
hard	-11.1115
▁FOR	-11.1116
▁Ber	-11.1118
▁firms	-11.1119
▁memories	-11.1119
▁lift	-11.1121
▁sending	-11.1121
▁narrow	-11.1126
▁Steve	-11.1128
▁integration	-11.1129
known	-11.1131
▁nostru	-11.1132
iţi	-11.1134
▁Georgia	-11.1138
▁slowly	-11.114
iere	-11.114
aka	-11.1143
PE	-11.1143
▁venue	-11.1147
jar	-11.1147
buch	-11.1148
rad	-11.1149
▁resistance	-11.1149
▁stehen	-11.1149
chin	-11.115
▁weak	-11.1154
▁DVD	-11.1156
▁bodies	-11.1159
▁split	-11.1159
What	-11.1162
setzen	-11.1165
▁loves	-11.1166
▁kleine	-11.1171
▁increasingly	-11.1175
▁alert	-11.1176
▁AC	-11.1176
▁partir	-11.118
▁ratio	-11.1181
▁keeps	-11.1185
▁Area	-11.1185
▁données	-11.1191
▁flag	-11.1193
▁NO	-11.1193
▁hotels	-11.1193
▁debut	-11.1194
▁suffer	-11.1194
▁hidden	-11.1198
▁clothing	-11.1201
▁household	-11.1202
medi	-11.1203
▁reste	-11.1203
bro	-11.1204
▁Bus	-11.1204
▁Ken	-11.1206
IR	-11.1208
▁suffering	-11.1212
▁publication	-11.1212
▁Mat	-11.1214
▁impression	-11.1215
▁founded	-11.1216
▁stable	-11.1216
▁promise	-11.1217
▁Cloud	-11.1218
▁prison	-11.1221
cor	-11.1224
▁Sports	-11.1227
▁erste	-11.1227
shire	-11.1228
▁recommendations	-11.1229
▁permit	-11.1231
▁tomorrow	-11.1231
▁lucky	-11.1234
▁realized	-11.1234
▁famille	-11.1235
▁Zealand	-11.1235
▁wooden	-11.1236
▁east	-11.1243
▁Bereich	-11.1246
während	-11.1247
rite	-11.1248
▁fla	-11.1249
platz	-11.125
▁zero	-11.1253
▁priority	-11.1254
▁Airport	-11.1255
▁Kauf	-11.1256
▁ultimate	-11.126
▁chest	-11.1262
▁tone	-11.1264
▁Kal	-11.1264
▁supposed	-11.1267
▁vedere	-11.1268
▁50%	-11.1269
▁Ger	-11.1278
pack	-11.1278
▁priv	-11.1282
▁Kit	-11.1283
▁tent	-11.1285
▁guidelines	-11.1285
▁Republic	-11.1288
including	-11.1292
▁chief	-11.1296
▁Living	-11.1298
keit	-11.1298
▁convert	-11.1298
tail	-11.1299
orient	-11.13
eigenen	-11.1302
▁soup	-11.1306
▁zona	-11.1307
▁composition	-11.1307
▁Bob	-11.1308
▁exception	-11.1312
▁cr	-11.1313
▁str	-11.1315
▁Fl	-11.1318
AT	-11.1319
kel	-11.132
▁pricing	-11.1322
▁Mass	-11.1323
vir	-11.1323
leg	-11.1324
▁rating	-11.1325
▁Sale	-11.1326
▁somewhere	-11.1329
▁submitted	-11.1331
▁Pop	-11.1333
▁papers	-11.1333
▁authorities	-11.1333
▁Person	-11.1334
▁kill	-11.1335
▁suggestions	-11.1335
-6	-11.1336
▁dust	-11.1338
taire	-11.1338
▁recognition	-11.1339
3.	-11.134
▁Mont	-11.1342
▁produit	-11.1343
▁transmission	-11.1343
▁Th	-11.1348
▁passing	-11.1349
▁Partner	-11.1352
▁dire	-11.1352
▁DC	-11.1354
▁sky	-11.1357
▁Kitchen	-11.1359
▁fluid	-11.1359
▁scored	-11.136
▁chapter	-11.1361
If	-11.1362
letzten	-11.1363
▁officers	-11.1364
▁avem	-11.1366
ister	-11.1367
▁involves	-11.1367
ico	-11.1369
bur	-11.1371
▁mieux	-11.1371
▁Photo	-11.1371
▁Cro	-11.1372
▁professor	-11.1372
▁besonders	-11.1373
д	-11.1374
▁alongside	-11.1374
▁stored	-11.1377
▁activ	-11.1378
▁setup	-11.1382
▁extract	-11.1386
▁accent	-11.1386
▁replaced	-11.1386
tec	-11.1388
▁Natur	-11.1388
▁Pacific	-11.1389
▁NY	-11.1395
▁Capital	-11.1396
▁forest	-11.1397
incredibly	-11.1401
▁choix	-11.1402
▁seriously	-11.1403
▁konnte	-11.1403
▁2014.	-11.1404
ensuring	-11.1405
▁handling	-11.1407
▁9.	-11.1407
▁relations	-11.1409
▁Kom	-11.141
▁Hol	-11.1413
▁none	-11.1415
rob	-11.1417
▁Forum	-11.1418
hour	-11.1418
ème	-11.1418
▁Space	-11.142
▁Ham	-11.143
rap	-11.1432
▁Michigan	-11.1432
km	-11.1432
▁utilize	-11.1435
lov	-11.1438
▁luck	-11.1444
lä	-11.1448
▁healing	-11.145
▁neu	-11.1452
aging	-11.1453
▁compliance	-11.1456
▁vertical	-11.1457
▁FREE	-11.1457
▁differences	-11.146
▁Server	-11.1463
▁estimated	-11.1464
schutz	-11.1467
▁notamment	-11.1467
▁120	-11.1469
72	-11.1473
▁heating	-11.1473
late	-11.1476
▁younger	-11.1478
▁Intel	-11.1482
▁salad	-11.1484
▁commonly	-11.1486
▁treatments	-11.1487
▁speaker	-11.1488
▁producing	-11.1491
▁eggs	-11.1494
▁Spirit	-11.1499
▁beide	-11.1499
▁transaction	-11.1503
▁Machine	-11.1505
▁Games	-11.1505
▁niveau	-11.1507
▁Need	-11.1508
radi	-11.151
mir	-11.151
causing	-11.151
▁début	-11.151
▁rencontre	-11.1511
▁threat	-11.1512
▁enjoying	-11.1513
Com	-11.1514
▁Johnson	-11.1516
▁tournament	-11.1516
▁Micro	-11.1516
▁Drive	-11.1517
▁Cre	-11.1519
▁Lebens	-11.1519
▁categories	-11.1524
5,000	-11.1526
▁confirmed	-11.1526
pli	-11.1528
▁Francisco	-11.1531
▁raw	-11.1532
▁managers	-11.1532
ţie	-11.1534
UR	-11.1534
▁aproape	-11.1541
via	-11.1546
▁engaged	-11.1546
▁parti	-11.1547
▁posting	-11.1552
CO	-11.1555
▁bois	-11.1558
▁inch	-11.1559
vie	-11.1561
▁aside	-11.1563
▁exceptional	-11.1566
▁vintage	-11.1567
▁Him	-11.1568
▁expansion	-11.1568
▁Weg	-11.1571
▁authors	-11.1575
▁deine	-11.1576
▁Prime	-11.158
▁scan	-11.1581
▁reg	-11.1581
ția	-11.1581
riv	-11.1583
selon	-11.1584
▁Studio	-11.1586
▁dich	-11.1587
▁vi	-11.1587
▁sequence	-11.159
▁Four	-11.159
RT	-11.1591
▁ihn	-11.1591
▁employ	-11.1592
umb	-11.1597
ită	-11.1598
▁Station	-11.16
▁upload	-11.16
▁upgrade	-11.1604
▁exterior	-11.1605
▁writers	-11.1605
▁plot	-11.1605
▁Gen	-11.1607
TER	-11.1608
-12	-11.1609
http	-11.1622
▁smell	-11.1622
post	-11.1625
von	-11.1628
mili	-11.1628
8%	-11.163
▁Andrew	-11.1631
▁spun	-11.1632
▁grass	-11.1634
unter	-11.1635
▁burn	-11.1636
▁Gegen	-11.1636
fest	-11.1637
▁Northern	-11.1637
▁consumption	-11.1638
▁bird	-11.1641
▁Miss	-11.1644
anti	-11.1645
▁viata	-11.1646
bereich	-11.1646
▁Change	-11.1649
▁pouvoir	-11.1653
▁demonstrate	-11.1654
▁requirement	-11.1655
BI	-11.1658
ied	-11.1661
▁spray	-11.1664
▁calitate	-11.1664
▁souvent	-11.1666
▁samples	-11.1667
▁compete	-11.1669
ank	-11.1669
année	-11.167
wick	-11.1672
iff	-11.1673
noi	-11.1673
ography	-11.1675
▁SE	-11.1675
▁250	-11.1678
▁wealth	-11.1679
4%	-11.1682
▁swimming	-11.1683
enne	-11.1683
Qu	-11.1684
▁connections	-11.1685
onne	-11.1685
▁Way	-11.1687
voll	-11.1688
▁extent	-11.169
▁objective	-11.1696
▁clinic	-11.1696
NA	-11.1698
▁Hope	-11.1701
▁coat	-11.1703
▁depend	-11.1704
▁tine	-11.1705
acc	-11.1705
▁editor	-11.1706
▁Jim	-11.1707
600	-11.1713
▁module	-11.1713
▁deja	-11.1718
atur	-11.1718
▁maintaining	-11.1719
▁hoch	-11.1721
▁covering	-11.1724
vielen	-11.1725
hem	-11.1725
▁illegal	-11.1727
▁certificate	-11.1733
▁collective	-11.1734
▁blow	-11.1734
▁programming	-11.1734
HE	-11.1737
▁Division	-11.1738
▁ceux	-11.1741
▁saved	-11.1742
▁worst	-11.1743
▁arms	-11.1743
▁Officer	-11.1746
▁association	-11.1748
ington	-11.175
▁belle	-11.175
tting	-11.1754
▁attacks	-11.1754
▁vei	-11.1755
▁gerade	-11.1755
▁strain	-11.1757
▁offices	-11.176
EM	-11.1763
EST	-11.1765
-8	-11.1768
▁faculty	-11.177
▁Plant	-11.177
pla	-11.1773
card	-11.1776
▁loose	-11.178
▁PR	-11.178
profit	-11.1781
▁channels	-11.1781
ATE	-11.1783
atic	-11.1783
wegen	-11.1784
word	-11.1786
▁sehen	-11.1787
▁nombre	-11.1787
▁DO	-11.1788
▁hoping	-11.1789
▁wollen	-11.1791
▁decat	-11.1792
IF	-11.1794
▁permission	-11.1794
▁Williams	-11.1799
▁beer	-11.18
▁dernière	-11.1801
▁purchasing	-11.1803
▁pride	-11.1804
solv	-11.1806
ego	-11.1807
▁Oil	-11.1808
▁dishes	-11.181
▁Baby	-11.1811
▁Roll	-11.1811
vez	-11.1813
▁drept	-11.1814
lly	-11.1815
▁potrivit	-11.1815
person	-11.182
▁interactive	-11.1823
▁brilliant	-11.1823
▁000	-11.1824
▁giant	-11.1827
▁plain	-11.1829
▁lock	-11.1832
▁inspection	-11.1838
▁symbol	-11.1839
▁Gal	-11.184
▁concepts	-11.184
▁venture	-11.1841
▁Tr	-11.1844
▁Color	-11.1845
▁behalf	-11.1846
ink	-11.1847
atii	-11.1849
wie	-11.1849
▁stream	-11.1851
▁buyers	-11.1852
legen	-11.1855
iness	-11.1858
▁absolute	-11.1859
▁council	-11.1861
▁displayed	-11.1862
▁Bun	-11.1864
▁darauf	-11.1866
▁rod	-11.1868
▁repeat	-11.1869
quelle	-11.187
lation	-11.1874
gul	-11.1877
▁compensation	-11.1881
▁string	-11.1882
▁joining	-11.1883
▁Pra	-11.1884
hab	-11.1889
▁plane	-11.189
▁conversion	-11.1891
▁lesson	-11.1894
bound	-11.1894
▁seats	-11.1895
voc	-11.1899
▁Disney	-11.1901
esse	-11.1903
▁awards	-11.1903
▁initiative	-11.1905
UM	-11.1905
▁intelligence	-11.1908
▁laser	-11.1911
än	-11.1912
▁generated	-11.1912
▁allen	-11.1919
▁Aug	-11.1926
lini	-11.193
▁Update	-11.193
▁grab	-11.1931
▁Bridge	-11.1932
rock	-11.1933
hold	-11.1935
seinen	-11.1936
▁false	-11.1938
type	-11.1938
▁outcome	-11.1939
▁crazy	-11.1942
▁Platz	-11.1943
▁believed	-11.1944
▁adjust	-11.1945
▁entrance	-11.1946
▁Colorado	-11.1948
▁concentration	-11.1949
aid	-11.195
▁regardless	-11.195
▁mici	-11.1951
▁potentially	-11.1951
▁Custom	-11.1959
rag	-11.196
▁employer	-11.196
tagged	-11.1962
▁34	-11.1963
fro	-11.1969
▁Pas	-11.197
▁AS	-11.197
PP	-11.197
stru	-11.1974
grâce	-11.198
▁anyway	-11.1982
▁streets	-11.1986
▁Region	-11.1992
▁newly	-11.1993
▁assistant	-11.1995
▁requests	-11.1996
▁Ohio	-11.1997
▁continuing	-11.2001
▁îm	-11.2001
7%	-11.2003
▁basically	-11.2003
gabe	-11.2003
▁ultra	-11.2004
pic	-11.2006
▁jeder	-11.2009
▁Cook	-11.2012
▁tie	-11.2012
▁yard	-11.2015
▁wash	-11.2015
▁3,	-11.2019
▁exista	-11.2021
▁egg	-11.2023
▁marché	-11.2026
kommen	-11.2026
▁Select	-11.203
geben	-11.2031
▁Joseph	-11.2035
▁Ces	-11.2036
▁hundred	-11.2037
even	-11.2038
gal	-11.2042
800	-11.2044
▁Jones	-11.2046
ova	-11.2047
▁careful	-11.2047
▁alarm	-11.2051
NI	-11.2051
▁residence	-11.2053
▁wäre	-11.2059
▁Dor	-11.206
▁amounts	-11.2064
▁mistake	-11.2067
ates	-11.2068
▁bune	-11.207
▁vegetables	-11.2071
▁Ann	-11.2072
logical	-11.2078
stadt	-11.2078
▁chances	-11.2079
%)	-11.208
▁minimal	-11.2081
▁naturally	-11.2082
▁Geld	-11.2082
▁Yu	-11.2084
▁wrap	-11.2084
rest	-11.2087
▁legs	-11.2088
PM	-11.2088
▁Heart	-11.2089
▁suspect	-11.209
Go	-11.2091
▁Fil	-11.2092
▁YOU	-11.2092
▁victory	-11.2092
pun	-11.2096
▁Zo	-11.2096
CT	-11.2096
▁trim	-11.2097
▁stuck	-11.2098
ators	-11.2099
▁Ideas	-11.21
▁voyage	-11.2102
▁Restaurant	-11.2102
▁pat	-11.2102
▁bond	-11.2105
▁Del	-11.2106
▁fighting	-11.2107
▁concerning	-11.2109
▁etwa	-11.2111
▁Thema	-11.2112
▁preferred	-11.2114
▁pitch	-11.2115
▁Singapore	-11.212
▁tub	-11.212
FT	-11.2121
▁Product	-11.2121
▁applying	-11.2123
▁Fr	-11.2123
ţa	-11.2126
▁iPad	-11.2129
PD	-11.213
▁comun	-11.213
▁pie	-11.2133
rank	-11.2136
tron	-11.2137
▁pest	-11.2139
▁herself	-11.2139
▁intense	-11.214
foot	-11.2141
▁1998	-11.2142
▁anxiety	-11.2146
▁portable	-11.2147
▁harm	-11.2147
▁admit	-11.2149
sted	-11.2149
▁regions	-11.2155
cie	-11.2156
▁robust	-11.2158
▁stem	-11.216
▁roles	-11.216
▁Latin	-11.2162
▁Ré	-11.2164
▁ref	-11.2164
isme	-11.2164
▁contribution	-11.2168
▁forever	-11.2174
▁frei	-11.2175
▁mont	-11.2178
that	-11.218
▁sensitive	-11.2181
▁wider	-11.2182
AF	-11.2182
▁liability	-11.2187
ţiei	-11.219
▁Cho	-11.2193
aria	-11.2196
rang	-11.2198
▁Account	-11.2199
▁III	-11.2199
▁tooth	-11.2202
▁factory	-11.2202
▁dropped	-11.2205
horn	-11.2208
RP	-11.2211
▁container	-11.2212
fran	-11.2215
▁lawyer	-11.2218
▁Image	-11.2219
HO	-11.222
▁incorporate	-11.222
▁lume	-11.2223
GA	-11.2223
itati	-11.2224
autre	-11.2227
ierten	-11.2227
[	-11.2227
▁packages	-11.2228
▁Simon	-11.2229
▁somewhat	-11.2237
mbo	-11.2237
lite	-11.2238
▁eliminate	-11.224
▁decrease	-11.2241
▁geben	-11.2242
▁approaches	-11.2245
▁tissue	-11.2249
▁personne	-11.2252
ional	-11.2256
unable	-11.2256
▁Case	-11.2257
hill	-11.2257
och	-11.2259
▁minister	-11.2259
▁Rad	-11.2263
▁yoga	-11.2264
▁encounter	-11.2266
text	-11.2267
▁OS	-11.2267
▁opera	-11.2267
▁loving	-11.227
▁birds	-11.2274
▁prim	-11.2274
easca	-11.2274
park	-11.2275
fü	-11.2278
▁champion	-11.2278
▁warning	-11.2282
DC	-11.2283
▁yield	-11.2283
raum	-11.2283
▁Student	-11.2284
▁Rev	-11.2285
▁Fu	-11.2285
▁intra	-11.2285
▁proces	-11.2286
▁margin	-11.2286
lands	-11.2288
04	-11.229
▁Steel	-11.2299
▁besoin	-11.2301
şti	-11.2306
▁39	-11.2306
▁outcomes	-11.2307
wert	-11.2307
3,	-11.2308
▁hole	-11.2309
▁Create	-11.231
▁hall	-11.2313
nach	-11.2316
▁indicate	-11.2323
cum	-11.2326
▁Mann	-11.2327
▁reaction	-11.2328
▁empty	-11.2329
▁Sign	-11.2329
▁pm	-11.233
erung	-11.2332
▁würde	-11.2336
▁declarat	-11.2336
6%	-11.2337
▁Client	-11.2338
vil	-11.2343
▁electricity	-11.2345
▁75	-11.2345
▁buna	-11.2345
eşte	-11.2347
▁prop	-11.2348
▁journal	-11.2349
▁meu	-11.235
▁chef	-11.235
▁Ever	-11.2351
▁feelings	-11.2355
PT	-11.2355
▁proposal	-11.2357
▁Its	-11.2357
▁2013.	-11.2358
▁Bundes	-11.236
▁droit	-11.2363
▁10%	-11.2367
gard	-11.2368
information	-11.2368
FE	-11.2373
▁Dun	-11.2373
▁Stock	-11.2375
ație	-11.2375
▁mag	-11.2376
▁br	-11.2377
▁sight	-11.2378
phone	-11.2378
▁Cy	-11.2378
▁opposite	-11.238
ically	-11.2382
großen	-11.2384
▁Without	-11.2385
espace	-11.2385
▁chairs	-11.2386
▁matches	-11.2387
ateur	-11.2387
▁Cost	-11.2387
▁WordPress	-11.2389
▁Opera	-11.2392
walked	-11.2392
▁transactions	-11.2395
▁nuclear	-11.2396
ways	-11.2396
▁Oct	-11.2397
▁bomb	-11.2398
▁tracking	-11.2399
▁photograph	-11.2401
bio	-11.2403
▁branch	-11.2404
▁$5	-11.2407
▁diagram	-11.241
▁Hard	-11.2412
bach	-11.2412
▁42	-11.2412
logy	-11.2415
▁tile	-11.2416
▁API	-11.2418
seront	-11.242
ENT	-11.2422
▁accommodation	-11.2424
▁fiber	-11.2424
▁Give	-11.2428
▁Gas	-11.2429
▁Spain	-11.2431
▁listing	-11.2431
▁blocks	-11.2435
▁constitu	-11.2438
▁convenience	-11.2438
▁prize	-11.2438
▁aircraft	-11.244
containing	-11.2441
▁vice	-11.2442
▁organisations	-11.2443
▁complicated	-11.2446
rons	-11.2446
▁bars	-11.2447
était	-11.2447
▁checking	-11.2453
vant	-11.2455
▁couch	-11.2457
▁brush	-11.2459
▁printer	-11.2459
▁Rat	-11.2461
▁announce	-11.2461
▁salari	-11.2462
▁Sk	-11.2464
pal	-11.2464
▁yards	-11.2466
▁flexibility	-11.2467
▁jamais	-11.2467
UC	-11.2467
▁4,	-11.2468
▁Made	-11.2471
▁solche	-11.2471
▁tri	-11.2472
▁outfit	-11.2472
м	-11.2473
▁encouraged	-11.2475
trac	-11.2476
▁genetic	-11.2476
▁beneficial	-11.2477
mă	-11.2478
involving	-11.2479
▁knee	-11.2479
▁respective	-11.2483
▁controlled	-11.2484
▁Rück	-11.2484
LC	-11.2486
▁highlight	-11.2486
chem	-11.2488
▁Bis	-11.2496
▁graphics	-11.2496
▁posibil	-11.2497
orul	-11.2497
imagin	-11.2498
▁draft	-11.25
shaped	-11.2502
▁suggests	-11.2502
uvre	-11.2505
page	-11.2505
▁sentiment	-11.2507
▁loop	-11.251
▁Quality	-11.2518
▁volunteers	-11.2519
▁representation	-11.2519
▁examination	-11.2521
▁(2)	-11.2522
assi	-11.2524
▁till	-11.2525
▁Catholic	-11.2526
▁2020	-11.2527
▁random	-11.2528
tage	-11.2531
▁baking	-11.2537
▁Musik	-11.2539
▁SC	-11.2539
▁möchte	-11.2544
▁gene	-11.2544
▁kam	-11.2549
▁inspire	-11.255
unk	-11.2551
▁Final	-11.2555
▁jeden	-11.2555
▁LLC	-11.256
▁sistem	-11.2561
▁stages	-11.2564
▁texture	-11.2566
rib	-11.2567
lung	-11.2568
▁breath	-11.2568
▁hosted	-11.2568
▁Kingdom	-11.2571
▁politics	-11.2571
▁mood	-11.2571
cam	-11.2573
▁liked	-11.2573
▁Credit	-11.2573
tisch	-11.2575
▁everywhere	-11.2577
▁poti	-11.2579
▁fruits	-11.2583
oire	-11.2583
▁mesure	-11.2586
▁Studies	-11.2588
▁provision	-11.2589
▁Maria	-11.2589
▁necessarily	-11.2591
▁Net	-11.2592
▁scar	-11.2593
▁tracks	-11.2594
▁ads	-11.2599
termin	-11.2599
▁Yo	-11.2602
atory	-11.2603
itoare	-11.2603
▁colours	-11.2606
▁correctly	-11.2608
▁Trade	-11.2609
▁Week	-11.2611
▁Premier	-11.2615
▁designers	-11.2616
▁BE	-11.2619
▁desktop	-11.2619
▁lifetime	-11.262
▁Kind	-11.2621
▁divers	-11.2622
rain	-11.2623
▁Von	-11.2623
▁bal	-11.2626
▁shots	-11.2626
▁accommodate	-11.2628
▁Paper	-11.263
▁interaction	-11.2632
▁acquisition	-11.2632
▁neuro	-11.2638
▁institution	-11.2639
▁automatic	-11.264
▁assess	-11.2642
▁manifest	-11.2642
▁audit	-11.2642
▁câte	-11.2644
▁insight	-11.2645
▁lange	-11.2648
▁retirement	-11.2648
sons	-11.2649
▁Asian	-11.2649
▁rail	-11.265
▁Awards	-11.265
Avec	-11.265
SO	-11.2651
para	-11.2653
▁tant	-11.2656
▁strike	-11.2657
▁transformation	-11.2657
▁leicht	-11.2659
л	-11.266
fat	-11.2663
▁Qui	-11.2666
▁chip	-11.2666
titude	-11.2666
▁Projekt	-11.267
▁statt	-11.267
▁findet	-11.2672
▁telephone	-11.2673
▁staying	-11.2673
▁Mess	-11.2674
▁patio	-11.2674
▁afla	-11.2679
▁administrative	-11.2679
▁gemeinsam	-11.2681
▁suppliers	-11.2681
ark	-11.2682
▁rice	-11.2684
▁stretch	-11.2684
▁compact	-11.2687
fire	-11.2688
в	-11.269
vision	-11.269
▁Mag	-11.2694
▁dreams	-11.2695
▁funny	-11.2697
▁lässt	-11.2702
cade	-11.2704
▁drama	-11.2705
▁schimb	-11.2708
PO	-11.2708
▁Sim	-11.2708
▁motivation	-11.271
▁presents	-11.2714
▁1997	-11.2718
agi	-11.2719
▁optimal	-11.272
▁folder	-11.272
stro	-11.272
▁Han	-11.2721
▁Ei	-11.2722
▁pus	-11.2724
▁Learning	-11.2725
oop	-11.2726
▁Type	-11.2727
space	-11.2727
▁define	-11.2731
▁plug	-11.2731
yard	-11.2732
▁utility	-11.2733
über	-11.2736
▁commun	-11.2736
▁directed	-11.2738
▁consent	-11.2739
▁DNA	-11.2741
▁statements	-11.2741
real	-11.2743
active	-11.2744
school	-11.275
▁mic	-11.2754
▁acestui	-11.2755
scale	-11.2755
▁Mid	-11.2756
▁Chair	-11.2759
к	-11.2759
▁Bas	-11.2763
▁38	-11.2764
erin	-11.2765
▁Everyone	-11.2769
COM	-11.2769
▁chronic	-11.2771
▁doctors	-11.2772
▁sh	-11.2773
sport	-11.2774
▁volunteer	-11.2775
▁drinking	-11.2778
▁Mas	-11.2779
▁pursue	-11.278
▁exposed	-11.2785
exe	-11.2787
hung	-11.2788
▁Tier	-11.2789
▁plac	-11.2791
▁proiect	-11.2791
▁literally	-11.2793
▁acolo	-11.2794
▁User	-11.2795
UT	-11.2796
▁hyper	-11.2796
▁seed	-11.2798
▁literature	-11.2803
▁Holy	-11.2804
▁jeu	-11.2804
▁licensed	-11.2809
station	-11.2809
▁criteria	-11.2813
▁sufficient	-11.2813
▁gestion	-11.2815
▁pic	-11.2815
▁64	-11.2817
▁facts	-11.2819
▁Bild	-11.2821
obi	-11.2821
▁nie	-11.2824
▁Jewish	-11.2828
bor	-11.2828
▁1980	-11.2829
▁Fach	-11.2829
craft	-11.283
▁Pakistan	-11.2834
▁Mos	-11.2836
▁toilet	-11.2838
partea	-11.2839
case	-11.2842
▁clock	-11.2843
▁parc	-11.2846
▁legislation	-11.2847
▁icon	-11.2849
etz	-11.2852
ept	-11.2853
▁Corporation	-11.2859
▁requested	-11.286
▁column	-11.2861
rier	-11.2861
uß	-11.2862
▁wohl	-11.2864
tell	-11.2866
gno	-11.2866
▁diseases	-11.2867
Sch	-11.2868
▁colon	-11.2871
▁Based	-11.2871
▁flu	-11.2873
▁vocal	-11.2874
▁virus	-11.2877
▁traveling	-11.2878
bul	-11.2878
т	-11.2879
city	-11.288
AU	-11.288
wide	-11.288
▁solo	-11.2881
▁functionality	-11.2882
▁reveal	-11.2883
sign	-11.289
▁closing	-11.289
▁peak	-11.2891
▁practic	-11.2894
than	-11.2895
▁driven	-11.2895
êtes	-11.2895
high	-11.29
power	-11.2902
▁Lin	-11.2903
▁dose	-11.2903
▁pocket	-11.2907
▁Classic	-11.2907
▁packaging	-11.2908
▁distinct	-11.2908
▁côté	-11.2911
▁breast	-11.2913
▁folosit	-11.2913
▁drinks	-11.2914
▁Dog	-11.2915
ailleurs	-11.2917
▁caz	-11.2918
▁escape	-11.2919
▁warranty	-11.2919
▁pulled	-11.292
data	-11.2921
▁facilitate	-11.2922
É	-11.2923
▁SP	-11.2924
lant	-11.2926
AD	-11.2926
▁Print	-11.2928
mond	-11.2929
▁strange	-11.2929
▁Hor	-11.2932
▁Collection	-11.2933
arm	-11.2935
cas	-11.2937
arrow	-11.2938
▁carrying	-11.2939
▁wave	-11.2947
setzt	-11.2949
▁construct	-11.2951
▁acts	-11.2953
▁Action	-11.2953
▁Kim	-11.2954
oxid	-11.2955
fish	-11.2955
▁damaged	-11.2957
▁Greek	-11.2957
▁belt	-11.2958
▁Prior	-11.2958
▁marks	-11.2959
▁lumea	-11.2962
▁twenty	-11.2962
▁locul	-11.2964
▁Army	-11.2965
apt	-11.2966
▁limits	-11.2967
▁cruise	-11.297
▁List	-11.297
utilisation	-11.2975
▁personality	-11.2976
▁sections	-11.2978
▁drawn	-11.298
▁mold	-11.2983
▁Think	-11.2983
▁holidays	-11.2984
▁critic	-11.2985
grade	-11.2987
▁sick	-11.2991
▁characteristics	-11.2992
▁echipa	-11.2993
▁Fast	-11.2993
▁Br	-11.2996
▁Reise	-11.2997
teen	-11.2997
uci	-11.2999
!”	-11.3002
ppe	-11.3005
▁talked	-11.3012
▁gap	-11.3015
homme	-11.3018
▁interact	-11.3019
▁dollar	-11.3023
▁bone	-11.3023
▁Einsatz	-11.3023
▁sad	-11.3024
any	-11.3024
tation	-11.3027
▁Haupt	-11.3027
iva	-11.3028
▁Schu	-11.3029
▁evaluate	-11.3036
▁variant	-11.3038
▁IS	-11.3039
▁PRO	-11.3039
▁vine	-11.304
rut	-11.3041
▁existence	-11.3044
-7	-11.3045
ancy	-11.3047
▁Want	-11.305
alism	-11.3051
ranging	-11.3055
preis	-11.3056
All	-11.3056
▁reception	-11.3057
mai	-11.3057
▁lease	-11.3058
▁finest	-11.3058
▁evident	-11.3059
▁Easy	-11.3061
▁gilt	-11.3061
▁trips	-11.3063
▁skilled	-11.3064
consists	-11.3065
front	-11.3066
rati	-11.3067
▁Following	-11.3068
▁Medicine	-11.3072
▁pune	-11.3073
▁errors	-11.3074
arian	-11.3076
lib	-11.3081
SR	-11.3084
ML	-11.3086
▁Safety	-11.3088
▁clar	-11.3094
New	-11.3098
▁37	-11.3098
▁Administration	-11.3098
▁2.0	-11.3101
▁obviously	-11.3102
▁Mitarbeiter	-11.3103
▁improvements	-11.3104
▁Cut	-11.3106
▁Natural	-11.3107
▁arrival	-11.3112
▁pizza	-11.3113
eşti	-11.3116
cept	-11.3117
▁livre	-11.3117
▁nombreux	-11.3122
▁authentic	-11.3122
▁gemacht	-11.3125
▁broadcast	-11.3125
▁stronger	-11.3125
UP	-11.3126
▁centers	-11.3126
▁petite	-11.3126
▁spots	-11.3126
▁crystal	-11.3128
▁salon	-11.313
▁gained	-11.3131
▁Mus	-11.3132
▁lens	-11.3132
▁ihm	-11.3132
minute	-11.3136
▁greatly	-11.3136
LP	-11.3136
rait	-11.314
▁bid	-11.3142
▁cit	-11.3142
entreprise	-11.3144
▁55	-11.3145
▁respectively	-11.3145
▁lo	-11.3146
▁cons	-11.3147
▁Energie	-11.3152
▁OK	-11.3152
▁grill	-11.3153
▁heading	-11.3155
▁sollten	-11.3155
▁Fragen	-11.3155
▁Poli	-11.3156
▁studying	-11.3157
▁développement	-11.3159
▁foam	-11.316
▁1996	-11.3165
▁disaster	-11.3166
▁cafe	-11.3173
▁moves	-11.3173
focuses	-11.3177
▁Avenue	-11.3178
▁humans	-11.3178
▁(3	-11.318
▁région	-11.3183
▁DJ	-11.3186
shop	-11.3188
▁acting	-11.3188
▁Justice	-11.319
▁trouve	-11.319
▁Estate	-11.319
▁strict	-11.3192
▁talks	-11.3193
▁mat	-11.3193
▁completion	-11.3193
delivering	-11.3194
CD	-11.3197
0%	-11.32
▁creativity	-11.3203
BR	-11.3203
▁occurred	-11.3204
Car	-11.3206
▁rising	-11.3208
gger	-11.3209
▁Gene	-11.3209
▁workplace	-11.3209
phy	-11.3211
▁Bla	-11.3211
▁trailer	-11.3212
▁Forest	-11.3212
▁profession	-11.3212
▁Father	-11.3214
flu	-11.3215
tone	-11.3215
▁sexual	-11.3217
▁Map	-11.3218
OT	-11.3218
▁Us	-11.3219
tôt	-11.3219
▁Wert	-11.3219
preparing	-11.3221
isé	-11.3222
▁lake	-11.3225
eed	-11.3227
jun	-11.3229
▁implemented	-11.323
vid	-11.3231
igne	-11.3232
▁follows	-11.3232
▁Eric	-11.3234
body	-11.3235
▁contained	-11.3236
▁massage	-11.3237
AV	-11.3237
▁insa	-11.3239
▁observed	-11.3239
▁marque	-11.3241
lines	-11.3245
▁Frage	-11.3245
largely	-11.3246
gegeben	-11.3247
▁colleagues	-11.3248
pha	-11.3249
▁representative	-11.3252
▁shut	-11.3257
▁secondary	-11.3258
▁exhibit	-11.3259
1)	-11.3259
mid	-11.3261
▁Due	-11.3262
▁initiatives	-11.3265
▁occurs	-11.3265
lent	-11.3265
▁façon	-11.3268
▁iOS	-11.3268
▁exploring	-11.327
▁stations	-11.3271
nton	-11.3272
▁Country	-11.3273
▁shouldn	-11.3274
▁casual	-11.3276
-18	-11.3277
▁maintained	-11.3277
▁cart	-11.3278
▁propre	-11.3278
▁asset	-11.3279
firm	-11.328
gla	-11.3282
viv	-11.3282
▁scientists	-11.3289
▁Nor	-11.3289
ites	-11.3293
▁engaging	-11.3299
My	-11.3302
▁workshops	-11.3303
ffer	-11.3304
activité	-11.3305
▁tension	-11.3306
▁dual	-11.3307
uer	-11.3308
900	-11.3309
SF	-11.3311
▁kannst	-11.3311
▁bur	-11.3312
▁visitor	-11.3312
▁granted	-11.3312
▁union	-11.3314
▁tablet	-11.3315
▁Choose	-11.3315
ibil	-11.3316
▁settlement	-11.3318
genommen	-11.3319
▁marked	-11.333
▁diagnostic	-11.3334
▁prayer	-11.3335
▁Toronto	-11.334
trans	-11.3341
▁respectiv	-11.3342
▁2012.	-11.3342
icul	-11.3344
▁satisfied	-11.3345
▁Fla	-11.3346
▁estimate	-11.3346
▁Agency	-11.3347
OD	-11.3347
▁McC	-11.3347
bert	-11.3347
▁seal	-11.3348
aine	-11.3348
▁cauza	-11.3348
▁wallpaper	-11.3351
▁alb	-11.3354
▁Sound	-11.3357
worth	-11.3357
chten	-11.3359
programm	-11.3359
▁pounds	-11.3362
▁coaching	-11.3363
▁Furthermore	-11.3365
▁Korea	-11.3365
▁flour	-11.3365
▁sommes	-11.3366
▁Repair	-11.3366
”)	-11.3366
itch	-11.3367
blu	-11.3368
zar	-11.3369
▁diferite	-11.3375
▁Golf	-11.3377
arch	-11.3377
▁panels	-11.3378
jan	-11.338
“.	-11.3382
izarea	-11.3383
▁golden	-11.3385
▁flying	-11.3386
▁museum	-11.3387
▁equivalent	-11.3388
▁Lang	-11.339
schi	-11.3395
MI	-11.3396
▁faci	-11.3398
▁Rahmen	-11.34
▁attending	-11.3401
′′	-11.3405
▁Tro	-11.3411
▁gaming	-11.3414
▁aujourd	-11.3415
▁Wochen	-11.3415
▁entering	-11.3415
its	-11.3416
▁Private	-11.3419
▁Ocean	-11.3419
▁01	-11.3421
▁coloring	-11.3422
ător	-11.3425
▁flooring	-11.3425
▁downtown	-11.3428
rab	-11.343
HI	-11.3432
▁illness	-11.3432
▁whil	-11.3433
▁diamond	-11.3433
Mail	-11.3434
▁Dream	-11.3434
▁Golden	-11.3441
▁rein	-11.3442
▁hi	-11.3443
▁expressed	-11.3445
▁luat	-11.3445
▁Share	-11.3445
▁Programm	-11.3447
▁Sales	-11.3447
▁prof	-11.3449
▁MO	-11.3451
▁Short	-11.3451
▁charm	-11.3453
▁Cer	-11.3454
▁Run	-11.3455
▁tutorial	-11.3456
oul	-11.3456
▁Fest	-11.3458
▁uniform	-11.3459
aß	-11.346
▁pipe	-11.3461
▁Square	-11.3463
▁Kosten	-11.3464
▁checked	-11.3466
▁65	-11.3466
▁Adam	-11.3467
cel	-11.3467
ello	-11.347
▁Res	-11.347
▁drain	-11.3471
ză	-11.3471
▁Tech	-11.3474
▁strive	-11.3475
cycl	-11.3475
▁stark	-11.3475
load	-11.3475
▁Stat	-11.3476
▁Rec	-11.3476
ians	-11.3477
▁Tin	-11.3477
▁Agreement	-11.3478
▁pret	-11.348
-9	-11.3483
▁sentence	-11.3484
▁Direct	-11.3484
▁Rep	-11.3485
▁Prozent	-11.3488
▁invitation	-11.3488
▁refund	-11.3491
▁Kids	-11.3493
stock	-11.3494
TP	-11.3494
▁tau	-11.3494
from	-11.3494
▁Ash	-11.3495
store	-11.3495
▁Common	-11.3496
▁Qualität	-11.3497
▁strongly	-11.3497
▁importante	-11.3498
ome	-11.3499
▁surtout	-11.3499
enables	-11.3502
▁decent	-11.3502
▁neutral	-11.3502
▁produs	-11.3504
bury	-11.3505
▁Level	-11.3506
▁interes	-11.3507
mov	-11.3508
▁backup	-11.3509
même	-11.3511
doc	-11.3511
▁#1	-11.3513
▁specified	-11.3515
▁founder	-11.3517
And	-11.3521
isten	-11.3521
▁lecture	-11.3527
▁wake	-11.3529
▁vraiment	-11.353
▁swing	-11.3532
▁addresses	-11.3533
▁Verfügung	-11.3535
▁deadline	-11.3538
н	-11.3538
▁Content	-11.354
▁Gre	-11.3541
▁Experience	-11.3544
tura	-11.3545
▁exit	-11.3546
▁Britain	-11.3547
▁Sunt	-11.3547
▁documentation	-11.3547
▁showcase	-11.3548
▁photographs	-11.3548
qué	-11.3548
zin	-11.3549
pres	-11.3549
▁decline	-11.355
▁Large	-11.355
▁bills	-11.3551
▁entitled	-11.3552
▁passionate	-11.3554
▁workout	-11.3554
▁Again	-11.3556
▁Haut	-11.3558
▁guaranteed	-11.356
▁vue	-11.356
▁farmers	-11.3562
▁admission	-11.3565
▁manière	-11.3571
▁reverse	-11.3571
▁FL	-11.3571
▁terminal	-11.3572
GI	-11.3573
▁speakers	-11.3574
▁responses	-11.3574
▁Doch	-11.3575
▁2013,	-11.3577
▁phones	-11.3578
ential	-11.3579
▁operator	-11.3579
▁steam	-11.358
burn	-11.3581
▁seul	-11.3582
▁unusual	-11.3583
▁educate	-11.3584
▁Que	-11.3587
▁believes	-11.3591
▁succeed	-11.3593
▁delay	-11.3595
▁deeper	-11.3596
▁reaching	-11.3599
▁objectives	-11.3601
▁temporary	-11.3603
▁artistic	-11.3604
▁sou	-11.3605
▁transparent	-11.3606
There	-11.3608
ception	-11.3608
▁excess	-11.3609
▁gathering	-11.361
▁Save	-11.3611
ază	-11.3612
▁français	-11.3612
▁laid	-11.3612
▁modul	-11.3614
avoir	-11.3615
under	-11.3621
dding	-11.3622
▁falls	-11.3622
▁Möglichkeit	-11.3624
▁ceremony	-11.3624
rai	-11.3624
▁Bor	-11.3627
▁Below	-11.3628
4)	-11.3628
▁Field	-11.3628
wear	-11.3629
motion	-11.3629
print	-11.3633
game	-11.3634
▁Irish	-11.3635
▁Las	-11.3635
Among	-11.3636
atori	-11.3636
▁ajuns	-11.3638
▁alive	-11.3639
▁retour	-11.3639
▁smoke	-11.3641
▁math	-11.3643
▁Ye	-11.3643
▁Denn	-11.3644
▁1995	-11.3644
▁bani	-11.3646
raz	-11.365
world	-11.365
▁engines	-11.3651
nehmen	-11.3652
stor	-11.3653
▁interpret	-11.3654
▁Ven	-11.3655
▁cotton	-11.3656
▁represented	-11.366
▁fabulous	-11.3662
▁gender	-11.3663
Mar	-11.3667
vic	-11.367
▁newsletter	-11.3674
sburg	-11.3676
pond	-11.3684
▁Carl	-11.3685
▁bunch	-11.3687
▁tower	-11.3688
▁trigger	-11.369
▁explanation	-11.3691
Man	-11.3691
iunea	-11.3692
▁announcement	-11.3695
▁seeds	-11.3695
▁shell	-11.3699
▁Working	-11.3699
viz	-11.3703
▁Simply	-11.3703
sub	-11.3704
▁Village	-11.3706
▁falling	-11.3707
▁fits	-11.3708
▁wichtig	-11.3709
▁Down	-11.3711
bble	-11.3716
▁Orange	-11.3717
promoting	-11.3719
▁rapidly	-11.3722
▁translation	-11.3723
nig	-11.3724
fusion	-11.3724
kosten	-11.3726
2)	-11.3728
▁Express	-11.373
▁Sw	-11.373
▁frequency	-11.3731
▁diversity	-11.3733
MT	-11.3735
▁bekannt	-11.3735
lion	-11.3739
▁cop	-11.3739
▁Customer	-11.3741
▁demands	-11.3744
▁corn	-11.3745
▁Hamburg	-11.3746
SD	-11.3746
▁Rome	-11.3747
▁Pur	-11.3748
▁stamp	-11.3749
▁grateful	-11.375
RM	-11.3751
▁Pl	-11.3751
▁Tele	-11.3752
▁plugin	-11.3755
▁maxim	-11.3757
▁Hoch	-11.3757
igung	-11.3758
▁Entwicklung	-11.3759
▁File	-11.3759
▁Eastern	-11.3761
▁scrap	-11.3763
▁acquired	-11.3763
sau	-11.3764
▁Klein	-11.3765
▁milioane	-11.3765
▁Stand	-11.3767
▁childhood	-11.3767
▁artificial	-11.3768
▁substantial	-11.3769
druck	-11.3773
▁Kra	-11.3776
▁performances	-11.3776
▁row	-11.3778
NT	-11.3779
mod	-11.3779
remained	-11.3784
▁nimic	-11.3785
▁Limited	-11.3786
▁cookie	-11.3787
▁retain	-11.3788
▁600	-11.3791
▁eigene	-11.3792
▁tune	-11.3792
NS	-11.3793
▁dad	-11.3793
Moreover	-11.3794
ès	-11.3794
▁worship	-11.3794
▁Material	-11.3795
▁verb	-11.3795
ziehen	-11.3796
lton	-11.3796
▁boot	-11.38
plo	-11.3801
CF	-11.3802
GM	-11.3802
▁Mix	-11.3805
▁Front	-11.3805
▁repairs	-11.3807
▁proportion	-11.3811
▁habit	-11.3811
▁hide	-11.3816
focusing	-11.3817
▁Annual	-11.3817
▁twin	-11.3818
▁acord	-11.3818
ehr	-11.3818
month	-11.3823
venir	-11.3825
Or	-11.3825
awa	-11.3826
lass	-11.3827
ffe	-11.383
iți	-11.3831
NO	-11.3831
▁scope	-11.3833
▁lowest	-11.3835
▁afraid	-11.3836
▁subjects	-11.3836
▁templates	-11.3836
▁jos	-11.3836
DM	-11.3837
ensemble	-11.3838
▁Ski	-11.3839
DP	-11.3841
▁grip	-11.3842
2-	-11.3844
▁sécurité	-11.3847
▁mono	-11.3847
▁controls	-11.3849
SV	-11.3849
install	-11.385
berry	-11.385
nial	-11.3851
shed	-11.3855
▁celle	-11.3858
FR	-11.3859
äng	-11.386
▁gaz	-11.386
êt	-11.3862
▁viewing	-11.3864
▁asigura	-11.3865
bling	-11.3865
master	-11.3869
▁Fin	-11.3872
VC	-11.3874
▁patent	-11.3877
▁Clean	-11.3877
▁1970	-11.3878
▁Char	-11.388
thi	-11.388
bli	-11.3881
▁haut	-11.3883
tica	-11.3884
▁venit	-11.3886
▁compatible	-11.3887
▁hanging	-11.3887
UN	-11.3888
▁forth	-11.3889
▁painted	-11.3889
lip	-11.389
▁deeply	-11.3891
▁participating	-11.3892
▁Iran	-11.3897
▁conventional	-11.3898
ARE	-11.3899
▁accuracy	-11.3899
▁Familie	-11.39
▁Dir	-11.39
▁gehen	-11.3901
▁moderne	-11.3902
▁Iraq	-11.3905
▁vente	-11.3906
▁Donald	-11.391
▁passer	-11.3911
▁mehrere	-11.3913
▁Everything	-11.3913
▁studied	-11.3913
▁acquire	-11.3913
für	-11.3915
▁gal	-11.3915
▁headed	-11.3918
▁screening	-11.3919
▁findings	-11.3923
▁nutrition	-11.3923
▁Secretary	-11.3923
duct	-11.3924
born	-11.3924
«	-11.3926
▁statistics	-11.3926
▁Sydney	-11.3928
▁Prof	-11.3928
▁dialogue	-11.3933
▁gather	-11.3934
valu	-11.3937
▁currency	-11.3941
▁Kat	-11.3941
gotten	-11.3942
main	-11.3943
▁coin	-11.3943
▁Nick	-11.3944
vă	-11.3947
▁Victoria	-11.3948
▁conclusion	-11.395
▁lemon	-11.395
▁Article	-11.3952
▁necesar	-11.3952
mag	-11.3952
▁riding	-11.3954
▁Eli	-11.3956
▁cord	-11.3956
wä	-11.3957
ußerdem	-11.3957
▁Bed	-11.3958
▁layers	-11.3958
▁harder	-11.396
▁processor	-11.396
▁Ils	-11.3961
▁Edition	-11.3962
▁Link	-11.3964
éré	-11.3965
▁nume	-11.3966
▁Boy	-11.3966
▁equally	-11.3966
▁Regel	-11.3971
▁hopes	-11.3972
odor	-11.3973
▁initially	-11.3974
▁$4	-11.3975
▁exemplu	-11.3975
▁vari	-11.3976
schl	-11.3977
▁southern	-11.3981
▁mein	-11.3982
▁1994	-11.3983
▁importantly	-11.3984
▁succes	-11.3985
▁developer	-11.3986
▁lips	-11.3989
▁attitude	-11.399
▁Age	-11.3995
▁corps	-11.3997
▁clicking	-11.3998
▁putem	-11.3998
▁journée	-11.4
boy	-11.4002
▁injured	-11.4003
▁watched	-11.4004
▁flights	-11.4008
turn	-11.401
▁stainless	-11.4016
▁besondere	-11.4016
▁Tur	-11.4016
▁hiring	-11.4017
▁roads	-11.4017
ificat	-11.4018
▁Flor	-11.402
▁puternic	-11.4022
▁unexpected	-11.4022
▁Est	-11.4024
▁adopted	-11.4025
▁Fox	-11.4026
▁contributions	-11.4029
sec	-11.403
IO	-11.4031
▁santé	-11.4034
▁Tree	-11.4038
▁scurt	-11.4038
▁Products	-11.4038
▁forecast	-11.404
▁actor	-11.4041
▁Gallery	-11.4041
▁continuous	-11.4042
▁Hat	-11.4043
▁slip	-11.4045
9%	-11.405
▁depression	-11.405
UI	-11.4052
abile	-11.4056
▁merit	-11.4057
▁Fer	-11.4058
▁robot	-11.4059
▁gel	-11.4059
▁gentle	-11.406
▁wanting	-11.4061
▁understood	-11.4062
▁terrain	-11.4062
▁associate	-11.4062
▁discussions	-11.4063
▁Job	-11.4064
spec	-11.4064
Dabei	-11.4065
etic	-11.4065
gol	-11.4065
▁20%	-11.4066
▁grup	-11.4066
▁Doctor	-11.4068
verse	-11.4072
▁victim	-11.4073
ță	-11.4073
▁scores	-11.4075
▁Policy	-11.4076
▁Anna	-11.4077
IV	-11.4078
▁mineral	-11.4082
live	-11.4082
▁grey	-11.4084
struct	-11.4085
▁emails	-11.4087
▁anymore	-11.4091
▁productivity	-11.4094
▁Dark	-11.4095
▁neither	-11.4095
▁quotes	-11.4096
LS	-11.4104
▁Arizona	-11.4104
night	-11.4105
élé	-11.411
▁assigned	-11.4112
▁satellite	-11.4113
▁stability	-11.4117
▁networking	-11.4117
▁Transport	-11.4118
▁persons	-11.4119
fund	-11.412
▁pratique	-11.4121
▁inca	-11.4121
iller	-11.4123
▁packed	-11.4124
▁Vegas	-11.4125
▁offre	-11.4125
▁Bin	-11.4125
stop	-11.4126
mini	-11.4129
▁jam	-11.4129
cord	-11.4129
▁Beautiful	-11.413
▁trash	-11.413
▁wise	-11.4131
▁accounting	-11.4132
▁différents	-11.4132
▁stil	-11.4132
suit	-11.414
▁vier	-11.4142
▁permis	-11.4142
flow	-11.4142
▁col	-11.4147
ected	-11.415
▁singer	-11.415
▁GmbH	-11.415
tics	-11.4151
▁ser	-11.4152
On	-11.4153
▁insights	-11.4156
BB	-11.4159
▁differ	-11.416
▁Glass	-11.4161
▁Six	-11.4165
▁subscription	-11.4166
BC	-11.4166
▁returning	-11.4167
kleinen	-11.4167
▁advantages	-11.4167
omme	-11.4169
lus	-11.4171
now	-11.4171
▁Pack	-11.4173
▁leak	-11.4173
▁muscles	-11.4175
▁davon	-11.4175
mph	-11.4179
▁temple	-11.4179
▁Après	-11.4179
▁Illinois	-11.418
▁variable	-11.4181
▁judgment	-11.4184
gran	-11.4186
▁pose	-11.4186
das	-11.4186
ures	-11.4187
▁Championship	-11.4187
ebenfalls	-11.4187
▁hydro	-11.4188
▁angle	-11.4193
▁5-	-11.4194
▁gest	-11.4195
▁Frau	-11.4202
▁knock	-11.4203
FS	-11.4204
spi	-11.4206
▁Regional	-11.4207
lets	-11.4211
▁Date	-11.4212
▁Finance	-11.4212
▁Dann	-11.4213
Star	-11.4214
▁Creek	-11.4214
▁fu	-11.4216
wohn	-11.4221
▁anniversary	-11.4222
▁investments	-11.4223
▁universal	-11.4226
▁pit	-11.4227
ște	-11.4228
▁lab	-11.4228
dienst	-11.4229
▁pal	-11.4229
▁graphic	-11.4229
▁bearing	-11.4229
▁stylish	-11.4231
▁mé	-11.4232
▁există	-11.4233
▁découvrir	-11.4235
comp	-11.4236
ridge	-11.4237
▁heads	-11.4238
▁consequences	-11.4238
self	-11.4238
fried	-11.4239
▁inventory	-11.4242
▁strip	-11.4242
▁Civil	-11.4242
bell	-11.4243
▁neben	-11.4244
▁Perfect	-11.4245
▁Notre	-11.4245
▁fraud	-11.4246
▁employers	-11.4247
▁Jackson	-11.4247
▁probleme	-11.4249
▁richtig	-11.425
▁Method	-11.425
▁tired	-11.425
dies	-11.425
▁Number	-11.4253
rland	-11.4257
▁latter	-11.426
rendre	-11.4261
▁cameras	-11.4261
▁euch	-11.4266
▁Description	-11.427
Spec	-11.4271
▁mile	-11.4274
▁Challenge	-11.4275
▁Solutions	-11.4275
▁trusted	-11.4275
▁einge	-11.4275
rück	-11.4275
▁Ober	-11.4276
kes	-11.4276
▁Log	-11.4277
▁dessert	-11.4278
▁murder	-11.428
▁1/2	-11.4283
▁Provide	-11.4287
nivelul	-11.4288
nici	-11.4288
▁observe	-11.4289
▁prescription	-11.4292
▁Sau	-11.4292
▁genuine	-11.4292
▁operated	-11.4292
▁generous	-11.4293
▁weapons	-11.4295
▁belief	-11.4295
▁consum	-11.4296
▁unknown	-11.4301
deoarece	-11.4301
Art	-11.4301
▁kurz	-11.4302
▁Gut	-11.4303
▁medication	-11.4305
▁Mau	-11.4306
▁divorce	-11.4307
▁claimed	-11.4308
halten	-11.4308
▁Cons	-11.4309
▁operational	-11.431
▁Hong	-11.4311
VI	-11.4311
▁Blick	-11.4315
▁lamp	-11.4317
pati	-11.4319
▁4-	-11.4319
▁interven	-11.432
ques	-11.432
▁Talk	-11.4321
▁zeigt	-11.4323
▁targeted	-11.4324
round	-11.4326
enfant	-11.4327
▁Reg	-11.4328
▁instruments	-11.4329
▁calcul	-11.4334
▁Henry	-11.4335
▁Cla	-11.4336
▁rack	-11.4337
sehen	-11.4338
▁ending	-11.4338
▁resolve	-11.4341
▁advise	-11.4342
▁sociale	-11.4344
▁cabin	-11.4345
▁involve	-11.4348
gă	-11.4349
▁automat	-11.4351
▁consultant	-11.4353
Bu	-11.4354
▁safely	-11.4355
état	-11.4355
▁pros	-11.4357
▁lies	-11.4357
▁Brian	-11.4359
▁talented	-11.436
pus	-11.436
▁hub	-11.4361
▁Ji	-11.4361
▁sought	-11.4361
▁energie	-11.4362
▁möchten	-11.4363
▁11.	-11.4366
▁Kong	-11.4367
▁grave	-11.4367
▁lists	-11.4368
tati	-11.4368
verschiedenen	-11.4369
dam	-11.4371
▁charity	-11.4372
▁breaking	-11.4374
kins	-11.4375
▁könnte	-11.4375
▁appointed	-11.4375
roc	-11.4377
▁Senate	-11.438
wit	-11.438
▁emerging	-11.4382
▁année	-11.4383
▁Cool	-11.4384
▁sensor	-11.4384
How	-11.4385
▁Ryan	-11.4386
▁computers	-11.4387
▁fault	-11.4388
▁présent	-11.4388
ulation	-11.4391
▁stir	-11.4393
lauf	-11.4397
▁AI	-11.4404
▁Bri	-11.4404
▁bain	-11.441
▁5,	-11.4413
schein	-11.4416
▁weiß	-11.4416
▁possibilities	-11.4424
gur	-11.4424
▁hinter	-11.4426
Innen	-11.4428
▁vorba	-11.443
fahren	-11.443
▁Cell	-11.4431
univers	-11.4431
▁Follow	-11.4434
▁emotions	-11.4436
▁Ministry	-11.4437
▁curriculum	-11.4437
Je	-11.4438
▁gab	-11.4441
▁sigur	-11.4443
rise	-11.4444
Pri	-11.4447
▁stabil	-11.4448
▁superb	-11.4451
▁Oak	-11.4451
▁rubber	-11.4453
▁tag	-11.4453
PG	-11.4454
▁Heat	-11.4455
▁thousand	-11.4455
▁meets	-11.4455
▁faced	-11.4456
▁reserve	-11.4456
cateva	-11.4458
▁gym	-11.4458
▁vitamin	-11.446
▁Rest	-11.4465
▁Single	-11.4465
▁Stephen	-11.4466
▁trick	-11.4468
DU	-11.4469
▁telefon	-11.4471
▁gând	-11.4471
▁primit	-11.4473
▁Connect	-11.4474
▁führt	-11.4474
▁Info	-11.4475
▁recall	-11.4478
▁restore	-11.4479
lege	-11.4479
▁franchise	-11.4482
▁seulement	-11.4486
reci	-11.4486
▁2019,	-11.4486
▁Ring	-11.4487
▁assembly	-11.4487
intérieur	-11.4488
▁shade	-11.4489
▁meaningful	-11.4489
bag	-11.449
ONE	-11.4492
▁globe	-11.4493
▁WA	-11.4494
▁intervention	-11.4495
öl	-11.4495
▁Marine	-11.4503
▁Angebot	-11.4505
▁align	-11.4506
▁temperatures	-11.4506
ifier	-11.4509
▁Nigeria	-11.4512
▁survive	-11.4512
ounce	-11.4513
▁placement	-11.4514
▁deci	-11.4515
▁Taylor	-11.4518
step	-11.4519
▁Geschichte	-11.4521
▁Bet	-11.4522
▁Nature	-11.4522
▁FC	-11.4523
▁ownership	-11.4523
▁behaviour	-11.4525
▁deutlich	-11.4525
▁wondering	-11.4528
▁cleaner	-11.4533
uring	-11.4535
rä	-11.4535
▁ga	-11.4543
ador	-11.4545
▁artwork	-11.4546
ologic	-11.4546
▁eigentlich	-11.4548
▁hell	-11.4552
source	-11.4553
▁gem	-11.4553
▁boss	-11.4553
▁arise	-11.4555
about	-11.4557
▁SI	-11.456
▁ME	-11.4561
akt	-11.4562
▁Style	-11.4563
▁Körper	-11.4565
gui	-11.4568
▁navigate	-11.4568
▁Meanwhile	-11.457
▁așa	-11.4571
▁bulk	-11.4573
▁directions	-11.4573
▁brick	-11.4577
▁Poly	-11.4578
▁politique	-11.4578
▁patch	-11.4578
ра	-11.4578
commerce	-11.4578
▁înainte	-11.4579
▁intelligent	-11.4582
▁infection	-11.4584
▁Tru	-11.4585
▁raising	-11.4585
tragen	-11.4585
▁portrait	-11.4586
▁meisten	-11.4588
▁organize	-11.4589
metric	-11.459
▁Season	-11.459
▁enforcement	-11.4593
origine	-11.4598
▁Ros	-11.4601
▁Mount	-11.4601
have	-11.4602
▁romantic	-11.4603
▁comic	-11.4608
▁greu	-11.4611
ET	-11.4613
▁hook	-11.4614
▁mort	-11.4614
▁indicated	-11.4616
▁7,	-11.462
▁Neben	-11.462
yer	-11.4621
▁momentul	-11.4621
note	-11.4623
▁baz	-11.4623
▁abroad	-11.4623
nite	-11.4625
▁bass	-11.4627
▁norm	-11.4627
▁É	-11.4628
4.	-11.4629
▁province	-11.463
▁merge	-11.4634
arbeiten	-11.4634
-20	-11.4636
▁Nicht	-11.4637
spo	-11.4638
size	-11.4638
▁assure	-11.4638
charge	-11.464
▁olive	-11.464
▁Pot	-11.4641
▁Figure	-11.4642
clair	-11.4643
▁discipline	-11.4646
elli	-11.4646
▁tackle	-11.4652
▁buyer	-11.4652
▁loud	-11.4655
▁180	-11.4655
▁căt	-11.4656
▁Palm	-11.4657
away	-11.4659
▁Mother	-11.4661
onia	-11.4662
▁Protection	-11.4664
auto	-11.4665
▁Version	-11.4666
▁Nice	-11.4667
▁12.	-11.4668
▁0,	-11.4668
ATION	-11.4669
▁Produkte	-11.467
▁tube	-11.4671
▁Houston	-11.4671
chu	-11.4675
pas	-11.4677
▁Ele	-11.4678
▁mountains	-11.4678
PH	-11.4679
▁languages	-11.4687
▁servicii	-11.4687
▁Stay	-11.469
fil	-11.4691
▁propos	-11.4698
▁coll	-11.4698
▁mor	-11.4702
▁arrange	-11.4704
▁sorry	-11.4705
▁instruction	-11.4707
▁holes	-11.4708
letting	-11.471
▁wa	-11.4711
▁Feb	-11.4712
omb	-11.4712
▁prise	-11.4713
VO	-11.4713
week	-11.4713
▁Event	-11.4714
▁AT	-11.4715
ket	-11.4715
haft	-11.4716
▁hits	-11.4716
foli	-11.4717
this	-11.4719
GP	-11.472
▁Pin	-11.4723
▁Stein	-11.4725
thing	-11.4725
▁emphasis	-11.4726
▁Mur	-11.4726
▁Bag	-11.4726
cons	-11.4727
tons	-11.4728
lash	-11.473
▁Grant	-11.4731
▁pris	-11.4732
▁bună	-11.4732
▁buc	-11.4737
▁passe	-11.4737
▁jewelry	-11.4742
iens	-11.4743
▁forma	-11.4745
▁Med	-11.4747
laufen	-11.4748
▁hunt	-11.475
stayed	-11.4751
party	-11.4752
▁fra	-11.4753
▁scenes	-11.4753
▁absorb	-11.4754
▁abilities	-11.4754
lug	-11.4755
▁Sarah	-11.4757
mpf	-11.4757
▁fle	-11.4757
accès	-11.4759
▁solicit	-11.4759
pie	-11.4763
▁Zum	-11.4763
▁universe	-11.4764
▁exists	-11.4764
oane	-11.4766
IVE	-11.4767
▁2011.	-11.4769
▁specialists	-11.4771
▁mess	-11.4773
fach	-11.4774
▁Recht	-11.4774
▁hack	-11.4776
▁jacket	-11.4776
HC	-11.4777
▁substance	-11.4777
▁signing	-11.4778
▁allerdings	-11.478
▁publish	-11.4781
▁Lab	-11.4782
▁agenda	-11.4782
lane	-11.4783
stream	-11.4786
schau	-11.4788
▁realizat	-11.479
▁supplier	-11.479
▁moderate	-11.479
▁tours	-11.4792
▁narrative	-11.4792
ația	-11.4793
▁maps	-11.4794
treten	-11.4794
▁mars	-11.4797
▁moon	-11.4797
rose	-11.4798
▁exp	-11.4798
zahl	-11.4802
psych	-11.4802
▁gehört	-11.4802
▁bound	-11.4803
▁submission	-11.4805
▁clubs	-11.4807
Am	-11.4808
tenir	-11.4808
▁boast	-11.4809
▁boards	-11.4811
▁Geschäfts	-11.4812
zing	-11.4813
wort	-11.4814
lid	-11.4814
▁contractor	-11.4815
▁donner	-11.4817
▁coupon	-11.482
adresse	-11.482
colo	-11.4821
▁perception	-11.4821
NC	-11.4822
▁abge	-11.4822
▁cheaper	-11.4823
▁grace	-11.4823
▁resident	-11.4827
kla	-11.4828
▁bug	-11.4828
▁Available	-11.4829
▁BA	-11.4833
▁Met	-11.4836
▁climb	-11.4837
▁expanded	-11.4843
ying	-11.4844
▁matching	-11.4845
▁suffered	-11.4847
▁employed	-11.4848
pper	-11.4848
▁experiencing	-11.4849
ddy	-11.485
▁philosophy	-11.485
▁utilisé	-11.485
▁Jane	-11.4851
LI	-11.4851
▁elected	-11.4852
▁MI	-11.4853
▁ISO	-11.4853
winning	-11.4854
▁vot	-11.4854
▁generic	-11.4855
▁Bol	-11.4857
▁copies	-11.4857
▁mechanical	-11.4857
günstig	-11.4857
roy	-11.4858
Astfel	-11.4858
media	-11.4859
▁shoulder	-11.4859
▁directory	-11.486
▁banking	-11.486
▁mistakes	-11.486
▁Fran	-11.4864
▁Jon	-11.4865
▁spare	-11.4866
metri	-11.4867
▁mask	-11.4869
▁consistently	-11.487
▁Columbia	-11.4873
roid	-11.4877
essen	-11.4879
▁(“	-11.488
▁série	-11.4882
▁Phil	-11.4882
▁usor	-11.4882
▁stood	-11.4883
▁racing	-11.4883
▁Comme	-11.4886
▁exceed	-11.4886
на	-11.4886
▁activate	-11.4887
▁circle	-11.4888
▁bold	-11.489
▁handy	-11.4891
merely	-11.4891
▁Edward	-11.4891
▁contracts	-11.4895
ê	-11.4896
▁campaigns	-11.4897
▁ought	-11.4897
▁nursing	-11.4898
▁Jr	-11.4899
▁rarely	-11.49
▁Mir	-11.4901
▁diagnosis	-11.4904
▁Theatre	-11.4904
▁producer	-11.4904
Currently	-11.4905
▁fitting	-11.4906
▁ajunge	-11.4906
minte	-11.4908
▁termen	-11.4908
▁Linux	-11.491
▁1-	-11.4911
▁hätte	-11.4912
▁Resort	-11.4913
image	-11.4915
▁Rod	-11.4919
▁Fly	-11.4919
try	-11.4923
▁expense	-11.4925
▁Interior	-11.4928
▁fence	-11.4929
▁Kontakt	-11.4931
▁ALL	-11.4931
VA	-11.4932
▁Exchange	-11.4933
ranked	-11.4936
▁Performance	-11.4936
prim	-11.4936
▁basket	-11.4937
▁Vice	-11.4937
phan	-11.4937
▁broke	-11.494
voir	-11.4943
arg	-11.4945
ART	-11.4945
▁floors	-11.4949
pression	-11.495
▁possession	-11.4951
▁domaine	-11.4951
▁valeur	-11.4951
▁suddenly	-11.4953
▁mild	-11.4953
▁aflat	-11.4954
▁Tea	-11.4957
tritt	-11.4958
▁Mittel	-11.4958
▁regulatory	-11.4958
▁spectacular	-11.4959
fahrt	-11.4959
GS	-11.496
MM	-11.4962
▁environments	-11.4962
▁Raum	-11.4964
▁lay	-11.4967
▁cré	-11.4967
▁Selbst	-11.4967
▁opposition	-11.4968
two	-11.4973
▁Clark	-11.4978
▁Netz	-11.4978
bald	-11.498
▁Innovation	-11.4982
▁overcome	-11.4983
quot	-11.499
▁Sin	-11.4991
▁Sto	-11.4993
▁grain	-11.4996
▁collections	-11.4997
▁applies	-11.4999
mach	-11.4999
▁wheels	-11.5
▁universities	-11.5
▁Ray	-11.5002
lina	-11.5002
▁arrangements	-11.5004
▁western	-11.5007
rous	-11.5008
aise	-11.5008
▁highlights	-11.5011
▁intend	-11.5013
aimed	-11.5014
▁Scotland	-11.5014
▁acestei	-11.5015
graf	-11.5015
duction	-11.5015
path	-11.5016
▁evil	-11.5016
▁scris	-11.5018
▁disposition	-11.5019
▁designing	-11.5021
zwar	-11.5022
▁Retrieve	-11.5022
▁aggressive	-11.5024
▁Glen	-11.5024
▁daher	-11.5025
▁Quick	-11.5025
▁recover	-11.5026
▁prominent	-11.5029
▁visits	-11.5032
▁Mis	-11.5034
▁edited	-11.5035
▁distributed	-11.5036
▁dés	-11.5036
▁alter	-11.5036
▁cooked	-11.5037
embl	-11.5037
Univers	-11.5037
▁Minuten	-11.5042
▁compris	-11.5042
rais	-11.5042
essentially	-11.5042
▁rel	-11.5043
▁appel	-11.5046
▁trace	-11.5048
relating	-11.5048
dès	-11.5049
aste	-11.505
▁raison	-11.505
▁frequent	-11.5053
▁beds	-11.5053
▁Miami	-11.5055
▁vibrant	-11.5056
▁Kam	-11.5057
▁klar	-11.5059
▁Tan	-11.506
▁vidéo	-11.506
▁Kur	-11.5061
▁themes	-11.5061
▁struggling	-11.5064
▁Magazine	-11.5064
maker	-11.5065
veni	-11.5066
▁Groß	-11.5067
▁streaming	-11.5068
▁analyze	-11.5069
▁titles	-11.507
pier	-11.5073
▁participant	-11.5073
aims	-11.5076
▁convention	-11.5076
▁flood	-11.5078
▁nights	-11.5078
▁titre	-11.5079
▁voul	-11.508
weit	-11.5082
where	-11.5082
▁Seiten	-11.5083
▁relaxing	-11.5086
▁piano	-11.5088
▁Pick	-11.5088
▁Sony	-11.509
▁enhanced	-11.509
▁visa	-11.5092
CH	-11.5093
▁instantly	-11.5093
▁Fan	-11.5097
▁diabetes	-11.51
▁popul	-11.51
Ang	-11.5102
▁Ask	-11.5103
cate	-11.5107
▁simplu	-11.5107
nahme	-11.5107
▁dentist	-11.5108
ubi	-11.5109
article	-11.511
▁graph	-11.5111
▁rival	-11.5112
jahr	-11.5114
▁bloc	-11.5114
fern	-11.5114
▁dispar	-11.5115
▁servers	-11.5116
▁patru	-11.5116
▁Within	-11.5116
▁situated	-11.5119
▁HR	-11.512
▁leaf	-11.512
▁curs	-11.512
antes	-11.5123
lux	-11.5124
▁1993	-11.5125
stance	-11.5127
▁northern	-11.5127
lves	-11.5127
▁contractors	-11.5129
▁dimensions	-11.5129
▁rolling	-11.5131
▁automobile	-11.5132
▁cru	-11.5134
▁displays	-11.5136
web	-11.5138
had	-11.5139
▁Never	-11.5139
▁2-	-11.5139
vine	-11.5139
▁Wahl	-11.514
▁Markt	-11.5142
▁Double	-11.5142
▁acknowledge	-11.5142
stal	-11.5143
▁equity	-11.5146
▁ministry	-11.5148
▁Lor	-11.5149
▁sud	-11.515
idée	-11.515
▁measured	-11.5154
▁editing	-11.5156
▁singur	-11.5156
▁coal	-11.5156
▁dramatic	-11.5162
AG	-11.5163
asca	-11.5163
▁crash	-11.5163
ischer	-11.5166
▁Pla	-11.5169
▁psycho	-11.5171
piece	-11.5171
▁finger	-11.5171
▁Hollywood	-11.5171
▁Cr	-11.5173
▁locally	-11.5176
▁mouse	-11.5178
▁Base	-11.5179
uite	-11.5181
▁detect	-11.5181
cea	-11.5182
▁bull	-11.5182
▁curve	-11.5182
été	-11.5182
ddle	-11.5184
▁span	-11.5185
WS	-11.5189
CL	-11.519
▁officially	-11.519
▁corect	-11.5192
▁Artikel	-11.5194
▁customized	-11.5201
▁intellectual	-11.5202
▁heures	-11.5203
schule	-11.5204
▁investing	-11.5206
▁parallel	-11.5212
▁loi	-11.5213
ările	-11.5216
р	-11.5217
▁bench	-11.5217
▁principle	-11.5218
▁Galaxy	-11.5218
ța	-11.5222
▁(4	-11.5224
▁bedrooms	-11.5226
née	-11.5227
▁surely	-11.5228
very	-11.5229
stelle	-11.5232
activ	-11.5232
cite	-11.5236
▁Original	-11.5236
▁palm	-11.5237
▁losses	-11.5239
▁newspaper	-11.5242
ciu	-11.5244
▁Hold	-11.5244
BO	-11.5244
▁CON	-11.5246
▁modified	-11.5246
▁stake	-11.5247
▁Ton	-11.5248
▁luna	-11.525
▁Mind	-11.5251
lap	-11.5252
▁opinions	-11.5252
▁Jordan	-11.5254
div	-11.5254
indi	-11.5254
▁Story	-11.5255
▁affiliate	-11.5259
▁matière	-11.5259
▁fifth	-11.5264
▁sheets	-11.5265
▁puțin	-11.5269
ush	-11.5269
geführt	-11.527
▁Falls	-11.5272
legi	-11.5273
▁auction	-11.5273
▁cooperation	-11.5274
▁Fee	-11.5275
▁Daily	-11.5277
pies	-11.5279
▁basketball	-11.528
removing	-11.5281
Besides	-11.5283
▁Body	-11.5284
▁AD	-11.5284
RU	-11.5284
ţia	-11.5289
▁Extra	-11.529
▁Practice	-11.529
▁Jeff	-11.529
▁început	-11.5293
ching	-11.5293
▁Gift	-11.5293
kk	-11.5293
")	-11.5293
▁Austin	-11.5297
thro	-11.5298
▁camping	-11.5298
▁theatre	-11.5299
école	-11.5299
vient	-11.5302
▁faces	-11.5302
▁constructed	-11.5304
▁overnight	-11.5305
▁locale	-11.5306
▁roots	-11.5306
▁bu	-11.5307
4,	-11.5307
▁Enterprise	-11.5309
screen	-11.5309
▁Chef	-11.531
▁Along	-11.5313
▁MD	-11.5314
▁Supreme	-11.5316
En	-11.5317
▁verwendet	-11.532
▁processed	-11.5324
▁vendors	-11.5325
▁FA	-11.5327
▁44	-11.5327
▁beautifully	-11.5329
▁eficient	-11.5331
▁Wil	-11.5331
▁Member	-11.5331
▁damages	-11.5333
▁mutual	-11.5333
SN	-11.5335
▁Dave	-11.5337
??	-11.534
stat	-11.5341
▁tourist	-11.5344
fie	-11.5344
şte	-11.5348
▁donne	-11.5348
▁shadow	-11.5349
▁dough	-11.535
▁Gro	-11.535
▁Mah	-11.5351
RF	-11.5351
▁mechanism	-11.5352
▁2011,	-11.5352
▁Alter	-11.5353
▁opposed	-11.5354
▁Fri	-11.5355
▁remarkable	-11.5356
oral	-11.5356
▁verschiedene	-11.5357
▁difficulty	-11.5357
▁Application	-11.5358
▁Hay	-11.5359
▁continua	-11.5359
EP	-11.5361
▁Pr	-11.5362
▁Lady	-11.5363
▁interval	-11.5365
▁Mil	-11.5365
▁2010.	-11.537
VE	-11.5371
integr	-11.5374
▁création	-11.5374
weed	-11.5375
EG	-11.5376
▁6,	-11.5378
▁god	-11.5379
▁accomplish	-11.5379
▁thoroughly	-11.538
2019	-11.5382
izer	-11.5382
▁Wal	-11.5383
ifying	-11.5387
▁Wohn	-11.5392
▁Holz	-11.5395
▁Advanced	-11.5395
▁honey	-11.5396
proof	-11.5396
▁saison	-11.54
ându	-11.54
▁Kevin	-11.5401
▁shelter	-11.5402
▁discut	-11.5403
▁hike	-11.5403
ités	-11.5405
▁boutique	-11.5407
▁Email	-11.5407
▁cosmetic	-11.5408
dian	-11.5409
▁hohe	-11.5409
▁absence	-11.5411
axi	-11.5411
nah	-11.5412
▁Frauen	-11.5412
▁actively	-11.5413
bind	-11.5415
▁everybody	-11.5417
▁controller	-11.5418
▁1.5	-11.5418
erau	-11.5418
gehen	-11.542
▁scenario	-11.542
▁odd	-11.5421
▁Ultra	-11.5421
▁finishing	-11.5424
▁cuts	-11.5424
▁financing	-11.5425
▁Chance	-11.5426
surrounded	-11.5428
▁joc	-11.5429
▁shelf	-11.543
tief	-11.5431
▁Sir	-11.5431
▁Agent	-11.5432
▁scratch	-11.5436
2,000	-11.5436
nutri	-11.5437
nier	-11.5441
▁Dur	-11.5442
▁grid	-11.5443
road	-11.5444
▁pets	-11.5444
stud	-11.5445
OM	-11.5446
Die	-11.5449
▁800	-11.545
▁arrangement	-11.5451
▁Sri	-11.5452
▁Patrick	-11.5452
ava	-11.5452
▁pension	-11.5452
dung	-11.5454
▁Chapter	-11.5455
▁Property	-11.5455
▁structural	-11.5456
▁overview	-11.5457
2015	-11.5459
▁lawn	-11.5459
▁Vin	-11.5462
lik	-11.5464
dus	-11.5464
Several	-11.5465
▁Bou	-11.5467
▁copper	-11.5467
▁duration	-11.5469
inate	-11.547
▁podcast	-11.5472
▁Self	-11.5472
▁Construction	-11.5475
achat	-11.5477
???	-11.5477
▁Electric	-11.548
▁Mrs	-11.548
▁CT	-11.548
▁proceed	-11.5483
▁Course	-11.5483
▁Frei	-11.5487
▁heavily	-11.5489
rique	-11.5489
version	-11.549
▁representatives	-11.5491
▁tourism	-11.5492
▁shirt	-11.5495
▁rough	-11.5495
▁weniger	-11.5497
▁keyboard	-11.5501
▁heritage	-11.5501
kat	-11.5505
assez	-11.5506
▁cabinets	-11.5506
▁Komm	-11.5508
▁impressed	-11.5508
▁Oregon	-11.5508
▁Davis	-11.5508
specialized	-11.551
▁gross	-11.551
Located	-11.551
ttle	-11.551
▁2010,	-11.5512
chan	-11.5513
mine	-11.5513
▁aduce	-11.5516
▁subsequent	-11.5517
▁demo	-11.5519
aba	-11.5522
▁shock	-11.5524
▁theater	-11.5529
▁engineers	-11.5529
▁feu	-11.553
▁Rot	-11.5531
▁addressed	-11.5532
▁Letter	-11.5534
gré	-11.5534
▁quantity	-11.5534
▁Seit	-11.5536
▁bacteria	-11.5537
kg	-11.5541
▁conservation	-11.5542
▁entreprises	-11.5542
▁pleasant	-11.5542
armed	-11.5542
dorf	-11.5543
fact	-11.5543
▁Much	-11.5544
▁laugh	-11.5548
▁blade	-11.5548
amine	-11.5548
▁insert	-11.5549
▁toys	-11.5553
▁в	-11.5557
cell	-11.5557
▁strengthen	-11.5559
GR	-11.5559
▁autor	-11.5561
▁LI	-11.5561
▁oamenii	-11.5562
▁Modell	-11.5562
▁sophisticated	-11.5562
▁Write	-11.5563
eți	-11.5563
say	-11.5566
▁nutzen	-11.5568
▁amenities	-11.557
chel	-11.5571
Unlike	-11.5572
▁Bilder	-11.5572
fertig	-11.5572
PER	-11.5572
▁apparently	-11.5573
▁pointed	-11.5573
lop	-11.5574
▁commande	-11.5578
▁NEW	-11.5579
▁primi	-11.558
▁aluminum	-11.558
ificare	-11.5581
open	-11.5582
▁establishment	-11.5583
▁blanc	-11.5583
▁1960	-11.5585
▁parameters	-11.5586
schluss	-11.5587
▁jet	-11.5588
gam	-11.559
▁oral	-11.5593
▁tons	-11.5593
▁AL	-11.5594
▁intention	-11.5595
ives	-11.5597
▁BMW	-11.5598
gun	-11.56
leben	-11.56
▁Fresh	-11.5601
▁tuturor	-11.5602
▁marine	-11.5602
mile	-11.5603
▁alta	-11.5603
nnen	-11.5605
▁courts	-11.5605
▁Hello	-11.5608
BL	-11.5609
▁reply	-11.561
environnement	-11.561
American	-11.561
▁Tell	-11.561
▁chic	-11.5615
bir	-11.5615
▁singing	-11.5618
▁earnings	-11.5618
▁ensemble	-11.5621
▁($	-11.5622
▁Tout	-11.5622
▁Abs	-11.5623
▁describes	-11.5623
▁navigation	-11.5625
▁destul	-11.5625
legate	-11.5626
tral	-11.5626
aţie	-11.5628
▁supplied	-11.5628
▁paar	-11.5629
ionat	-11.5632
9.	-11.5633
▁41	-11.5633
▁Track	-11.5635
▁happiness	-11.5636
▁Personen	-11.5637
▁sac	-11.5637
▁shapes	-11.5638
eld	-11.5639
bett	-11.564
tile	-11.564
▁divided	-11.564
▁13.	-11.564
market	-11.5641
crafted	-11.5641
▁periods	-11.5641
uş	-11.5646
▁trainer	-11.5646
▁Licht	-11.5649
▁advisor	-11.5649
▁Herr	-11.565
▁Halloween	-11.5651
alter	-11.5652
▁radical	-11.5652
▁nose	-11.5653
▁Sat	-11.5653
▁Mom	-11.5654
moni	-11.5654
▁semn	-11.5654
vé	-11.5657
identifie	-11.5657
▁hatten	-11.566
completing	-11.566
▁gust	-11.566
▁creat	-11.566
ché	-11.5661
pay	-11.5662
▁Money	-11.5662
IG	-11.5662
▁Cash	-11.5663
altă	-11.5664
▁bekommen	-11.5666
▁43	-11.5666
▁supplement	-11.5666
▁Early	-11.5668
▁mattress	-11.5669
▁worn	-11.5672
rov	-11.5672
▁pray	-11.5673
▁beans	-11.5677
▁passé	-11.5678
▁facilit	-11.5678
▁meters	-11.5678
cke	-11.5682
▁Villa	-11.5682
▁Diego	-11.5682
▁chips	-11.5682
▁mes	-11.5683
▁Seattle	-11.5684
BU	-11.5686
▁nevoi	-11.5687
▁lets	-11.5687
▁hopefully	-11.5689
▁AG	-11.569
liable	-11.569
pound	-11.5691
près	-11.5691
arul	-11.5692
isiert	-11.5693
▁Expert	-11.5693
▁particulier	-11.5694
stoff	-11.57
▁interpretation	-11.57
După	-11.5701
sait	-11.5701
▁nouvelles	-11.5702
▁Ok	-11.5702
tap	-11.5703
▁targets	-11.5703
rung	-11.5705
▁stare	-11.5706
▁efficiently	-11.5709
EV	-11.571
évit	-11.5713
▁Moldova	-11.5715
▁Face	-11.5717
▁flo	-11.5717
▁acestora	-11.5717
▁Victor	-11.5718
▁breed	-11.572
morph	-11.5722
sley	-11.5723
mot	-11.5723
▁URL	-11.5724
ellen	-11.5725
▁resist	-11.5728
zon	-11.5728
ndel	-11.573
will	-11.573
▁alege	-11.5731
▁Easter	-11.5731
▁Bat	-11.5732
▁Höhe	-11.5732
▁fascinating	-11.5734
▁Know	-11.5735
illon	-11.5736
flex	-11.5736
who	-11.5737
▁Always	-11.5737
▁Bush	-11.5738
ICE	-11.574
verein	-11.5745
▁später	-11.5745
▁cherch	-11.5746
makers	-11.5748
versus	-11.5748
▁Clear	-11.5748
▁Pennsylvania	-11.5749
Dieser	-11.575
▁picking	-11.5751
▁restoration	-11.5751
▁interviews	-11.5752
pressed	-11.5752
nnerhalb	-11.5757
▁connecting	-11.5758
jou	-11.5759
▁react	-11.5762
▁Merci	-11.5762
▁Phone	-11.5764
▁1)	-11.5765
▁victims	-11.5766
▁Spo	-11.5767
atului	-11.5767
▁Harry	-11.5768
▁Sala	-11.5769
Pol	-11.5771
▁Clo	-11.5772
▁Erfolg	-11.5772
autour	-11.5773
▁Template	-11.5773
▁invention	-11.5775
▁schwer	-11.5776
vac	-11.5776
▁Trail	-11.5776
▁Vietnam	-11.5776
▁Size	-11.5777
▁Bern	-11.5778
▁emp	-11.5778
▁shake	-11.5779
▁Ave	-11.5779
▁productive	-11.578
▁apple	-11.578
▁portal	-11.5781
▁ceramic	-11.5781
▁pad	-11.5781
▁Syn	-11.5783
Ab	-11.5785
▁syn	-11.5788
find	-11.5789
▁settle	-11.5789
▁général	-11.579
▁okay	-11.579
▁receipt	-11.5791
orii	-11.5791
▁Mission	-11.5791
entrée	-11.5793
▁besteht	-11.5794
▁wisdom	-11.5795
▁heraus	-11.5796
▁balanced	-11.5798
▁habits	-11.5798
tang	-11.5799
ură	-11.5802
▁winners	-11.5802
ç	-11.5802
▁folosi	-11.5802
aliment	-11.5803
▁fiction	-11.5804
▁Spe	-11.5805
▁elsewhere	-11.5807
▁dependent	-11.5808
▁Anne	-11.5812
▁excellence	-11.5817
▁Feel	-11.5818
lieb	-11.5818
▁sectors	-11.5819
▁expir	-11.5819
▁surfaces	-11.5819
▁minim	-11.5819
▁tumor	-11.582
▁paragraph	-11.5823
▁disk	-11.5823
▁tonight	-11.5824
▁precious	-11.5828
▁console	-11.5829
Th	-11.5829
neu	-11.583
effective	-11.5839
▁Republican	-11.5839
format	-11.5843
▁preserve	-11.5844
▁wiring	-11.5846
▁exercises	-11.5848
▁pregnancy	-11.5848
tries	-11.5848
▁jeunes	-11.5849
▁publishing	-11.5849
▁nehmen	-11.5849
▁capability	-11.585
▁prompt	-11.585
▁Further	-11.585
▁semaine	-11.5852
abo	-11.5852
▁evolution	-11.5853
▁Sud	-11.5854
▁frais	-11.5855
LT	-11.5856
▁stack	-11.5858
▁Inside	-11.5859
▁programmes	-11.586
▁passes	-11.5862
mü	-11.5865
▁progressive	-11.5865
▁calculator	-11.5866
▁Core	-11.5867
BT	-11.587
core	-11.587
▁Moon	-11.587
▁tender	-11.587
durch	-11.5872
▁commune	-11.5875
▁Prince	-11.5876
▁demonstrated	-11.5877
▁conversations	-11.5879
▁fri	-11.588
igh	-11.588
being	-11.5883
pause	-11.5885
▁Bear	-11.5887
ayant	-11.5889
▁Industry	-11.589
▁sponsor	-11.589
▁numele	-11.5891
▁VA	-11.5892
▁Sommer	-11.5894
TB	-11.5894
▁optional	-11.5895
▁Landes	-11.5898
coli	-11.59
empt	-11.5902
▁Iron	-11.5906
▁1992	-11.5909
▁attempts	-11.5909
halb	-11.591
▁photographer	-11.591
▁witness	-11.591
bru	-11.5911
▁Ras	-11.5911
▁burden	-11.5911
▁kaufen	-11.5913
▁vu	-11.5914
▁Wedding	-11.5916
▁Kla	-11.5916
occasion	-11.5919
▁keys	-11.5921
▁oferi	-11.5923
▁puzzle	-11.5923
eaux	-11.5925
▁Eco	-11.5928
▁52	-11.5928
▁Elizabeth	-11.5928
▁dispose	-11.5931
▁cluster	-11.5933
iki	-11.5933
▁Guys	-11.5936
▁Economic	-11.5936
▁apar	-11.5937
▁ziua	-11.5937
▁integral	-11.5937
▁tac	-11.5938
▁restrictions	-11.5938
▁nerve	-11.5938
▁Stop	-11.5939
burger	-11.5939
explo	-11.5939
lö	-11.594
NP	-11.5941
▁Brook	-11.5942
▁Close	-11.5943
▁representing	-11.5945
▁certaine	-11.5948
▁discovery	-11.5948
▁rece	-11.595
FF	-11.595
▁salary	-11.5951
▁Wolf	-11.5951
▁deserve	-11.5952
ţele	-11.5954
gathered	-11.5959
▁comply	-11.596
lagen	-11.596
ătoare	-11.5962
▁relate	-11.5964
▁Roger	-11.5966
▁blame	-11.5966
▁Jen	-11.5969
▁army	-11.5969
▁$10	-11.5971
▁Cabinet	-11.5972
Gu	-11.5974
▁wildlife	-11.5975
▁Memorial	-11.5976
▁Holiday	-11.5977
▁curat	-11.5983
iilor	-11.5983
▁fleet	-11.5984
▁reviewed	-11.5984
cet	-11.5985
▁virtually	-11.5985
▁Crusher	-11.5985
▁slide	-11.5986
▁générale	-11.5986
▁sensation	-11.5986
▁garlic	-11.5986
5)	-11.5987
▁batteries	-11.5988
SH	-11.5988
▁seller	-11.5988
design	-11.5989
5.	-11.5989
▁Overall	-11.599
▁investigate	-11.5991
max	-11.5991
▁attach	-11.5992
▁Future	-11.5992
OUR	-11.5993
▁LE	-11.5997
▁bite	-11.5998
tige	-11.5999
▁twist	-11.5999
hole	-11.6002
▁Tony	-11.6005
LU	-11.6006
▁Organization	-11.6006
▁invit	-11.6006
▁Ant	-11.6007
NR	-11.6008
sorgt	-11.6009
▁Lan	-11.6009
▁Manchester	-11.6009
schrift	-11.6011
▁kg	-11.6012
▁aroma	-11.6013
▁Source	-11.6014
▁permite	-11.6014
▁Consider	-11.6015
▁Artist	-11.6016
▁transmit	-11.6018
oasa	-11.6018
▁Zen	-11.602
ANT	-11.6022
▁consulting	-11.6024
▁commence	-11.6025
▁quilt	-11.6026
owned	-11.6026
▁bro	-11.6027
▁integrate	-11.6027
▁Ontario	-11.6028
TF	-11.6028
▁Study	-11.6029
▁ensuite	-11.6032
itatii	-11.6032
Mon	-11.6032
-11	-11.6033
what	-11.6034
▁Things	-11.6036
▁Eye	-11.6038
▁présente	-11.6038
tention	-11.6039
|	-11.604
stall	-11.604
▁beef	-11.604
figur	-11.604
▁cancel	-11.6041
▁domeniul	-11.6043
▁360	-11.6043
▁sleeping	-11.6046
▁traitement	-11.6046
ühl	-11.6048
▁Environmental	-11.6048
cier	-11.6049
▁NC	-11.6049
pub	-11.6049
▁addiction	-11.6051
▁nest	-11.6051
▁ON	-11.6054
▁discrimin	-11.6054
▁proved	-11.6055
▁occasions	-11.6059
OH	-11.6062
▁lawyers	-11.6062
own	-11.6063
▁Meeting	-11.6066
▁Industrial	-11.6067
owed	-11.6067
▁Cel	-11.6068
legt	-11.6071
ily	-11.6071
▁wins	-11.6072
▁strap	-11.6074
digit	-11.6074
▁hinaus	-11.6075
mple	-11.6077
▁(5	-11.6078
▁pdf	-11.6079
▁eco	-11.6079
▁junior	-11.6082
DB	-11.6086
gelegt	-11.6086
ION	-11.6087
▁competitors	-11.6088
▁Arab	-11.609
▁Secret	-11.6091
▁Kunst	-11.6093
▁worried	-11.6093
meiner	-11.6094
▁Magic	-11.6095
▁groß	-11.6095
▁travaux	-11.6097
▁sollen	-11.6098
▁Sciences	-11.6099
▁athletes	-11.6101
▁discounts	-11.6101
kit	-11.6102
lind	-11.6103
▁enjoyable	-11.6104
ground	-11.6105
▁Tat	-11.6105
▁passengers	-11.6106
▁Dami	-11.6107
▁Major	-11.6107
watch	-11.6108
working	-11.6109
arrêt	-11.6109
▁subtle	-11.6111
▁epi	-11.6112
▁Jahres	-11.6113
▁cooling	-11.6114
▁makeup	-11.6114
jet	-11.6115
▁Given	-11.6115
plex	-11.6116
▁exploit	-11.6116
rine	-11.6116
▁delivers	-11.6121
▁summary	-11.6122
▁beaches	-11.6125
lift	-11.6126
▁Suite	-11.6126
▁Assistant	-11.6127
▁taxi	-11.6127
▁peaceful	-11.6128
▁Mode	-11.613
▁Fun	-11.6131
▁diameter	-11.6131
▁phrase	-11.6132
ACT	-11.6133
▁différentes	-11.6133
▁14.	-11.6134
▁CE	-11.6135
▁2)	-11.6137
▁Nat	-11.6138
▁delete	-11.6139
other	-11.6139
hang	-11.614
▁sujet	-11.6141
▁precise	-11.6142
▁Total	-11.6143
▁chambre	-11.6145
sati	-11.6147
▁Metal	-11.615
rust	-11.615
▁Brazil	-11.6155
▁hybrid	-11.6156
ops	-11.6157
▁electro	-11.6158
utz	-11.6161
▁quoi	-11.6162
▁adoption	-11.6163
3.5	-11.6165
50,000	-11.6166
veti	-11.6166
hir	-11.617
▁adequate	-11.6171
ologist	-11.6171
torii	-11.6173
wasser	-11.6174
▁Authority	-11.6174
▁donation	-11.6174
700	-11.6174
▁somehow	-11.6174
▁kostenlos	-11.6174
▁generations	-11.6175
▁Turkey	-11.6177
rata	-11.6178
▁animation	-11.6182
▁CH	-11.6183
ending	-11.6183
welt	-11.6184
bac	-11.6184
MG	-11.6185
▁parks	-11.6185
▁placing	-11.6189
sort	-11.6192
▁Bitcoin	-11.6192
▁disorder	-11.6193
MAN	-11.6193
aught	-11.6194
▁guides	-11.6196
▁circul	-11.6197
▁Steven	-11.62
rrière	-11.62
▁Arch	-11.62
▁plates	-11.6201
MR	-11.6201
▁cow	-11.6201
▁integrity	-11.6202
▁(18	-11.6202
▁totul	-11.6202
jack	-11.6204
▁privire	-11.6206
▁terme	-11.6208
▁execution	-11.6208
▁organism	-11.6208
▁führen	-11.6209
▁patron	-11.6209
▁appreciated	-11.621
liant	-11.621
▁Solar	-11.6211
▁vinyl	-11.6211
▁treasure	-11.6211
▁retro	-11.6212
▁bout	-11.6212
lab	-11.6212
▁dimension	-11.6214
called	-11.6215
▁intern	-11.6215
issement	-11.6217
▁Erst	-11.6218
▁stellen	-11.6219
▁familia	-11.6221
▁notion	-11.6222
▁Could	-11.6223
Getting	-11.6223
▁drives	-11.6224
▁Israeli	-11.6225
▁nations	-11.6225
▁duties	-11.6227
▁personalized	-11.6228
▁weren	-11.6228
▁chemicals	-11.6228
▁killing	-11.6229
▁masa	-11.623
▁parce	-11.623
▁lady	-11.6232
ides	-11.6232
▁execut	-11.6234
▁floral	-11.6234
▁Child	-11.6234
▁medal	-11.6235
▁casa	-11.6236
▁enabled	-11.6237
12.	-11.6242
nger	-11.6243
▁vent	-11.6243
▁urmă	-11.6247
▁Herz	-11.6248
▁Jay	-11.6249
.....	-11.6249
▁Kris	-11.625
kenn	-11.625
ress	-11.625
weight	-11.6252
▁indicates	-11.6252
▁mentor	-11.6253
using	-11.6254
▁femmes	-11.6255
▁Jung	-11.6255
▁Send	-11.6256
▁seasons	-11.6259
▁aesthetic	-11.626
▁Block	-11.6261
▁babies	-11.6262
zig	-11.6262
edge	-11.6264
▁alike	-11.6265
▁immune	-11.6266
▁magical	-11.6267
▁Snow	-11.6267
▁spacious	-11.6271
▁Melbourne	-11.6271
order	-11.6271
▁timing	-11.6272
▁inainte	-11.6272
▁width	-11.6273
bild	-11.6274
Tra	-11.6274
▁appliances	-11.6274
▁dirt	-11.6275
▁Rent	-11.6277
responsibilities	-11.6277
▁blogs	-11.6278
nächsten	-11.6278
▁argue	-11.6279
▁Resume	-11.628
▁Michel	-11.628
▁terrible	-11.6281
graph	-11.6282
bird	-11.6282
▁Simple	-11.6285
nning	-11.6287
▁coconut	-11.6287
▁comprise	-11.6288
heure	-11.6289
▁nichts	-11.6289
▁manufacture	-11.629
▁Sar	-11.629
green	-11.629
lining	-11.6291
▁tremendous	-11.6291
▁Wine	-11.6292
gir	-11.6293
▁Nothing	-11.6296
▁Miller	-11.6296
▁Schwe	-11.6297
zone	-11.6299
▁cunoscut	-11.63
rupt	-11.6302
kle	-11.6302
▁Bucuresti	-11.6305
▁Abend	-11.6306
▁aura	-11.6306
▁Dance	-11.6307
▁Wilson	-11.6309
icide	-11.6309
bai	-11.6309
oriented	-11.631
▁celebrated	-11.6314
schlag	-11.6315
▁10-	-11.6316
Unsere	-11.6317
énergie	-11.632
▁qualify	-11.6321
▁contenu	-11.6322
▁Lauf	-11.6322
▁einzelne	-11.6324
▁Youth	-11.6324
explains	-11.6326
grat	-11.6328
▁72	-11.6328
labor	-11.6329
2018	-11.6329
▁Dank	-11.6331
▁Hey	-11.6335
▁refuse	-11.6335
▁graduated	-11.6336
▁României	-11.6336
punkt	-11.6338
▁regulation	-11.6338
Bru	-11.6338
▁Side	-11.6339
▁sol	-11.634
▁extraordinary	-11.6342
▁ging	-11.6342
▁Creative	-11.6343
▁expanding	-11.6343
▁problème	-11.6344
▁Reserve	-11.6346
auteur	-11.6346
sphere	-11.6347
season	-11.6347
frei	-11.6348
▁8,	-11.6348
▁filing	-11.6348
▁Complete	-11.635
▁revolution	-11.635
▁unele	-11.6352
/8	-11.6353
istes	-11.6353
backed	-11.6354
shirt	-11.6356
▁Details	-11.6357
rod	-11.6357
▁pod	-11.6358
▁operators	-11.6359
was	-11.6359
hou	-11.6359
▁Coach	-11.6361
irii	-11.6361
▁ordinary	-11.6362
Institut	-11.6362
▁Flash	-11.6363
0-	-11.6365
▁flavour	-11.6368
specific	-11.6369
▁landing	-11.6369
▁geo	-11.6369
▁legend	-11.637
vari	-11.637
rop	-11.6371
▁Excel	-11.6371
▁Flu	-11.6372
▁intent	-11.6376
▁Deep	-11.6376
▁Kor	-11.6376
▁Philadelphia	-11.6379
▁rând	-11.638
▁USD	-11.638
laden	-11.638
▁Hin	-11.638
hap	-11.6382
▁thorough	-11.6382
▁oferit	-11.6383
kind	-11.6383
▁Cancer	-11.6384
apo	-11.6386
▁valve	-11.6387
▁encouraging	-11.6388
▁sûr	-11.6389
shing	-11.639
▁49	-11.6391
gov	-11.6391
▁Five	-11.6393
▁stroke	-11.6393
▁apă	-11.6394
▁gambling	-11.6395
▁nord	-11.6396
onal	-11.6397
▁captured	-11.6398
▁lucruri	-11.6401
serait	-11.6402
▁Members	-11.6403
ital	-11.6403
▁mounted	-11.6405
▁opens	-11.6408
▁Marie	-11.6409
Tech	-11.6409
▁wishes	-11.641
▁regards	-11.6411
going	-11.6412
Opti	-11.6413
▁femei	-11.6413
▁Fish	-11.6414
▁mount	-11.6418
▁Hunt	-11.6419
▁probabil	-11.6421
▁assured	-11.6422
pho	-11.6422
▁manufactured	-11.6423
▁realistic	-11.6424
ații	-11.6426
▁Planning	-11.6426
▁român	-11.6426
ggy	-11.6427
▁produces	-11.6427
▁reminder	-11.6428
TION	-11.6429
▁brake	-11.6429
▁pla	-11.6432
▁Premium	-11.6433
▁carb	-11.6433
▁shine	-11.6434
▁carrier	-11.6435
▁poverty	-11.6435
▁effectiveness	-11.6436
administr	-11.6437
▁Chamber	-11.6437
▁suntem	-11.6438
▁noastră	-11.6439
▁sofort	-11.6439
▁moisture	-11.6441
limb	-11.6441
entre	-11.6443
▁SD	-11.6443
▁BC	-11.6445
▁selecting	-11.6446
achieving	-11.6447
info	-11.6447
▁membres	-11.645
▁shoe	-11.645
▁locate	-11.6451
▁assignment	-11.6451
lern	-11.6453
▁defeat	-11.6454
▁endless	-11.6455
▁Stunden	-11.6455
то	-11.6456
▁mur	-11.6456
▁wissen	-11.6458
aime	-11.6459
1-2	-11.6461
▁femme	-11.6462
robe	-11.6465
▁embrace	-11.6465
▁baseball	-11.6466
▁hunting	-11.6466
betrieb	-11.6468
▁gardens	-11.647
▁risc	-11.6471
▁Cri	-11.6473
best	-11.6475
▁Audio	-11.6476
▁intens	-11.6477
▁Round	-11.6477
▁fireplace	-11.6478
▁dozen	-11.6479
▁hospitals	-11.648
▁profits	-11.6481
▁Mail	-11.6481
obtenir	-11.6482
▁Ross	-11.6482
bun	-11.6486
polar	-11.6487
▁reflection	-11.6489
▁fut	-11.649
phon	-11.649
deck	-11.6491
renowned	-11.6492
▁cate	-11.6493
▁decorative	-11.6495
ieri	-11.6496
▁Tap	-11.6496
▁Dallas	-11.6496
rik	-11.6497
▁pied	-11.6497
rés	-11.6498
ppy	-11.6501
▁bitte	-11.6502
▁cave	-11.6503
▁rescue	-11.6506
▁Hilfe	-11.6507
▁Jason	-11.6508
▁Nations	-11.6508
▁profil	-11.6509
▁Atlantic	-11.6511
▁rub	-11.6511
▁collaborative	-11.6511
étude	-11.6512
▁Workshop	-11.6514
nez	-11.6516
▁chacun	-11.6517
▁Too	-11.6521
App	-11.6523
▁conseil	-11.6524
▁signals	-11.6525
▁Dead	-11.6525
▁Austria	-11.6525
▁slots	-11.6526
▁Dies	-11.6526
raj	-11.6526
stick	-11.6528
▁jaw	-11.653
▁lounge	-11.6531
curi	-11.6534
nem	-11.6535
▁Cluj	-11.6535
▁rapide	-11.6536
▁companion	-11.6537
▁WE	-11.6539
▁bord	-11.6539
ody	-11.654
gru	-11.6541
▁46	-11.6544
kra	-11.6547
eller	-11.6548
naire	-11.6551
hose	-11.6553
▁Atlanta	-11.6553
▁violent	-11.6553
▁imagination	-11.6554
▁reward	-11.6554
▁Korean	-11.6554
▁branches	-11.6555
▁GPS	-11.6556
glo	-11.6556
▁condo	-11.6557
▁Investment	-11.6558
▁involvement	-11.6558
▁trap	-11.6558
▁schön	-11.6559
▁ofera	-11.6559
▁unterschiedlich	-11.656
Net	-11.656
▁predict	-11.6561
identifying	-11.6563
▁noir	-11.6566
kos	-11.6568
poz	-11.6568
▁11,	-11.657
▁fitted	-11.6574
MU	-11.6575
TT	-11.6576
▁vrea	-11.6578
▁wound	-11.6579
lac	-11.658
▁purchases	-11.6584
▁Cape	-11.6584
▁Foto	-11.6585
▁acres	-11.6587
▁nec	-11.6587
▁burning	-11.6591
conf	-11.6595
▁browse	-11.6595
ural	-11.6598
▁Ah	-11.6598
▁stellt	-11.6599
▁ratings	-11.66
▁Bowl	-11.66
▁grav	-11.6603
titi	-11.6605
▁prêt	-11.6608
▁fallen	-11.6608
▁nombreuses	-11.6609
train	-11.661
ène	-11.661
Aceasta	-11.6611
▁drill	-11.6614
▁Exam	-11.6615
▁Furniture	-11.6617
eanu	-11.6619
étant	-11.6623
sville	-11.6624
▁swim	-11.6628
▁routes	-11.6628
INE	-11.6629
▁Por	-11.663
ither	-11.6632
▁optim	-11.6632
▁lua	-11.6633
▁myth	-11.6635
▁Bett	-11.6635
chim	-11.6636
▁cyber	-11.6636
▁engineer	-11.6638
▁exploration	-11.6639
arranged	-11.664
▁aged	-11.664
▁beau	-11.664
OUT	-11.664
▁Minnesota	-11.664
tress	-11.6644
▁Commercial	-11.6645
▁inspiring	-11.6646
▁Mare	-11.6647
apa	-11.6651
▁ignore	-11.6652
▁gros	-11.6652
▁measurement	-11.6653
ager	-11.6654
intele	-11.666
▁suspension	-11.6662
▁cultures	-11.6662
▁Wow	-11.6662
▁pushing	-11.6664
▁bands	-11.6664
nage	-11.6665
▁Math	-11.6665
comb	-11.6666
▁créer	-11.6666
▁Lewis	-11.6667
▁VI	-11.6668
emploi	-11.6668
▁elections	-11.6669
▁logic	-11.667
▁unlike	-11.6671
▁Matthew	-11.6674
▁pă	-11.6675
oxy	-11.6676
équipe	-11.6677
▁worden	-11.6681
dev	-11.6683
▁Massachusetts	-11.6687
▁Return	-11.6687
▁Friends	-11.6689
▁movements	-11.6689
chie	-11.669
rak	-11.669
▁Fit	-11.669
▁copil	-11.6691
iunii	-11.6692
▁intensive	-11.6692
▁rug	-11.6695
lichkeit	-11.6697
kov	-11.6697
▁pense	-11.6698
pop	-11.6698
▁closet	-11.6699
▁prevention	-11.6699
▁Deb	-11.6703
▁devant	-11.6704
▁construit	-11.6704
▁breaks	-11.6708
otic	-11.6709
▁dig	-11.6709
▁près	-11.6709
chte	-11.671
▁Chat	-11.671
wel	-11.6712
▁edges	-11.6713
▁keen	-11.6714
▁infant	-11.6717
▁Hills	-11.6719
▁grounds	-11.672
▁hab	-11.672
▁Mun	-11.6722
▁references	-11.6722
▁hearts	-11.6724
exprim	-11.6725
▁tratament	-11.6726
LD	-11.6726
ssel	-11.6728
cover	-11.6728
bridge	-11.6728
▁Wein	-11.6729
▁voiture	-11.673
▁Gemeinde	-11.6731
AI	-11.6732
▁renovation	-11.6733
bid	-11.6733
▁Reading	-11.6735
▁Gor	-11.6735
fur	-11.6735
▁Yoga	-11.6735
▁exclusively	-11.6736
▁emissions	-11.6739
ète	-11.6739
▁glasses	-11.6741
▁organizat	-11.6741
▁washing	-11.6742
▁Audi	-11.6742
▁Labor	-11.6743
▁legacy	-11.6744
▁abstract	-11.6745
▁knowledgeable	-11.6746
▁Glo	-11.6748
▁pregnant	-11.6748
liter	-11.6749
▁paintings	-11.6752
▁tête	-11.6752
voy	-11.6756
▁Jacob	-11.6757
▁dressing	-11.6757
▁provisions	-11.6758
bahn	-11.6759
▁depict	-11.6759
AW	-11.6761
▁bleibt	-11.6762
AND	-11.6763
▁fünf	-11.6764
▁hosts	-11.6764
vas	-11.6767
DO	-11.6767
▁max	-11.6768
▁contributed	-11.6768
roz	-11.6768
▁deschis	-11.6768
itaire	-11.6768
tube	-11.677
▁Beck	-11.677
▁curious	-11.6771
▁waves	-11.6772
▁regret	-11.6772
FO	-11.6773
droit	-11.6773
rö	-11.6776
▁Panel	-11.6776
▁pile	-11.6777
▁installing	-11.6777
▁Intr	-11.6778
nung	-11.6778
▁Outdoor	-11.6779
▁generator	-11.6779
▁zahlreiche	-11.6779
▁Third	-11.6781
frac	-11.6782
ovi	-11.6782
▁Casa	-11.6784
▁stomach	-11.6784
▁Lincoln	-11.6784
▁Electronic	-11.6786
coding	-11.679
2017	-11.679
▁friendship	-11.6792
ried	-11.6793
но	-11.6793
▁tail	-11.6793
▁petits	-11.6793
▁réseau	-11.6797
▁churches	-11.68
▁marketplace	-11.6801
▁Pool	-11.6803
▁popularity	-11.6805
▁sprijin	-11.6805
▁Od	-11.6805
▁Transfer	-11.6806
▁fake	-11.6808
▁9,	-11.681
▁weit	-11.6813
▁relaxed	-11.6814
pig	-11.6816
▁Lauren	-11.6817
gesetzt	-11.6817
▁Clar	-11.6817
▁unlikely	-11.6817
color	-11.6818
▁spouse	-11.6818
▁facile	-11.6819
▁Speed	-11.6819
KE	-11.6822
▁PO	-11.6823
▁Channel	-11.6823
argent	-11.6824
▁Making	-11.6824
▁Coll	-11.6826
cci	-11.6827
corresponding	-11.683
▁heaven	-11.6832
ţă	-11.6832
▁darüber	-11.6832
acted	-11.6834
only	-11.6835
▁slight	-11.6835
lian	-11.6835
flă	-11.6835
▁vulnerable	-11.6835
▁creator	-11.6836
▁protecting	-11.6836
writing	-11.6836
▁Ter	-11.6839
▁barb	-11.684
▁dată	-11.684
▁Screen	-11.6841
▁BBC	-11.6841
Col	-11.6842
fung	-11.6845
▁dreptul	-11.6845
derived	-11.6845
▁designated	-11.6846
▁interactions	-11.6846
SG	-11.6846
▁häufig	-11.6846
▁Mega	-11.6846
▁jazz	-11.6847
lbs	-11.6848
▁Manual	-11.6848
pushed	-11.685
▁analytics	-11.6852
▁lawsuit	-11.6853
▁gray	-11.6854
shirts	-11.6854
▁hill	-11.6855
▁1991	-11.6855
▁obligations	-11.6856
▁Dubai	-11.6858
()	-11.6858
▁acceptable	-11.6858
therapist	-11.6859
inger	-11.6861
▁territory	-11.6862
▁sang	-11.6862
ät	-11.6862
▁Zukunft	-11.6862
TU	-11.6866
▁horizontal	-11.6867
▁entrepreneurs	-11.6867
▁Eltern	-11.687
▁presentations	-11.6871
▁confirmation	-11.6872
▁technological	-11.6874
▁1989	-11.6875
EF	-11.6876
ponent	-11.6877
NET	-11.6877
750	-11.6878
▁desert	-11.6879
▁contribu	-11.6879
▁Gun	-11.6879
▁Juli	-11.6881
ERS	-11.6883
▁inceput	-11.6883
▁answered	-11.6884
▁basement	-11.6884
film	-11.6884
▁taille	-11.6886
▁survival	-11.6887
ihnen	-11.6887
▁Bird	-11.6888
speed	-11.6893
▁journalist	-11.6894
▁Indonesia	-11.6896
▁15.	-11.69
▁19.	-11.69
étaient	-11.6901
▁tennis	-11.6902
▁aproximativ	-11.6904
▁Hans	-11.6907
▁Remove	-11.6907
▁cats	-11.691
▁calories	-11.6911
▁limitations	-11.6912
▁subscribe	-11.6912
▁Dem	-11.6913
lust	-11.6914
▁adresa	-11.6914
▁sais	-11.6914
..."	-11.6915
▁Luft	-11.6915
DL	-11.6916
▁estimates	-11.6916
▁protocol	-11.6916
▁Namen	-11.6918
▁grands	-11.6919
▁voter	-11.692
▁vacuum	-11.6921
▁versch	-11.6921
▁Democratic	-11.6921
▁Books	-11.6922
▁frames	-11.6927
▁Bee	-11.6929
▁helfen	-11.6929
▁dive	-11.693
▁physician	-11.693
▁powered	-11.6931
▁zones	-11.6933
▁regime	-11.6935
check	-11.6936
11.	-11.6938
▁plaisir	-11.6938
▁physically	-11.6938
▁Pul	-11.6942
▁jardin	-11.6943
▁Nur	-11.6944
WC	-11.6944
▁Lock	-11.6945
▁économique	-11.6945
user	-11.6945
▁commit	-11.6947
▁oldest	-11.6948
▁fulfill	-11.6948
▁nervous	-11.6948
▁SH	-11.695
SK	-11.6952
▁plein	-11.6953
show	-11.6954
▁disability	-11.6954
papier	-11.6954
▁Corp	-11.6956
ători	-11.6957
nţă	-11.6958
▁overseas	-11.696
▁struck	-11.696
astic	-11.6961
▁advised	-11.6961
BE	-11.6962
▁UV	-11.6962
patient	-11.6963
▁texte	-11.6963
▁timely	-11.6964
used	-11.6965
▁occasionally	-11.6965
▁entries	-11.6966
underlying	-11.6967
01.	-11.6967
▁automated	-11.6968
yes	-11.6968
▁Staff	-11.6971
▁Einzel	-11.6975
quit	-11.6977
▁Cela	-11.698
▁snap	-11.6983
▁followers	-11.6983
CN	-11.6987
▁Cooper	-11.6989
ô	-11.6989
▁memorable	-11.699
▁jur	-11.699
▁ajutorul	-11.6991
▁Enter	-11.6992
Often	-11.6993
▁dintr	-11.6993
-30	-11.6994
ESS	-11.6995
▁weird	-11.6995
▁Animal	-11.6997
▁complement	-11.6997
▁Bot	-11.6998
▁darf	-11.6998
yed	-11.6998
▁Mul	-11.6999
lick	-11.7001
▁Cambridge	-11.7002
adore	-11.7004
▁Dutch	-11.7004
▁Castle	-11.7004
igi	-11.7006
▁enemy	-11.7007
accompanied	-11.7007
▁teren	-11.7011
▁ET	-11.7015
ffle	-11.7016
-15	-11.7017
▁Geo	-11.7017
▁attractions	-11.7017
iker	-11.7019
▁bă	-11.702
▁heal	-11.702
weisen	-11.7021
▁spectrum	-11.7022
meld	-11.7024
▁eveniment	-11.7025
arra	-11.7025
rete	-11.7025
▁Had	-11.7025
looking	-11.7027
isierung	-11.7028
▁moyen	-11.7031
▁gesamte	-11.7032
▁destroy	-11.7034
125	-11.7035
▁suivant	-11.7039
▁declared	-11.7039
▁Urban	-11.7041
▁16.	-11.7042
▁Beg	-11.7042
▁canal	-11.7042
▁Pres	-11.7043
▁geeignet	-11.7043
▁strat	-11.7044
UB	-11.7044
▁Alexander	-11.7044
cycle	-11.7047
▁Var	-11.7048
▁domin	-11.7048
▁lasting	-11.7049
terio	-11.7053
▁Battle	-11.7053
▁publications	-11.7056
▁implica	-11.7059
▁NA	-11.706
▁stocks	-11.706
Plat	-11.7061
▁excitement	-11.7061
▁Muslim	-11.7065
▁Mari	-11.7065
▁Ul	-11.7066
nächst	-11.7068
▁trait	-11.7068
▁(3)	-11.7069
▁Attorney	-11.7069
▁Malaysia	-11.7069
▁slab	-11.707
▁dam	-11.7071
▁Bir	-11.7072
▁sing	-11.7074
▁Culture	-11.7074
UD	-11.7074
▁Mes	-11.7074
ități	-11.7076
▁possess	-11.7082
enabling	-11.7082
▁settled	-11.7083
▁sagen	-11.7085
▁erfolgt	-11.7086
dog	-11.7086
ndu	-11.7087
ității	-11.7087
▁Islam	-11.7089
▁catalog	-11.7089
▁simt	-11.7091
tische	-11.7092
▁Mach	-11.7093
▁EP	-11.7094
▁Certified	-11.7094
▁Resources	-11.7095
▁Past	-11.7096
▁Termin	-11.7098
▁lightweight	-11.7098
▁championship	-11.7099
gebiet	-11.7101
▁jurisdiction	-11.7101
▁euros	-11.7102
▁Familien	-11.7106
▁GT	-11.7107
▁dvs	-11.7108
▁nouveaux	-11.7108
▁chill	-11.7109
▁ridicat	-11.7109
his	-11.7111
▁Indi	-11.7112
▁arrested	-11.7112
ităţii	-11.7112
onul	-11.7113
appar	-11.7113
▁Bachelor	-11.7113
▁erfolgreich	-11.7114
▁versatile	-11.7116
▁nécessaire	-11.7118
▁facial	-11.7122
▁Bull	-11.7122
Comm	-11.7122
atte	-11.7123
hom	-11.7123
start	-11.7126
▁roughly	-11.7129
▁bay	-11.713
▁american	-11.713
▁Wisconsin	-11.7131
▁Clinton	-11.7131
appareil	-11.7132
▁liberal	-11.7135
▁dau	-11.7135
ech	-11.7135
2014	-11.7136
▁lip	-11.7136
▁maintenant	-11.7138
▁Sil	-11.7138
rben	-11.7139
▁contents	-11.714
▁magnetic	-11.7141
▁terre	-11.7142
▁Rights	-11.7145
lose	-11.7146
▁crown	-11.7147
▁oils	-11.7147
▁entertaining	-11.7148
▁Option	-11.7148
▁Previous	-11.7149
▁vrai	-11.7149
▁Auswahl	-11.7151
▁horses	-11.7151
▁Author	-11.7153
▁Writing	-11.7155
▁travelling	-11.7155
▁350	-11.7156
daten	-11.7156
zan	-11.7158
▁sweat	-11.7159
▁Junior	-11.716
markt	-11.7161
after	-11.7161
▁admitted	-11.7163
▁1950	-11.7163
▁Sche	-11.7165
▁dorit	-11.7168
▁transferred	-11.717
utilise	-11.7172
sitz	-11.7173
gio	-11.7173
▁bisher	-11.7175
RD	-11.7175
▁Wales	-11.7177
▁smoking	-11.7179
dire	-11.7179
▁seating	-11.718
▁constat	-11.7181
▁Hub	-11.7183
▁sieht	-11.7183
▁prospect	-11.7184
▁RO	-11.7184
▁Wars	-11.7184
eek	-11.7185
▁Bring	-11.7186
▁bleiben	-11.7187
arri	-11.7188
inal	-11.7189
▁Maryland	-11.7189
▁Process	-11.7191
They	-11.7192
▁Oxford	-11.7192
▁neat	-11.7193
▁cinema	-11.7196
▁Ist	-11.7196
▁vegan	-11.7197
wall	-11.7197
▁motive	-11.7201
▁mature	-11.7205
▁Dragon	-11.7207
▁google	-11.7207
blick	-11.7211
▁Cod	-11.7212
▁suffi	-11.7213
▁terrorist	-11.7215
Posted	-11.7215
▁Schi	-11.7216
▁Marc	-11.7216
▁operates	-11.7217
gress	-11.7218
has	-11.7219
sole	-11.7221
▁Buck	-11.7221
impl	-11.7222
▁Ron	-11.7222
▁handled	-11.7223
▁Apr	-11.7223
▁Storage	-11.7225
▁temp	-11.7225
▁differently	-11.7226
▁wherever	-11.7227
matched	-11.7227
rios	-11.7228
▁surprising	-11.7228
teilen	-11.7229
▁difficulties	-11.7229
tab	-11.7231
▁Leader	-11.7231
implementing	-11.7234
▁workforce	-11.7234
▁bereit	-11.7235
vig	-11.7235
▁LOVE	-11.7236
▁instances	-11.724
▁frumos	-11.724
▁Java	-11.724
▁arrest	-11.724
▁apparent	-11.7242
▁hence	-11.7242
▁entwickelt	-11.7244
▁Fra	-11.7245
▁prend	-11.7245
ließ	-11.7245
▁drawer	-11.7247
ARD	-11.7249
▁caring	-11.725
▁wollte	-11.725
▁vielleicht	-11.7251
▁iconic	-11.7253
äch	-11.7255
abel	-11.7256
▁génér	-11.7257
ault	-11.7257
▁alternatives	-11.7259
think	-11.726
ро	-11.7261
whereas	-11.7261
erei	-11.7264
▁Eagle	-11.7268
situé	-11.727
▁laboratory	-11.7272
▁Nutzung	-11.7273
▁Bathroom	-11.7273
▁loaded	-11.7273
niste	-11.7274
som	-11.7274
▁aucun	-11.7277
gebracht	-11.7277
▁tomb	-11.7278
▁Ty	-11.7278
▁afaceri	-11.728
tex	-11.728
ality	-11.7281
▁identification	-11.7282
▁cultiv	-11.7283
Not	-11.7283
▁acestor	-11.7285
▁PhD	-11.7285
nell	-11.7285
▁dial	-11.7286
chro	-11.7287
▁specifications	-11.7287
anii	-11.7288
▁cloth	-11.7288
▁highway	-11.7289
▁Vitamin	-11.7291
▁indication	-11.7293
80%	-11.7296
▁Lion	-11.7297
▁10,	-11.7297
▁Werk	-11.7297
▁combin	-11.7298
▁releases	-11.7299
LL	-11.73
ktor	-11.7302
ufgrund	-11.7302
calc	-11.7303
▁accomplished	-11.7306
▁los	-11.7306
▁distant	-11.7307
▁secteur	-11.7307
logue	-11.7308
▁betting	-11.7308
elf	-11.7312
puteti	-11.7312
▁Moment	-11.7312
▁scoring	-11.7315
▁freuen	-11.7316
▁fastest	-11.7319
▁directors	-11.7321
▁fame	-11.7322
▁complaint	-11.7322
▁Ep	-11.7323
▁delicate	-11.7323
annonce	-11.7324
ext	-11.7325
▁quit	-11.7325
▁Cop	-11.7325
prop	-11.7326
365	-11.7327
▁Say	-11.7329
▁internationale	-11.7331
cott	-11.7332
▁Whatever	-11.7333
▁admir	-11.7333
▁bucur	-11.7335
▁entity	-11.7338
▁dancing	-11.7338
▁printre	-11.7339
▁meditation	-11.7344
▁avis	-11.7344
▁1988	-11.7345
10.	-11.7345
▁worker	-11.7346
▁$100	-11.7348
▁contrôle	-11.735
▁insist	-11.735
ements	-11.7351
izate	-11.7352
▁tied	-11.7353
▁correspond	-11.7354
▁apartments	-11.7355
▁2009.	-11.7356
▁tiles	-11.7356
▁boots	-11.7356
▁laundry	-11.7357
▁Coffee	-11.7357
▁CV	-11.7357
▁composed	-11.736
atom	-11.7362
▁shore	-11.7363
▁marijuana	-11.7363
plic	-11.7365
▁Zahl	-11.7366
depth	-11.7368
▁Egypt	-11.7369
▁NFL	-11.7369
▁12,	-11.7369
▁pollution	-11.737
▁Vergleich	-11.737
û	-11.7371
▁nurse	-11.7372
▁Susan	-11.7372
▁verify	-11.7374
▁kon	-11.7375
▁ulei	-11.7376
▁Sept	-11.7377
▁Location	-11.7379
▁frozen	-11.738
good	-11.738
▁cine	-11.7381
forming	-11.7382
▁Near	-11.7384
▁Tab	-11.7385
▁Alexandr	-11.7386
ст	-11.7386
CK	-11.7387
▁loads	-11.7389
▁disorders	-11.739
hip	-11.7396
▁blessing	-11.7399
▁vechi	-11.74
▁Bookmark	-11.7403
SON	-11.7404
books	-11.7404
▁tropical	-11.7404
▁Garten	-11.7404
ôt	-11.7408
tures	-11.7408
▁obligation	-11.741
▁admin	-11.741
▁sélection	-11.7411
disp	-11.7412
▁Anyone	-11.7412
keeper	-11.7414
▁konnten	-11.7415
▁existe	-11.7416
▁Rund	-11.7418
▁retailers	-11.7418
folg	-11.7419
▁urmare	-11.742
▁Liebe	-11.7423
▁actors	-11.7424
▁Druck	-11.7426
lien	-11.7428
sian	-11.7428
▁partid	-11.743
▁loin	-11.7431
AZ	-11.7431
oasă	-11.7435
▁inclusiv	-11.7437
TD	-11.7437
▁anului	-11.7438
poc	-11.7438
▁musique	-11.744
▁Hart	-11.744
Sh	-11.7443
html	-11.7443
▁serial	-11.7443
țele	-11.7444
inning	-11.7445
▁Bureau	-11.7446
▁rush	-11.7446
▁deosebit	-11.7446
▁Wort	-11.7446
▁Thailand	-11.7447
▁Language	-11.7452
▁Governor	-11.7452
▁Later	-11.7453
rilor	-11.7453
▁activités	-11.7454
schaffen	-11.7456
▁harvest	-11.7457
▁municipal	-11.7458
einander	-11.746
▁fingers	-11.7464
▁sculpture	-11.7464
▁Bien	-11.7464
▁departments	-11.7466
▁période	-11.7467
▁jeune	-11.747
▁governments	-11.7471
uter	-11.7472
Aceste	-11.7472
▁Deal	-11.7472
▁Equipment	-11.7473
nous	-11.7473
▁gate	-11.7473
▁meta	-11.7474
▁stiu	-11.7475
fold	-11.7475
▁seule	-11.7475
▁varied	-11.7475
hit	-11.7476
▁DIY	-11.7477
▁lemn	-11.7477
OB	-11.7479
▁colorful	-11.7481
▁câ	-11.7483
▁semester	-11.7483
▁dealer	-11.7486
nett	-11.7488
▁shortly	-11.7489
▁Driver	-11.749
culture	-11.7491
▁permitted	-11.7491
▁sorts	-11.7494
▁crop	-11.75
▁valoare	-11.7505
▁analog	-11.7506
▁excuse	-11.7506
▁modèle	-11.7507
When	-11.7507
▁march	-11.7507
haz	-11.751
▁minimize	-11.751
traction	-11.751
▁caracter	-11.7524
▁modules	-11.7524
clu	-11.7524
ţional	-11.7525
▁breach	-11.7526
▁priced	-11.7526
▁attorneys	-11.7526
▁implant	-11.7526
▁ANY	-11.7527
dition	-11.7527
▁trials	-11.7528
▁Nas	-11.7529
Pre	-11.753
lorsque	-11.753
plin	-11.7531
Er	-11.7531
▁Dom	-11.7531
▁tire	-11.7532
sili	-11.7532
▁coins	-11.7534
▁rend	-11.7535
▁reliability	-11.7535
▁Analysis	-11.7535
▁trails	-11.7537
trägt	-11.7538
▁Kansas	-11.7539
▁responsive	-11.7539
▁disappear	-11.754
▁stakeholders	-11.754
▁aplica	-11.7542
▁imi	-11.7542
▁Laura	-11.7544
▁Terms	-11.7544
450	-11.7545
▁voltage	-11.7545
▁Gel	-11.7545
▁qualities	-11.7545
▁qualifi	-11.7546
▁Mé	-11.7547
bereit	-11.7548
gleich	-11.7549
▁voting	-11.755
▁trademark	-11.7551
▁2.5	-11.7552
ND	-11.7554
▁Kelly	-11.7555
▁weiteren	-11.7556
▁filters	-11.7556
▁coût	-11.7556
jur	-11.7558
acre	-11.7558
▁retired	-11.756
▁Engine	-11.7562
▁président	-11.7563
ajul	-11.7563
▁GA	-11.7564
rät	-11.7567
▁instructor	-11.7567
▁Allen	-11.7567
▁Delhi	-11.7568
▁cure	-11.7568
seite	-11.7569
coming	-11.7569
▁mixing	-11.757
▁Kno	-11.757
▁Sure	-11.7571
▁hired	-11.7571
▁participated	-11.7572
Count	-11.7573
treffen	-11.7574
▁54	-11.7574
▁rings	-11.7574
▁Thor	-11.7574
éro	-11.7574
▁buttons	-11.7575
▁47	-11.7575
▁Tel	-11.7577
▁suport	-11.7578
▁rhythm	-11.7578
▁Theater	-11.7581
▁informatii	-11.7581
hält	-11.7582
▁ouvert	-11.7582
fewer	-11.7583
▁alumni	-11.7585
▁valley	-11.7585
tial	-11.7586
***	-11.7588
kri	-11.7591
▁accidents	-11.7591
▁barrel	-11.7592
mobil	-11.7593
etti	-11.7594
▁immigration	-11.7595
▁poveste	-11.7595
hren	-11.7597
hydr	-11.7597
▁tweet	-11.7597
▁zip	-11.7599
▁Bonus	-11.7602
ordnung	-11.7603
liber	-11.7605
▁Navy	-11.7606
▁agreements	-11.7606
▁detection	-11.7607
DF	-11.7608
hur	-11.7608
0.00	-11.7608
▁07	-11.7609
etta	-11.7609
▁13,	-11.7609
rolled	-11.761
▁injection	-11.761
mig	-11.761
wach	-11.7611
▁choisir	-11.7615
▁professionnels	-11.7616
▁Tower	-11.7617
▁neighbor	-11.7617
deutschen	-11.7619
▁luxurious	-11.762
▁walks	-11.762
reti	-11.762
▁Pad	-11.7621
wise	-11.7623
▁exhaust	-11.7623
▁demonstration	-11.7626
▁agricultural	-11.7627
Upon	-11.7629
▁Blu	-11.7629
atorul	-11.763
amour	-11.763
issant	-11.763
▁delighted	-11.763
rita	-11.7631
requiring	-11.7632
ivity	-11.7632
▁Unser	-11.7633
FP	-11.7634
fait	-11.7635
dite	-11.7636
kul	-11.7637
arth	-11.7638
▁Ker	-11.7638
torilor	-11.7638
stage	-11.7639
▁HTML	-11.764
▁Wheel	-11.764
▁quelque	-11.7641
▁Ou	-11.7642
▁considerable	-11.7643
▁Sco	-11.7646
▁donations	-11.7648
dessen	-11.765
▁pourquoi	-11.765
▁Bow	-11.7652
▁Dupa	-11.7652
ska	-11.7657
hot	-11.7657
▁drove	-11.7658
▁oppos	-11.766
▁hiking	-11.766
▁Boot	-11.7661
One	-11.7661
▁guvern	-11.7661
▁15,	-11.7664
scheid	-11.7664
▁Miet	-11.7665
▁Technical	-11.7668
▁Dal	-11.7669
▁Metro	-11.767
▁Baker	-11.7672
▁trece	-11.7673
tained	-11.7673
block	-11.7674
▁wander	-11.7674
▁penalty	-11.7674
▁shipped	-11.7675
▁30%	-11.7675
group	-11.7675
▁brothers	-11.7677
▁comanda	-11.7678
▁retreat	-11.7678
▁Movie	-11.7678
PU	-11.7679
▁Jun	-11.7679
▁$6	-11.768
▁Fal	-11.7681
▁Palestinian	-11.7681
▁soccer	-11.7682
▁Autor	-11.7683
▁chamber	-11.7683
nement	-11.7685
▁offense	-11.7686
▁gig	-11.7686
▁abandon	-11.7687
▁Kraft	-11.7688
▁Medicare	-11.7688
▁soap	-11.7688
▁Fur	-11.769
▁conditioning	-11.7691
rained	-11.7691
▁puts	-11.7691
▁cod	-11.7693
lassen	-11.7694
FL	-11.7696
▁komplett	-11.7697
▁entscheiden	-11.7697
▁Hour	-11.7697
?!	-11.77
Stream	-11.7701
▁Grad	-11.7702
▁gently	-11.7702
▁poetry	-11.7704
▁secured	-11.7704
oph	-11.7705
hop	-11.7706
handel	-11.7706
▁besoins	-11.7707
got	-11.7708
▁Chrome	-11.7709
ILL	-11.7709
▁Schritt	-11.771
▁spell	-11.7711
▁grinding	-11.7713
▁ramp	-11.7714
▁mama	-11.7716
▁bottles	-11.7718
▁canvas	-11.7719
▁ecosystem	-11.7719
aţii	-11.772
cellular	-11.7721
▁Spin	-11.7722
▁Discover	-11.7722
-17	-11.7723
▁feeding	-11.7725
▁stops	-11.7725
▁haute	-11.7726
▁Entscheidung	-11.7726
▁semble	-11.7726
▁acele	-11.7729
▁Walk	-11.7732
▁joke	-11.7732
▁Fed	-11.7733
climat	-11.7733
▁Lot	-11.7735
runner	-11.7736
▁flip	-11.7738
▁werde	-11.7738
▁Deck	-11.7742
bala	-11.7743
▁sacrifice	-11.7744
cid	-11.7744
him	-11.7746
zahlen	-11.7746
▁heater	-11.7746
formed	-11.7746
plus	-11.7747
▁util	-11.7747
rama	-11.775
(4)	-11.775
▁knife	-11.7751
▁traditions	-11.7752
▁dip	-11.7754
kill	-11.7754
▁Rich	-11.7754
▁DI	-11.7756
▁containers	-11.7757
▁locuri	-11.7757
▁continent	-11.7758
teilung	-11.776
▁vreme	-11.776
organisation	-11.7761
serie	-11.7761
▁Diamond	-11.7762
magazin	-11.7763
▁poster	-11.7765
▁passenger	-11.7765
▁soldiers	-11.7766
▁urgent	-11.7766
▁Lip	-11.7768
▁aşa	-11.777
▁BO	-11.777
▁somebody	-11.7771
▁silence	-11.7771
cop	-11.7774
▁Burn	-11.7775
▁stopping	-11.7775
▁essence	-11.7776
▁hitting	-11.7778
▁producers	-11.7778
▁fibre	-11.7779
▁seasonal	-11.778
▁tara	-11.7781
▁Jose	-11.7781
▁Better	-11.7783
▁steep	-11.7783
Alors	-11.7784
▁collecting	-11.7785
vre	-11.7786
▁disabled	-11.7786
▁voters	-11.7787
consuming	-11.7791
deemed	-11.7791
éra	-11.7792
opération	-11.7793
▁roller	-11.7793
Rather	-11.7793
▁leider	-11.7794
▁IV	-11.7794
▁erreichen	-11.7795
▁charging	-11.7797
tions	-11.7797
tiques	-11.7799
▁formats	-11.7799
▁painful	-11.78
▁eager	-11.7801
generation	-11.7801
anna	-11.7802
▁races	-11.7803
force	-11.7804
▁ferm	-11.7805
▁breathing	-11.7806
▁offen	-11.7806
▁minds	-11.7808
▁musste	-11.7808
▁Vision	-11.7809
▁Installation	-11.781
▁hesitate	-11.781
▁somit	-11.781
hôtel	-11.781
cab	-11.7812
-16	-11.7813
▁Visual	-11.7814
intérêt	-11.7815
▁apel	-11.7818
therapy	-11.7821
volt	-11.7823
▁Rou	-11.7824
▁efficace	-11.7825
▁architectural	-11.7826
▁privilege	-11.7827
▁treating	-11.7827
▁Tam	-11.7827
tsch	-11.7827
building	-11.7828
▁associations	-11.7829
▁Consumer	-11.7834
▁Lim	-11.7835
newest	-11.7835
▁față	-11.7837
▁ships	-11.7837
lev	-11.7837
raft	-11.7838
▁variations	-11.7838
▁noua	-11.7839
▁Cab	-11.7841
1.2	-11.7841
▁ocazi	-11.7843
▁recommendation	-11.7844
titled	-11.7845
▁invoice	-11.7846
▁noastra	-11.7846
kur	-11.7847
issent	-11.7848
base	-11.7848
hä	-11.7848
888	-11.7849
▁declar	-11.7849
▁Football	-11.785
▁Indeed	-11.7853
▁weapon	-11.7853
▁destroyed	-11.7855
▁enormous	-11.7856
▁blanket	-11.7857
▁aktiv	-11.7858
raw	-11.7858
▁computing	-11.7858
6)	-11.786
▁Dam	-11.7862
▁confort	-11.7862
▁Gla	-11.7862
hardly	-11.7862
▁annually	-11.7863
▁destinations	-11.7864
▁guilty	-11.7864
▁scholarship	-11.7864
▁harmful	-11.7865
▁2-3	-11.7866
▁Race	-11.7866
▁hypo	-11.7867
▁shorter	-11.7867
quest	-11.7868
uze	-11.7868
izi	-11.787
OO	-11.7871
▁Schutz	-11.7871
▁Teilnehmer	-11.7872
▁profiles	-11.7872
▁sustainability	-11.7875
▁emb	-11.7875
▁Augen	-11.7875
▁outdoors	-11.7875
▁Individual	-11.7875
▁pou	-11.7876
▁Together	-11.7876
HT	-11.7877
suited	-11.7878
▁tro	-11.7878
▁Strom	-11.7878
▁achievement	-11.788
▁Range	-11.7882
tory	-11.7882
▁distribute	-11.7883
▁letzte	-11.7883
incorporated	-11.7883
▁Kir	-11.7883
ruf	-11.7884
▁disappointed	-11.7885
▁referral	-11.7886
flam	-11.7887
▁excessive	-11.7887
▁rapidement	-11.7887
▁Rio	-11.7888
aţia	-11.789
▁meuble	-11.7891
▁2008.	-11.7891
▁Gall	-11.7892
▁française	-11.7894
▁ladies	-11.7897
ailed	-11.7897
El	-11.7898
▁wines	-11.7899
▁beispielsweise	-11.7899
▁gamme	-11.7902
▁guided	-11.7903
▁plin	-11.7903
Î	-11.7904
▁True	-11.7905
▁Temple	-11.7905
▁Pic	-11.7905
permalink	-11.7905
▁vedea	-11.7907
▁rank	-11.7909
▁Grill	-11.791
clin	-11.7911
▁Hab	-11.7911
▁odds	-11.7911
▁anytime	-11.7911
▁Thanksgiving	-11.7913
guard	-11.7913
▁essays	-11.7914
▁PE	-11.7914
▁Rechts	-11.7915
mals	-11.7918
achi	-11.7918
▁Anthony	-11.7918
▁réponse	-11.792
standing	-11.7923
▁Mol	-11.7924
▁Canon	-11.7925
▁silk	-11.7925
▁pourrait	-11.7928
▁raport	-11.7928
▁Woche	-11.7929
fallen	-11.7929
sting	-11.7931
▁circulation	-11.7931
▁skirt	-11.7932
▁Title	-11.7932
▁17.	-11.7933
▁Touch	-11.7935
▁utilizat	-11.7935
▁Organisation	-11.7936
▁mereu	-11.7938
▁oxygen	-11.794
lique	-11.794
▁consume	-11.7941
▁Barb	-11.7941
1.1	-11.7941
▁nicely	-11.7942
▁psychological	-11.7942
▁refrigerator	-11.7945
▁fantasy	-11.7948
▁dispute	-11.7949
▁IBM	-11.795
▁Nation	-11.795
▁mobil	-11.7951
▁density	-11.7952
ske	-11.7952
▁intimate	-11.7953
▁tailored	-11.7953
▁outline	-11.7955
TN	-11.7955
mur	-11.7956
GC	-11.7957
they	-11.796
pag	-11.7962
▁Kultur	-11.7962
grün	-11.7963
voted	-11.7965
▁donné	-11.7965
▁Să	-11.7966
enberg	-11.7966
▁wi	-11.7969
▁Francis	-11.7971
▁Rick	-11.7972
accord	-11.7974
▁Zusammen	-11.7974
▁nonprofit	-11.7975
▁listings	-11.7976
6,	-11.7979
▁maximize	-11.7983
bud	-11.7983
▁promotional	-11.7985
cina	-11.7986
▁potatoes	-11.7987
▁mot	-11.7989
carries	-11.7994
▁stabilit	-11.7995
▁Door	-11.7996
▁downloaded	-11.7996
▁experimental	-11.7997
HD	-11.7997
▁parfois	-11.7998
▁zeigen	-11.8001
▁proposé	-11.8003
▁Verein	-11.8006
▁amestec	-11.8007
▁entreprise	-11.8007
▁PSD	-11.8008
▁bake	-11.8009
▁Rh	-11.8009
▁Mehr	-11.8009
▁purple	-11.8011
▁recipient	-11.8011
rare	-11.8012
egi	-11.8012
ancien	-11.8012
▁risque	-11.8012
▁mystery	-11.8016
mac	-11.8017
ibility	-11.8018
▁Moore	-11.8019
▁flavors	-11.8019
▁trauma	-11.802
▁automotive	-11.8021
▁Anyway	-11.8022
▁simulation	-11.8023
▁crafts	-11.8025
▁measurements	-11.8026
▁cour	-11.8026
▁tard	-11.8026
nnie	-11.8029
▁Production	-11.8034
▁Cleaning	-11.8036
5,	-11.8036
▁Islamic	-11.8038
▁Gate	-11.8038
bay	-11.8038
HR	-11.804
▁Offer	-11.804
▁acceptance	-11.8041
▁Erfahrung	-11.8041
▁environ	-11.8042
▁fancy	-11.8042
▁bullet	-11.8044
organ	-11.8045
▁Peace	-11.8045
▁detalii	-11.8046
▁promised	-11.8047
▁wellness	-11.8047
▁satisfy	-11.8048
▁grants	-11.8052
accueil	-11.8052
▁oben	-11.8054
▁prospects	-11.8054
▁Events	-11.8055
2013	-11.8056
gesehen	-11.8057
▁£1	-11.8057
▁handelt	-11.8058
▁Spieler	-11.8059
▁Virtual	-11.8061
▁bubble	-11.8062
▁Trend	-11.8063
▁sistemul	-11.8063
▁Morgan	-11.8063
▁pole	-11.8065
▁spielen	-11.8065
tür	-11.8066
SCO	-11.8066
▁informative	-11.8067
▁affirm	-11.8068
▁Aqua	-11.8068
▁AR	-11.8069
richten	-11.8071
▁rewards	-11.8071
lub	-11.8072
shot	-11.8072
LM	-11.8075
Up	-11.8076
▁absolut	-11.8077
▁Mart	-11.8078
erweise	-11.8078
BP	-11.808
▁difficile	-11.8082
▁Document	-11.8082
▁Sweet	-11.8083
▁indicator	-11.8083
▁Boden	-11.8084
mates	-11.8085
▁supporters	-11.8085
▁begun	-11.8086
▁blogging	-11.8086
▁CL	-11.8087
gres	-11.8087
▁preferences	-11.8087
▁screw	-11.8088
▁tutor	-11.8089
▁Additional	-11.8089
▁Bitte	-11.809
utilizing	-11.809
▁expérience	-11.8091
▁dur	-11.8091
▁precisely	-11.8092
▁janvier	-11.8094
AGE	-11.8099
moto	-11.81
▁counsel	-11.8102
▁110	-11.8102
nick	-11.8102
licit	-11.8105
technik	-11.8107
▁collaborate	-11.8107
▁neighbors	-11.8108
tered	-11.8109
▁excel	-11.811
▁Route	-11.8111
steuer	-11.8111
▁pioneer	-11.8116
nuit	-11.8117
▁skip	-11.812
▁destruction	-11.812
▁thesis	-11.8122
▁libre	-11.8123
▁petition	-11.8123
▁steady	-11.8125
▁medications	-11.8125
▁audiences	-11.8126
▁coaches	-11.8127
aller	-11.8127
3,000	-11.8127
▁anger	-11.8128
▁striking	-11.8128
▁shades	-11.8129
▁Sitz	-11.813
▁gluten	-11.8132
▁egal	-11.8132
ania	-11.8132
▁defend	-11.8132
gut	-11.8138
▁reserves	-11.8139
▁advocate	-11.8141
▁Cit	-11.8141
▁technicians	-11.8141
▁cater	-11.8141
leitung	-11.8142
▁towns	-11.8143
▁Costa	-11.8144
▁confront	-11.8146
mount	-11.8147
▁nationale	-11.8147
▁adverse	-11.8149
▁couleur	-11.8151
▁delight	-11.8152
▁promises	-11.8152
▁silent	-11.8155
richtet	-11.8156
▁Companies	-11.8156
▁Charlotte	-11.8156
▁labels	-11.8157
▁Süd	-11.8157
▁Honor	-11.8157
▁complaints	-11.8157
▁siècle	-11.8158
▁suits	-11.8158
▁Bath	-11.8158
mise	-11.8159
▁acela	-11.816
▁candidat	-11.816
Flo	-11.8162
▁conservative	-11.8162
DD	-11.8163
▁changement	-11.8164
▁login	-11.8165
▁Fashion	-11.8166
reichen	-11.8167
through	-11.8168
aki	-11.8172
gna	-11.8175
▁verse	-11.8176
▁threats	-11.8176
▁Song	-11.8178
▁funded	-11.8179
langen	-11.818
▁distribu	-11.8182
édition	-11.8183
▁royal	-11.8186
▁bevor	-11.8188
▁02	-11.8189
straße	-11.8189
edit	-11.819
▁energetic	-11.8192
▁Carr	-11.8198
viol	-11.8199
▁niche	-11.8201
avais	-11.8201
▁backyard	-11.8201
▁Saudi	-11.8202
▁Zwei	-11.8202
▁Legal	-11.8203
accessed	-11.8203
▁choisi	-11.8203
▁GDP	-11.8203
oferă	-11.8204
hlen	-11.8205
▁Wor	-11.8205
▁cheer	-11.8206
▁barely	-11.8206
cost	-11.8206
▁Really	-11.8207
kol	-11.8207
▁binding	-11.821
euer	-11.8211
▁optimization	-11.8212
▁Designer	-11.8212
▁measuring	-11.8212
ncy	-11.8215
weise	-11.8215
DER	-11.8219
▁$7	-11.8219
▁Anfang	-11.822
material	-11.822
▁antique	-11.8223
▁Certificate	-11.8223
▁modest	-11.8224
ției	-11.8224
▁praise	-11.8225
▁Springs	-11.8227
▁organiza	-11.823
jurul	-11.823
▁plumbing	-11.8234
▁foster	-11.8235
▁Wy	-11.8235
▁Sab	-11.8235
▁overwhelming	-11.8237
▁matin	-11.8238
▁responded	-11.8241
▁confused	-11.8242
▁blessed	-11.8243
▁160	-11.8243
▁ingredient	-11.8244
▁confer	-11.8245
▁Gesundheit	-11.8245
▁bucket	-11.8246
kraft	-11.8246
lange	-11.8246
▁Kopf	-11.8247
▁Prize	-11.8247
▁authorized	-11.8248
▁tick	-11.8248
▁steal	-11.8249
Depending	-11.8249
Depuis	-11.825
▁functie	-11.825
▁developments	-11.8251
▁Christians	-11.8253
▁calculated	-11.8256
▁Leave	-11.8257
▁Jam	-11.8257
▁habitat	-11.8258
▁Sorry	-11.8258
▁oficial	-11.8259
▁allein	-11.8261
▁concentrate	-11.8261
dica	-11.8263
▁Convention	-11.8265
illes	-11.8266
▁fum	-11.8266
▁Tal	-11.8267
Europe	-11.8269
▁attachment	-11.8269
▁sensibil	-11.827
▁clue	-11.8272
▁specialty	-11.8272
▁Cou	-11.8272
▁liste	-11.8273
▁Penn	-11.8275
TRA	-11.8276
▁Themen	-11.8276
▁motivated	-11.8279
▁camere	-11.828
▁14,	-11.8284
▁attendance	-11.8286
atorii	-11.8286
chemistry	-11.8287
▁roofing	-11.829
▁Links	-11.829
▁trou	-11.8291
▁trucks	-11.8291
hilfe	-11.8296
▁(6	-11.8296
vapor	-11.8296
mad	-11.8297
▁Albert	-11.8299
▁FIG	-11.8301
▁Rand	-11.8302
▁Constitution	-11.8302
ambi	-11.8303
▁Syria	-11.8303
▁Fond	-11.8305
▁gouvernement	-11.8306
▁Active	-11.8307
▁prints	-11.8308
▁weigh	-11.8309
▁Craft	-11.8311
▁projets	-11.8312
▁paste	-11.8314
anci	-11.8314
kie	-11.8314
▁gains	-11.8317
▁Record	-11.8319
▁beliefs	-11.832
countless	-11.832
▁tomatoes	-11.832
arie	-11.8321
▁140	-11.8321
▁ethical	-11.8322
objectif	-11.8323
▁acestuia	-11.8323
▁Bluetooth	-11.8324
▁agriculture	-11.8327
uré	-11.833
▁cale	-11.8331
▁articol	-11.8331
▁gum	-11.8333
▁vendor	-11.8335
ifié	-11.8335
▁peer	-11.8337
pod	-11.834
▁utilized	-11.8341
▁Mü	-11.8342
owohl	-11.8342
hilst	-11.8342
frame	-11.8343
▁fridge	-11.8348
▁query	-11.8351
▁Survey	-11.8352
▁Hell	-11.8352
▁notification	-11.8353
TR	-11.8354
▁ultima	-11.8355
▁radiation	-11.8356
▁musicians	-11.8358
CAN	-11.836
▁grocery	-11.8361
▁Sicherheit	-11.8361
▁Highway	-11.8363
▁Break	-11.8363
TED	-11.8363
ön	-11.8364
▁biological	-11.8364
qual	-11.8364
250	-11.8364
▁modify	-11.8367
▁Hit	-11.8367
▁Iar	-11.8368
aged	-11.8369
...)	-11.8369
▁contrat	-11.8369
▁centres	-11.837
griff	-11.837
Our	-11.8372
▁determination	-11.8373
▁variables	-11.8374
▁nuts	-11.8375
échange	-11.8376
extérieur	-11.8376
▁suflet	-11.8376
▁Scha	-11.8378
stück	-11.8378
▁Tau	-11.8378
▁participa	-11.838
▁mad	-11.838
▁relie	-11.8381
▁Fine	-11.8381
▁grape	-11.8381
▁wage	-11.8381
▁startup	-11.8382
▁blank	-11.8382
▁physique	-11.8382
▁punch	-11.8382
▁contacts	-11.8383
▁dezvolt	-11.8384
cross	-11.8386
▁TR	-11.8387
▁gener	-11.8388
▁indem	-11.8388
▁Stan	-11.8388
▁azi	-11.8389
▁Sel	-11.839
▁Tot	-11.8392
vra	-11.8393
▁recruit	-11.8395
▁Yeah	-11.8395
/10	-11.8395
▁nail	-11.8396
▁Ky	-11.8396
▁beloved	-11.8398
operative	-11.8398
▁Tickets	-11.8398
▁tear	-11.8402
▁amp	-11.8404
▁04	-11.8404
▁illustrate	-11.8404
▁mac	-11.8404
▁receiver	-11.8405
atrice	-11.8405
▁souhait	-11.8406
▁Gewinn	-11.8406
▁Vit	-11.8408
roch	-11.8412
▁arata	-11.8413
▁Indiana	-11.8414
child	-11.8415
▁invested	-11.8416
▁Excellent	-11.8416
gori	-11.8418
▁thermal	-11.8418
Str	-11.842
▁liver	-11.842
miss	-11.842
▁utiliser	-11.8421
▁prest	-11.8424
2016	-11.8425
isée	-11.8425
▁Index	-11.8426
▁arch	-11.8426
▁Toyota	-11.8427
▁YOUR	-11.8428
▁Mexican	-11.8429
▁gegenüber	-11.8429
▁cannabis	-11.843
bis	-11.8431
vage	-11.8431
hall	-11.8431
fax	-11.8431
▁spoken	-11.8432
▁Zimmer	-11.8435
kauf	-11.8436
▁couleurs	-11.8437
▁NJ	-11.844
▁Heritage	-11.8443
▁Pflege	-11.8443
luc	-11.8444
▁56	-11.8445
VP	-11.8445
▁cuvinte	-11.8446
▁Alliance	-11.8446
▁coco	-11.8446
▁leverage	-11.8448
auch	-11.8448
▁Cart	-11.8451
taux	-11.8453
east	-11.8456
▁decorating	-11.8457
tip	-11.8457
▁Communications	-11.8458
ACE	-11.8458
▁Consul	-11.846
▁Swiss	-11.8462
inci	-11.8462
▁Fact	-11.8463
▁ajung	-11.8463
▁airline	-11.8463
▁kidney	-11.8464
▁Records	-11.8464
▁Olympic	-11.8467
▁dried	-11.8472
oivent	-11.8473
▁Adobe	-11.8475
▁powers	-11.8477
lande	-11.8478
▁relieve	-11.8479
ţine	-11.8479
▁gradually	-11.8479
mud	-11.8481
▁30,	-11.8481
▁plante	-11.8481
▁Hug	-11.8482
▁Focus	-11.8485
▁distinctive	-11.8486
▁Bab	-11.8487
tata	-11.8487
▁Nun	-11.8488
▁Eve	-11.8488
▁déc	-11.8489
▁Beitrag	-11.849
▁devenit	-11.849
driven	-11.8493
▁offerings	-11.8493
▁exc	-11.8494
encies	-11.8496
▁Neuro	-11.8496
scher	-11.8496
map	-11.8497
pending	-11.8498
▁courage	-11.8498
axe	-11.8499
▁Gesellschaft	-11.8499
▁ears	-11.85
▁aider	-11.8504
▁Cast	-11.8504
fast	-11.8504
▁departe	-11.8505
▁oak	-11.8505
▁batch	-11.8507
▁Corporate	-11.8508
▁Ost	-11.8509
-14	-11.8509
▁Pie	-11.8512
▁ranking	-11.8513
clusion	-11.8513
▁costume	-11.8513
▁Knight	-11.8514
▁privat	-11.8516
▁Engineer	-11.8516
▁gens	-11.8517
physics	-11.8518
generating	-11.8518
directement	-11.8518
▁confidential	-11.8518
▁poet	-11.8519
▁monster	-11.8519
▁suppose	-11.852
său	-11.852
▁balls	-11.8521
▁substitute	-11.8521
▁simultaneously	-11.8522
▁specify	-11.8523
wald	-11.8523
▁collapse	-11.8524
dessus	-11.8525
▁vitr	-11.8525
▁recruitment	-11.8526
denken	-11.8526
▁candy	-11.8527
▁tourists	-11.8527
dimensional	-11.8528
conce	-11.8528
wechsel	-11.8528
▁passende	-11.853
industrie	-11.853
agne	-11.8531
▁warehouse	-11.8532
▁Jugend	-11.8533
▁Weise	-11.8534
▁Zone	-11.8535
▁licence	-11.8536
▁broker	-11.8536
▁Rolle	-11.8537
pton	-11.8538
▁preference	-11.8538
▁homeowners	-11.8539
▁Lum	-11.8539
▁Chairman	-11.8539
▁Pages	-11.854
▁beam	-11.854
▁coordinate	-11.8542
▁Tool	-11.8542
▁complexity	-11.8543
▁checks	-11.8543
▁Bedroom	-11.8544
minded	-11.8545
▁copiii	-11.8547
▁celebrating	-11.8547
zimmer	-11.8548
▁Imagine	-11.8548
▁decoration	-11.8548
team	-11.8554
▁împreună	-11.8554
▁publicly	-11.8554
▁centuries	-11.8555
▁Islands	-11.8556
▁ethnic	-11.8557
still	-11.8558
stieg	-11.8558
emia	-11.8559
tags	-11.856
▁marche	-11.8561
▁migration	-11.8561
▁banner	-11.8562
▁macro	-11.8564
▁Edit	-11.8564
tran	-11.8566
ça	-11.8566
▁recycling	-11.8567
▁1,000	-11.8567
▁Quelle	-11.8569
▁Vel	-11.857
▁Rit	-11.857
▁Spaß	-11.857
▁Corn	-11.8571
tracted	-11.8572
cited	-11.8572
▁tablets	-11.8572
▁Display	-11.8573
▁persoana	-11.8574
Term	-11.8574
▁Vancouver	-11.8575
▁Gäste	-11.8576
determining	-11.8576
▁populations	-11.8578
aison	-11.8579
▁surgical	-11.8581
tale	-11.8582
ivi	-11.8583
▁Zur	-11.8584
esprit	-11.8586
▁Edge	-11.8587
dach	-11.8588
phi	-11.8588
▁suc	-11.8588
▁scrie	-11.8588
▁Ausbildung	-11.8589
▁51	-11.8589
ologi	-11.8589
▁correction	-11.859
▁Wald	-11.8591
▁additionally	-11.8591
▁proche	-11.8594
▁classical	-11.8595
▁bringen	-11.8595
▁(10	-11.8596
▁Mile	-11.8598
lace	-11.8599
▁premi	-11.8599
▁constitute	-11.86
▁bitter	-11.8601
▁Inform	-11.8603
▁corporations	-11.8603
▁Lisa	-11.8605
▁obligat	-11.8607
Throughout	-11.8607
▁Rs	-11.8608
▁Hair	-11.8609
▁supplements	-11.861
▁motorcycle	-11.8611
escent	-11.8611
▁investi	-11.8612
▁continuously	-11.8613
▁Essen	-11.8613
▁precision	-11.8614
▁deficit	-11.8615
▁wallet	-11.8615
▁Bürger	-11.8615
chir	-11.8616
9)	-11.8616
▁Programme	-11.8617
▁simplement	-11.8619
MD	-11.8621
▁rouge	-11.8621
usion	-11.8621
▁stove	-11.8622
▁prospective	-11.8622
▁corp	-11.8623
▁impacts	-11.8624
▁bride	-11.8627
0.0	-11.8628
hid	-11.8628
▁warrant	-11.8629
▁Ice	-11.8631
▁sensible	-11.8632
▁vreo	-11.8632
spekt	-11.8632
▁appreciation	-11.8633
▁automation	-11.8634
Luc	-11.8634
teaches	-11.8635
▁fold	-11.8635
deutsche	-11.8635
▁assisted	-11.8638
▁straightforward	-11.8639
▁mechanic	-11.8641
observ	-11.8642
▁Schau	-11.8642
▁Recently	-11.8643
kers	-11.8644
▁Soft	-11.8645
muni	-11.8645
▁lie	-11.8646
▁Fat	-11.8647
cream	-11.8648
▁snack	-11.8649
▁juin	-11.8651
▁competent	-11.8651
▁Drug	-11.8651
▁Row	-11.8653
▁needle	-11.8659
▁convey	-11.8659
▁voie	-11.866
▁Hon	-11.8662
▁ebook	-11.8662
▁veteran	-11.8662
▁statistical	-11.8662
190	-11.8663
▁munca	-11.8664
▁venues	-11.8664
▁Viel	-11.8666
▁décor	-11.8668
▁répond	-11.867
▁produsele	-11.867
ruc	-11.867
▁drops	-11.867
▁autant	-11.8673
▁Fahrzeug	-11.8673
▁hills	-11.8674
ference	-11.8674
▁Glück	-11.8674
▁Pac	-11.8675
▁permettr	-11.8676
▁mouvement	-11.8677
établissement	-11.8679
▁Parc	-11.8679
▁solving	-11.8679
▁jail	-11.868
▁junk	-11.868
▁jeux	-11.8681
▁rôle	-11.8681
▁cache	-11.8681
▁Answer	-11.8683
wir	-11.8687
option	-11.8687
▁Tiger	-11.8687
▁Ble	-11.8688
Mitglied	-11.8688
▁partial	-11.8688
▁Mercedes	-11.8689
tire	-11.869
MENT	-11.8691
▁transit	-11.8692
▁cineva	-11.8693
▁Andrea	-11.8693
▁boundaries	-11.8695
script	-11.8701
▁Medi	-11.8701
schreiben	-11.8702
▁lobby	-11.8704
▁defendant	-11.8704
▁sq	-11.8705
▁forgotten	-11.8706
stimmung	-11.8707
hus	-11.8707
RY	-11.8707
▁Anderson	-11.8707
▁Dental	-11.8708
ject	-11.8711
▁Nutzer	-11.8714
▁Portland	-11.8715
scription	-11.8716
▁angel	-11.8717
▁monument	-11.8717
▁număr	-11.8718
▁Lane	-11.8718
▁Bai	-11.8719
But	-11.8719
▁calculate	-11.8723
▁provoca	-11.8725
▁votes	-11.8725
RNA	-11.8725
though	-11.8726
spor	-11.8726
▁connaissance	-11.8727
▁Anwendung	-11.8729
▁Kate	-11.8731
lob	-11.8732
▁Conf	-11.8732
bung	-11.8732
ander	-11.8733
▁functioning	-11.8733
▁sponsored	-11.8733
rav	-11.8737
▁resistant	-11.8738
tră	-11.8739
▁costly	-11.8739
▁Mars	-11.874
▁tir	-11.8741
▁writes	-11.8741
▁Greg	-11.8743
▁Question	-11.8747
▁corporation	-11.8749
▁lire	-11.875
locked	-11.875
8,	-11.8751
▁sagt	-11.8753
gaining	-11.8754
▁Pierre	-11.8757
verb	-11.8757
▁Barcelona	-11.8758
werte	-11.8765
▁disponible	-11.8765
▁urge	-11.8765
▁expecting	-11.8766
▁Girl	-11.8766
▁unlimited	-11.8768
watt	-11.8768
▁Möglichkeiten	-11.8768
▁schöne	-11.8768
rium	-11.8771
That	-11.8773
▁socio	-11.8773
▁Democrats	-11.8774
guten	-11.8774
▁Lou	-11.8774
ităţi	-11.8776
▁possibilité	-11.8777
▁adjustable	-11.8779
▁Salt	-11.878
Thr	-11.878
▁biseric	-11.8781
ieux	-11.8781
▁procur	-11.8782
▁credits	-11.8783
▁Netflix	-11.8786
doi	-11.8786
▁Jews	-11.8787
▁Ukraine	-11.8787
▁adevărat	-11.8788
▁Apply	-11.8788
▁coupons	-11.8789
▁Detroit	-11.8789
▁rue	-11.8789
anumite	-11.8789
ished	-11.879
▁withdrawal	-11.8792
▁replacing	-11.8792
catching	-11.8794
▁climbing	-11.8796
▁Basic	-11.8798
▁inclus	-11.8798
scope	-11.8799
▁facem	-11.8799
▁plec	-11.8799
mäßig	-11.88
▁tasty	-11.8801
▁tunnel	-11.8801
figured	-11.8803
gged	-11.8804
▁conditii	-11.8806
▁homework	-11.8806
volle	-11.8806
▁Gott	-11.8808
▁95	-11.881
▁elect	-11.881
▁blast	-11.881
▁easiest	-11.8812
USE	-11.8815
concentr	-11.8815
orial	-11.8816
▁scroll	-11.8816
stead	-11.8817
▁hormone	-11.8817
▁starter	-11.8818
▁cald	-11.8819
▁wax	-11.8819
▁ridic	-11.8819
ously	-11.882
maschine	-11.8821
licher	-11.8824
▁16,	-11.8825
▁hassle	-11.8825
semnat	-11.8825
▁pub	-11.8826
240	-11.8828
▁kits	-11.8829
▁Generation	-11.8829
▁merchant	-11.8831
▁Erd	-11.8831
▁café	-11.8831
hoff	-11.8831
▁WITH	-11.8834
▁gesch	-11.8835
▁Editor	-11.8836
▁treats	-11.8836
▁harsh	-11.8837
rome	-11.8837
▁Foreign	-11.8839
▁denied	-11.884
▁Valentine	-11.884
▁healthier	-11.8841
▁readily	-11.8841
nac	-11.8842
▁intake	-11.8842
▁puncte	-11.8842
erne	-11.8844
file	-11.8847
▁continually	-11.8847
door	-11.8847
▁imediat	-11.8848
▁accused	-11.8848
chy	-11.8849
▁wrapped	-11.8849
IES	-11.8849
▁terrace	-11.8849
mouth	-11.8849
▁defensive	-11.885
▁Luci	-11.8851
▁significance	-11.8851
▁2007,	-11.8852
▁inclusion	-11.8852
▁rotation	-11.8852
hos	-11.8853
▁crea	-11.8854
üß	-11.8859
▁Install	-11.886
▁dump	-11.886
▁informations	-11.8861
▁Thi	-11.8861
▁85	-11.8863
dox	-11.8863
track	-11.8864
▁couples	-11.8866
▁Assembly	-11.8866
wagen	-11.8867
▁Hil	-11.8867
ières	-11.8868
▁Gabriel	-11.8869
▁patience	-11.8871
▁colored	-11.8871
▁separately	-11.8872
▁deployment	-11.8872
scape	-11.8873
▁Acum	-11.8875
▁länger	-11.8875
▁screens	-11.8876
▁prezenta	-11.8876
▁obicei	-11.8876
▁crisp	-11.8878
▁mechanisms	-11.8878
▁thirty	-11.8878
▁individually	-11.888
▁internationally	-11.888
lling	-11.8881
▁bureau	-11.8884
▁erfahren	-11.8884
TY	-11.8886
PF	-11.8886
wid	-11.8888
sell	-11.8888
▁Luke	-11.8889
▁Must	-11.8889
▁identical	-11.8889
▁Netherlands	-11.889
▁investor	-11.8891
▁squad	-11.8891
▁21,	-11.8891
iko	-11.8892
▁departure	-11.8894
ega	-11.8894
uzi	-11.8894
▁lasa	-11.8895
bian	-11.8895
▁Madrid	-11.8896
▁Iowa	-11.8898
▁Yellow	-11.89
conom	-11.89
▁hint	-11.8901
NOW	-11.8901
dress	-11.8902
▁Stück	-11.8903
echt	-11.8904
rial	-11.8905
▁Initiative	-11.8905
▁magnificent	-11.8905
▁pipeline	-11.8905
▁08	-11.8908
▁écrit	-11.8909
KA	-11.8911
arile	-11.8912
▁unfortunately	-11.8914
dose	-11.8914
▁counts	-11.8914
deciding	-11.8915
WA	-11.8917
▁doresc	-11.8917
NY	-11.892
olin	-11.8921
▁Urlaub	-11.8921
▁alătur	-11.8923
▁Vic	-11.8925
▁fier	-11.8927
EU	-11.8928
▁triple	-11.8929
▁compliment	-11.8931
▁vegetable	-11.8933
member	-11.8937
atiei	-11.8938
▁toxic	-11.8938
▁converted	-11.8939
▁Pink	-11.894
▁fragment	-11.894
presenting	-11.894
▁garantie	-11.894
▁31,	-11.8941
▁puisqu	-11.8941
aching	-11.8941
▁Shan	-11.8941
▁Affairs	-11.8944
üsse	-11.8944
▁CBD	-11.8944
▁quatre	-11.8946
▁horror	-11.8947
▁culoare	-11.8947
▁welcoming	-11.8947
▁headache	-11.8948
▁septembre	-11.8948
▁Tür	-11.8949
lateral	-11.8951
▁termin	-11.8952
▁Aid	-11.8953
second	-11.8953
▁Philip	-11.8953
berries	-11.8953
▁Slot	-11.8954
ка	-11.8954
▁consecutive	-11.8956
value	-11.8957
▁islands	-11.8958
▁posibilitatea	-11.8959
0.5	-11.8963
▁Dumpster	-11.8965
▁Gran	-11.8965
▁restricted	-11.8968
▁discussing	-11.8969
cock	-11.897
Serie	-11.897
▁crushing	-11.897
RB	-11.897
▁Gy	-11.8971
normal	-11.8971
DT	-11.8972
▁concurs	-11.8972
▁Beratung	-11.8972
▁handful	-11.8972
▁loading	-11.8972
▁WI	-11.8973
▁Fitness	-11.8973
▁RAM	-11.8973
▁Twi	-11.8973
adurch	-11.8973
▁obiectiv	-11.8974
BM	-11.8976
▁amendment	-11.8976
whi	-11.8977
▁Besonder	-11.8979
ALL	-11.898
▁earning	-11.8981
▁nutrients	-11.8986
pru	-11.8986
▁offensive	-11.8987
▁shelves	-11.8987
▁încâ	-11.8987
▁execute	-11.8989
▁cauz	-11.899
exist	-11.8992
▁Meter	-11.8992
there	-11.8992
▁réaliser	-11.8992
blog	-11.8994
▁résultats	-11.8994
baren	-11.8994
▁lang	-11.8994
▁mere	-11.8999
▁toti	-11.9001
DN	-11.9002
Hi	-11.9003
▁merg	-11.9004
▁Camera	-11.9005
▁parfum	-11.9007
CG	-11.9007
posed	-11.9007
▁proposals	-11.9007
▁incorrect	-11.9008
▁Denver	-11.9012
▁noapte	-11.9014
▁VPN	-11.9014
▁Oklahoma	-11.9016
horizon	-11.9016
▁villa	-11.9017
duce	-11.9018
Dienst	-11.902
▁oversee	-11.9025
astr	-11.9025
brand	-11.9027
▁Safe	-11.9027
▁competing	-11.9028
▁subiect	-11.9028
▁équipe	-11.9031
▁Dress	-11.9031
▁Juni	-11.9031
▁repeated	-11.9032
2012	-11.9032
▁départ	-11.9032
immer	-11.9033
▁mondial	-11.9034
▁datelor	-11.9037
▁surgeon	-11.9038
▁demanding	-11.9038
▁concluded	-11.9039
țiile	-11.904
marin	-11.904
▁estim	-11.9042
▁Loan	-11.9044
sculpt	-11.9044
▁99	-11.9044
void	-11.9044
▁Empire	-11.9045
▁Brit	-11.9045
▁véhicule	-11.9048
▁dividend	-11.9051
▁refused	-11.9051
▁speaks	-11.9052
▁Morris	-11.9053
dict	-11.9053
▁funeral	-11.9056
▁Behandlung	-11.9058
▁Revolution	-11.9059
▁Sum	-11.9059
einigen	-11.906
RES	-11.9061
▁vite	-11.9061
▁Captain	-11.9062
▁assurance	-11.9062
uga	-11.9065
▁conserv	-11.9066
▁therapeutic	-11.9066
▁Sweden	-11.9068
▁Lead	-11.9069
ément	-11.9071
▁53	-11.9071
▁fraction	-11.9072
▁magnet	-11.9072
assurer	-11.9072
▁Steuer	-11.9073
▁flori	-11.9074
▁charming	-11.9076
▁athletic	-11.9076
▁membri	-11.9077
▁Sep	-11.9077
ogue	-11.9078
▁familie	-11.9078
▁SW	-11.908
▁diagnosed	-11.908
RR	-11.9081
▁Fern	-11.9082
▁rational	-11.9083
▁talents	-11.9083
ziert	-11.9083
▁chemin	-11.9085
sheet	-11.9086
▁outer	-11.9086
▁Kap	-11.9086
▁HERE	-11.9087
▁uman	-11.9088
▁accompany	-11.9089
▁varieties	-11.9089
▁sensors	-11.909
▁25%	-11.9092
▁tray	-11.9094
▁critique	-11.9095
▁puţin	-11.9095
▁Schüler	-11.9095
▁repar	-11.9097
▁overlook	-11.9099
▁surf	-11.91
▁tasting	-11.9101
bog	-11.9103
▁Payment	-11.9103
▁Helen	-11.9105
▁Refer	-11.9107
application	-11.9107
lection	-11.9109
▁avril	-11.911
▁Grace	-11.9111
▁kau	-11.9113
▁libraries	-11.9113
▁closest	-11.9113
▁coating	-11.9114
▁suicide	-11.9114
▁undergraduate	-11.9114
▁stitch	-11.9115
▁reset	-11.9116
▁Greece	-11.9116
▁Fred	-11.912
▁18.	-11.912
▁nuit	-11.9121
▁lying	-11.9122
▁cottage	-11.9123
bone	-11.9125
▁milieu	-11.9125
management	-11.9126
▁Freund	-11.9127
▁specially	-11.9128
veut	-11.913
▁necesare	-11.913
▁cert	-11.9131
articul	-11.9132
150	-11.9132
rounded	-11.9132
▁longue	-11.9132
▁Quel	-11.9132
Until	-11.9133
▁700	-11.9134
▁installations	-11.9134
▁boats	-11.9135
Fig	-11.9136
▁cocktail	-11.9136
▁rocks	-11.9137
meinen	-11.9137
entrepreneur	-11.9138
schwarz	-11.9139
▁diesel	-11.9139
▁villages	-11.914
▁cups	-11.9141
▁stairs	-11.9142
▁Match	-11.9144
Taking	-11.9144
prin	-11.9145
▁penal	-11.9147
partner	-11.9149
wave	-11.915
▁baie	-11.9152
LAN	-11.9152
fix	-11.9152
▁surveillance	-11.9153
▁Register	-11.9153
oara	-11.9155
▁Phoenix	-11.9156
aktuellen	-11.9156
▁livres	-11.9156
▁entities	-11.9161
▁Regard	-11.9161
▁Jazz	-11.9161
▁flame	-11.9162
▁independence	-11.9162
▁Adventure	-11.9163
▁assign	-11.9164
▁Adult	-11.9166
kehr	-11.9167
▁ordering	-11.9169
▁charts	-11.9169
▁Român	-11.9169
bauen	-11.917
▁Floor	-11.9171
▁Meet	-11.9171
▁compromise	-11.9172
regarded	-11.9172
02.	-11.9172
▁granite	-11.9173
▁Judge	-11.9173
opti	-11.9174
liste	-11.9174
▁capacité	-11.9174
▁criticism	-11.9175
LES	-11.9182
▁Century	-11.9182
▁mobility	-11.9183
▁variation	-11.9186
▁Utah	-11.9187
▁seminar	-11.9187
▁experiments	-11.9188
midst	-11.9189
▁Psycho	-11.919
▁choses	-11.9191
▁Karl	-11.9192
▁ruling	-11.9193
▁Voice	-11.9194
▁împotriv	-11.9194
▁mesaj	-11.9195
▁vrei	-11.9196
fan	-11.9196
parent	-11.9196
▁oraș	-11.9198
▁printable	-11.9198
▁diver	-11.9199
▁ochi	-11.9199
▁teenager	-11.9201
▁Death	-11.9202
▁manque	-11.9203
ască	-11.9203
▁prob	-11.9204
▁télé	-11.9204
cursul	-11.9204
pion	-11.9205
▁dedication	-11.9206
▁opr	-11.9207
führung	-11.9208
▁cognitive	-11.9208
soft	-11.9209
▁19,	-11.921
▁24-	-11.9212
▁legitimate	-11.9212
▁comedy	-11.9213
▁violation	-11.9213
▁disposal	-11.9215
▁liegen	-11.9216
ко	-11.9219
▁martie	-11.9219
▁Vas	-11.9221
rash	-11.9221
▁hadn	-11.9222
▁connu	-11.9222
▁regelmäßig	-11.9222
▁Webseite	-11.9222
▁failing	-11.9223
explique	-11.9224
▁Player	-11.9225
vul	-11.9226
camp	-11.923
▁erreicht	-11.923
▁tags	-11.923
▁headline	-11.9232
▁banc	-11.9233
▁Mayor	-11.9233
trop	-11.9234
AK	-11.9235
▁lighter	-11.9236
▁syndrome	-11.9236
▁Adrian	-11.9237
▁EUR	-11.9238
▁Missouri	-11.9239
▁Chan	-11.9241
topped	-11.9242
▁nationwide	-11.9243
▁6-	-11.9243
final	-11.9244
ttes	-11.9245
▁FO	-11.9245
▁legi	-11.9246
▁Hum	-11.9246
vita	-11.9247
▁Regen	-11.9247
▁confusion	-11.925
▁valori	-11.9251
mill	-11.9252
did	-11.9252
pid	-11.9253
▁implications	-11.9253
▁Value	-11.9255
lângă	-11.9257
▁véritable	-11.9258
▁Stick	-11.9258
zol	-11.9258
▁ebenso	-11.9259
west	-11.9259
▁auszu	-11.926
▁adorable	-11.926
▁clarity	-11.9261
▁Wash	-11.9263
▁alien	-11.9264
usement	-11.9266
▁bones	-11.9266
▁Beau	-11.9267
▁Jet	-11.9267
▁visibility	-11.927
impose	-11.9271
food	-11.9271
▁duce	-11.9274
▁Format	-11.9274
▁durability	-11.9274
▁Prim	-11.9276
▁mele	-11.9276
▁dürfen	-11.9276
▁Angebote	-11.9277
▁discharge	-11.9277
▁Justin	-11.9281
▁shame	-11.9282
▁heated	-11.9283
ères	-11.9286
human	-11.9288
4.5	-11.9288
▁lien	-11.929
▁Alan	-11.929
▁transmis	-11.9291
▁Bul	-11.9291
plu	-11.9292
acul	-11.9293
merk	-11.9294
▁altfel	-11.9296
deli	-11.9297
▁Cru	-11.93
▁hommes	-11.9301
aurait	-11.9301
cca	-11.9302
▁Path	-11.9302
astronom	-11.9302
▁détail	-11.9303
▁blocked	-11.9304
iding	-11.9304
schä	-11.9305
▁30-	-11.9306
diction	-11.9308
▁pulling	-11.9309
▁Sample	-11.9309
▁renewable	-11.931
▁Pinterest	-11.9311
▁Tages	-11.9311
▁shed	-11.9312
▁hart	-11.9312
▁serie	-11.9312
▁documentary	-11.9312
gebaut	-11.9312
▁Hause	-11.9313
share	-11.9313
▁inflation	-11.9314
▁gall	-11.9315
▁adjacent	-11.9317
jer	-11.9317
▁Universal	-11.9319
▁disabilities	-11.932
▁proposition	-11.932
Work	-11.9323
▁closure	-11.9323
▁separated	-11.9325
▁soda	-11.9325
▁elite	-11.9326
appro	-11.9327
▁acute	-11.9327
utton	-11.9329
▁facă	-11.9331
▁collector	-11.9331
▁unlock	-11.9332
▁Alpha	-11.9333
▁Used	-11.9333
▁applicants	-11.9333
▁înseamn	-11.9334
▁inclu	-11.9334
▁disclosure	-11.9335
▁Fahr	-11.934
AST	-11.9341
▁vivre	-11.9341
»,	-11.9342
laud	-11.9343
▁soir	-11.9344
▁barrier	-11.9344
înd	-11.9345
▁ambition	-11.9345
asta	-11.9346
occupied	-11.9347
▁Gau	-11.9348
four	-11.9348
▁nap	-11.9349
iez	-11.9349
endra	-11.9352
gaben	-11.9355
▁Carol	-11.9355
▁Switzerland	-11.9356
▁Bond	-11.9356
▁crossing	-11.9356
▁Palace	-11.936
NG	-11.936
▁Budget	-11.9362
▁lid	-11.9364
bab	-11.9364
▁polish	-11.9364
▁herbs	-11.9367
▁dear	-11.9367
▁devrai	-11.9368
walk	-11.9369
▁humanity	-11.9369
▁tires	-11.937
égal	-11.937
▁bow	-11.937
▁debris	-11.9372
▁keywords	-11.9373
irk	-11.9373
▁suspend	-11.9374
▁pourra	-11.9374
migran	-11.9375
thereby	-11.9376
▁Harris	-11.9379
ateurs	-11.938
▁fal	-11.9383
alleged	-11.9384
noch	-11.9385
▁observation	-11.9385
▁București	-11.9386
▁SQL	-11.9386
▁Phase	-11.9388
▁adventures	-11.9388
▁Kol	-11.9389
▁professionnel	-11.9389
crit	-11.939
LR	-11.9393
▁preview	-11.9395
▁highlighted	-11.9399
▁Stud	-11.9399
▁labour	-11.94
MV	-11.94
click	-11.94
approche	-11.9402
tian	-11.9402
cité	-11.9402
▁Rain	-11.9403
typ	-11.9403
Usually	-11.9404
▁outlet	-11.9405
logging	-11.9408
▁Temperatur	-11.9409
▁Scottish	-11.9409
[...]
