'<pad>'
'<EOS>'
', _'
'. _'
'_'
's_'
'-_'
''_'
' (_'
'The_'
'._'
': _'
') _'
'I_'
'e_'
'his_'
'ing_'
'ed_'
'have_'
'not_'
'y_'
'd_'
'he_'
'has_'
'). _'
'were_'
't_'
'A_'
'a_'
'; _'
' ``_'
'their_'
'1_'
'you_'
'In_'
'but_'
'one_'
'/_'
'all_'
'will_'
'had_'
'they_'
'2_'
'also_'
'more_'
'es_'
'been_'
'n_'
'), _'
'can_'
'its_'
'we_'
'It_'
'3_'
'other_'
'time_'
'This_'
''' _'
'r_'
'S_'
'first_'
'up_'
'would_'
'--_'
'out_'
'5_'
'4_'
'al_'
'her_'
'He_'
' - _'
'into_'
'two_'
'., _'
'than_'
'm_'
' -- _'
'there_'
'on_'
'o_'
'' _'
'er_'
'new_'
'.'' _'
'l_'
'. ``_'
'only_'
'some_'
',_'
'our_'
'so_'
'years_'
'no_'
'us_'
'most_'
'over_'
'C_'
'these_'
'? _'
'6_'
'i_'
'people_'
'after_'
'it_'
'year_'
'them_'
'such_'
'like_'
'may_'
'your_'
'well_'
'between_'
'7_'
'ng_'
'ly_'
'. (_'
'any_'
' '_'
'8_'
'New_'
','' _'
'0_'
'if_'
'through_'
'do_'
'many_'
'work_'
'said_'
'9_'
'We_'
'my_'
'she_'
'in_'
'made_'
'him_'
'M_'
'D_'
'10_'
'way_'
'very_'
'g_'
'just_'
'p_'
'could_'
'being_'
'during_'
'then_'
'use_'
'both_'
'used_'
'three_'
'h_'
'J_'
'c_'
'R_'
'under_'
'me_'
'man_'
'E_'
'... _'
'part_'
'those_'
'P_'
'an_'
'same_'
're_'
'because_'
'University_'
'de_'
'now_'
'should_'
'before_'
'see_'
'k_'
'For_'
'world_'
'including_'
'life_'
'! _'
'back_'
':_'
'or_'
'B_'
've_'
'U_'
'ers_'
'and_'
'As_'
'even_'
'T_'
'et_'
'make_'
'while_'
'each_'
'day_'
', ``_'
'much_'
'L_'
'There_'
'American_'
'But_'
'area_'
'(_'
'number_'
'ion_'
'state_'
'did_'
'They_'
'high_'
'long_'
'within_'
'get_'
'rs_'
'the_'
'against_'
'information_'
'le_'
'able_'
'public_'
'place_'
'last_'
'own_'
'N_'
'If_'
'different_'
'12_'
'000_'
'good_'
'family_'
'is_'
'based_'
'right_'
'ation_'
'found_'
'still_'
'school_'
'off_'
'% _'
'system_'
'around_'
'John_'
'history_'
'F_'
'G_'
'And_'
'take_'
'down_'
'20_'
'team_'
'known_'
'end_'
'ic_'
'On_'
'11_'
'since_'
'must_'
'less_'
'United_'
'great_'
'development_'
'group_'
'World_'
'York_'
'early_'
'H_'
'here_'
'government_'
'You_'
'land_'
'best_'
'second_'
'15_'
'later_'
'go_'
'data_'
'ts_'
'National_'
'age_'
'home_'
'en_'
'local_'
' $_'
'game_'
'ies_'
'set_'
'that_'
'30_'
'name_'
'know_'
'community_'
'four_'
'support_'
'old_'
'son_'
'important_'
'O_'
'country_'
'another_'
'W_'
'social_'
'te_'
'students_'
'does_'
'State_'
'water_'
'She_'
'city_'
'x_'
'b_'
'ce_'
'children_'
'ne_'
'When_'
'men_'
'line_'
'research_'
'called_'
'need_'
'per_'
'''. _'
'to_'
'No_'
'music_'
'large_'
'City_'
'small_'
'These_'
'film_'
'ry_'
'several_'
'st_'
'women_'
'service_'
'ment_'
'K_'
'few_'
'available_'
'All_'
'level_'
'members_'
'point_'
'without_'
'However_'
'study_'
'show_'
'became_'
'left_'
'case_'
'At_'
'book_'
'South_'
'political_'
'field_'
'until_'
'using_'
'following_'
'order_'
'season_'
'don_'
'To_'
'ty_'
'tion_'
'think_'
'power_'
'z_'
'along_'
'States_'
'u_'
'Mr_'
'never_'
'areas_'
'll_'
'form_'
'14_'
'every_'
'led_'
'often_'
'include_'
'law_'
' . _'
'One_'
'16_'
'next_'
'St_'
'side_'
'play_'
'century_'
'2010_'
'13_'
'May_'
'days_'
' _'
'After_'
'25_'
'com_'
'business_'
'species_'
'What_'
'among_'
'help_'
'ons_'
'London_'
' , _'
'too_'
'national_'
'His_'
'18_'
'major_'
'came_'
'five_'
'am_'
'given_'
'as_'
'come_'
'house_'
'County_'
'going_'
'f_'
'2014_'
'example_'
'2012_'
'2011_'
'period_'
'find_'
'become_'
'change_'
'June_'
' ... _'
'process_'
'2013_'
'provide_'
'ous_'
'present_'
'born_'
'site_'
'um_'
'took_'
'2015_'
'North_'
'might_'
'free_'
'17_'
'non_'
'.) _'
'full_'
'little_'
'million_'
'services_'
'top_'
'That_'
'times_'
'series_'
'always_'
'role_'
'making_'
'human_'
'really_'
'again_'
'company_'
'British_'
'2009_'
'English_'
'ns_'
'away_'
'nt_'
'says_'
'education_'
'across_'
'course_'
'others_'
'2016_'
'ia_'
'2008_'
'v_'
'building_'
'held_'
'say_'
'working_'
'ble_'
'se_'
'program_'
'March_'
'experience_'
'want_'
'July_'
'2007_'
'24_'
'however_'
'story_'
'war_'
'control_'
'School_'
'former_'
'September_'
'ton_'
'50_'
'project_'
'above_'
'possible_'
'better_'
'together_'
'further_'
'Y_'
'fact_'
': ``_'
'European_'
'young_'
'general_'
'April_'
'due_'
'played_'
'won_'
'With_'
'town_'
'An_'
'West_'
'member_'
'career_'
'least_'
'- _'
'19_'
'V_'
'ted_'
'having_'
'population_'
'far_'
'Church_'
'of_'
'ie_'
'low_'
'ch_'
'future_'
'late_'
'went_'
'single_'
'groups_'
'though_'
'person_'
'th_'
'things_'
'got_'
'21_'
'near_'
'past_'
'rights_'
'ever_'
'22_'
'put_'
'main_'
'various_'
'original_'
'la_'
'open_'
'seen_'
'ity_'
'US_'
'2006_'
'health_'
'w_'
'began_'
'October_'
'America_'
'ar_'
'War_'
'media_'
'ions_'
'international_'
'By_'
'January_'
'included_'
'head_'
'100_'
'India_'
'provided_'
'Press_'
'ness_'
'taken_'
'So_'
'works_'
'something_'
'economic_'
'result_'
'related_'
'death_'
'games_'
'total_'
'position_'
'ate_'
'co_'
'value_'
''' (_'
'2000_'
'today_'
'language_'
'November_'
'ting_'
'August_'
'International_'
'range_'
'final_'
'record_'
'built_'
'love_'
'2017_'
'third_'
'half_'
'region_'
'significant_'
'real_'
'view_'
'list_'
'December_'
'23_'
'production_'
'means_'
'look_'
'give_'
'current_'
'2005_'
'na_'
'short_'
'lot_'
'party_'
'://_'
'French_'
'received_'
'art_'
'ings_'
'countries_'
'type_'
'live_'
'shall_'
'term_'
'Dr_'
'rather_'
'six_'
'Center_'
'upon_'
'House_'
'While_'
'once_'
'analysis_'
'From_'
'); _'
'East_'
'2004_'
'results_'
'whether_'
'report_'
'les_'
'hand_'
'red_'
'class_'
'design_'
'common_'
'run_'
'pp_'
'ge_'
'interest_'
'addition_'
'issues_'
'body_'
'care_'
'ey_'
'): _'
'policy_'
'light_'
'shows_'
'40_'
' '
'2002_'
'similar_'
'II_'
'either_'
'already_'
'established_'
'Department_'
'activities_'
'events_'
'2003_'
'specific_'
'Street_'
'model_'
'especially_'
'George_'
'almost_'
'el_'
'church_'
'www_'
'considered_'
'access_'
'by_'
'ors_'
'percent_'
'points_'
'particular_'
''', _'
'space_'
'located_'
'President_'
'market_'
'published_'
'management_'
'Australia_'
'close_'
'28_'
'required_'
'special_'
'26_'
'album_'
'died_'
'months_'
'College_'
'Park_'
'terms_'
'action_'
'Some_'
'\u_'
'Europe_'
'week_'
'ways_'
'started_'
'Canada_'
'England_'
'culture_'
'2001_'
'military_'
'individual_'
'27_'
'studies_'
'http_'
'ra_'
'section_'
'German_'
'William_'
'quality_'
'night_'
'changes_'
') (_'
'issue_'
'below_'
'self_'
'thought_'
'rate_'
'key_'
'James_'
'schools_'
'General_'
'industry_'
'strong_'
'money_'
'Council_'
'event_'
'written_'
'February_'
'training_'
'post_'
'done_'
'First_'
'developed_'
'evidence_'
'likely_'
'big_'
'white_'
'yet_'
'higher_'
'Washington_'
'black_'
'named_'
'whole_'
'north_'
'cultural_'
'recent_'
'society_'
'band_'
'potential_'
'personal_'
'History_'
'student_'
'father_'
'himself_'
'date_'
'news_'
'systems_'
'ian_'
'See_'
'River_'
'start_'
'performance_'
'lead_'
'didn_'
'How_'
'marriage_'
'told_'
'south_'
'29_'
'room_'
'office_'
'conditions_'
'throughout_'
'hard_'
'staff_'
'win_'
'includes_'
'David_'
'King_'
'worked_'
'players_'
'Company_'
'at_'
'involved_'
'enough_'
'Court_'
'growth_'
'Act_'
'31_'
'read_'
'knowledge_'
'private_'
'X_'
'structure_'
'Thomas_'
'living_'
'served_'
'this_'
'makes_'
'road_'
'thing_'
'ley_'
'property_'
'effect_'
'reported_'
'God_'
'modern_'
'states_'
'increase_'
'created_'
'food_'
'itself_'
'material_'
'plan_'
'..._'
'China_'
'page_'
'nature_'
'financial_'
'video_'
'certain_'
'needs_'
'although_'
'associated_'
'cases_'
'online_'
'Although_'
'id_'
'kind_'
'style_'
'tic_'
'provides_'
'ship_'
'subject_'
'My_'
'ling_'
'During_'
'police_'
'00_'
'religious_'
'song_'
'Journal_'
'clear_'
'natural_'
'Our_'
'outside_'
'Robert_'
'Association_'
'shown_'
'books_'
'ke_'
'title_'
'Indian_'
'themselves_'
'particularly_'
'face_'
'question_'
'decision_'
'Society_'
'sex_'
'character_'
'popular_'
'activity_'
'whose_'
'ter_'
'taking_'
'ring_'
'player_'
'approach_'
'Retrieved_'
'described_'
'ta_'
'ine_'
'os_'
'continued_'
'ls_'
'levels_'
'legal_'
'practice_'
'size_'
'collection_'
'air_'
'der_'
'impact_'
'words_'
'problems_'
'lost_'
'fully_'
'Paul_'
'programs_'
'problem_'
'ally_'
'cost_'
'meeting_'
'ary_'
'call_'
'keep_'
'court_'
'average_'
'hours_'
'ground_'
'France_'
'sense_'
'features_'
'according_'
'playing_'
'board_'
'probably_'
'success_'
'behind_'
'Road_'
'wife_'
'ments_'
'ive_'
'professional_'
'1999_'
'review_'
'1998_'
'treatment_'
'Research_'
'station_'
', '_'
'increased_'
'currently_'
'League_'
'continue_'
'let_'
'wide_'
'return_'
'sites_'
'', _'
'ist_'
'ding_'
'district_'
'Board_'
'actually_'
'ma_'
'California_'
'Committee_'
'child_'
'produced_'
'TV_'
'added_'
'writing_'
'leading_'
'cannot_'
'released_'
'energy_'
'article_'
'complete_'
'additional_'
'west_'
'front_'
'saw_'
'doing_'
'UK_'
'turn_'
'month_'
'ability_'
'construction_'
'create_'
'cy_'
'60_'
'brought_'
'ful_'
'records_'
'risk_'
'lower_'
'moved_'
'looking_'
'cal_'
'High_'
'etc_'
'da_'
'club_'
', (_'
'gave_'
'idea_'
'followed_'
'feel_'
'technology_'
'ago_'
'&_'
'resources_'
'account_'
'ant_'
'move_'
'trade_'
'necessary_'
'quite_'
'force_'
'relationship_'
'for_'
'content_'
'traditional_'
'effects_'
'true_'
'football_'
'ck_'
'stage_'
'science_'
'movement_'
'believe_'
'Museum_'
'Figure_'
'word_'
'ca_'
'African_'
'San_'
'version_'
'mother_'
'communities_'
'THE_'
'ical_'
'comes_'
'married_'
'products_'
'ds_'
'1996_'
'ent_'
'limited_'
'needed_'
'ying_'
'active_'
'Group_'
'central_'
'values_'
'degree_'
'amount_'
'lives_'
'Western_'
'1997_'
'miles_'
'lines_'
'status_'
'paper_'
'seems_'
' = _'
'asked_'
'visit_'
'sh_'
'Africa_'
'usually_'
'surface_'
'ism_'
'fire_'
'sm_'
'via_'
'share_'
'environment_'
'east_'
'friends_'
'towards_'
'federal_'
'car_'
'job_'
'coming_'
'sure_'
'parts_'
'recently_'
'note_'
'largest_'
'thus_'
'Of_'
'woman_'
'nd_'
'movie_'
'takes_'
'companies_'
'Michael_'
'questions_'
'security_'
''. _'
'historical_'
'Australian_'
'basis_'
'projects_'
'forms_'
'focus_'
'matter_'
'Union_'
'director_'
'Great_'
'1995_'
'response_'
'Science_'
'wrote_'
'Fig_'
'reason_'
'previous_'
'nation_'
'wanted_'
'Education_'
'35_'
'earlier_'
'des_'
'successful_'
'try_'
' : _'
'ties_'
'Army_'
'Co_'
'presented_'
'influence_'
'official_'
'soon_'
'. '
'mean_'
'Most_'
'Many_'
'complex_'
'Institute_'
'offer_'
'Hall_'
'designed_'
'Party_'
'author_'
'families_'
'organization_'
'entire_'
'seven_'
'Government_'
'network_'
'track_'
'be_'
'ss_'
'pay_'
'location_'
'president_'
'county_'
'wood_'
'college_'
'places_'
'base_'
'teams_'
'Two_'
'Charles_'
'Island_'
'Germany_'
'test_'
'B'
'Black_'
'``_'
'minutes_'
'opportunity_'
'zed_'
'ated_'
'longer_'
'source_'
'G'
'center_'
'Christian_'
'meet_'
'generally_'
'difficult_'
'beginning_'
'king_'
'product_'
'M'
'release_'
'Central_'
'parents_'
'ations_'
'1994_'
'Since_'
'understanding_'
'District_'
'understand_'
'forward_'
'individuals_'
'ten_'
'fall_'
'remains_'
'expected_'
'loss_'
'doesn_'
'primary_'
'ces_'
'hit_'
'Smith_'
'match_'
'Royal_'
'recorded_'
'45_'
'therefore_'
'greater_'
'physical_'
'Canadian_'
'bring_'
'numbers_'
'feet_'
'K'
'Peter_'
'ner_'
'forces_'
'scale_'
'eight_'
'learning_'
'Other_'
'Mary_'
'que_'
'tions_'
'est_'
'Day_'
'cells_'
'highly_'
'sent_'
'uses_'
''' ``_'
'attention_'
'patients_'
'Ireland_'
'race_'
' / _'
'joined_'
'contact_'
'Music_'
'capital_'
'nce_'
'mind_'
'ha_'
'with_'
'Commission_'
'Japan_'
'White_'
'summer_'
'table_'
'beyond_'
'foreign_'
'ard_'
'deal_'
'act_'
'existing_'
'running_'
'theory_'
'round_'
'R'
'ya_'
'buildings_'
'H'
'function_'
'1990_'
'getting_'
'sometimes_'
'global_'
'rest_'
'500_'
'unique_'
'cause_'
'ory_'
'types_'
'sound_'
'J'
'cell_'
'direct_'
'television_'
'ks_'
'cover_'
'directly_'
'32_'
'attack_'
'application_'
'tes_'
'nothing_'
'standard_'
'sports_'
'1993_'
'Lake_'
'majority_'
'Chinese_'
'nearly_'
'anything_'
'leader_'
'V'
'Service_'
'operations_'
'names_'
'sea_'
'fish_'
'variety_'
'1992_'
'Richard_'
'radio_'
'stories_'
'text_'
'Also_'
'2'
'independent_'
'effective_'
'village_'
'identified_'
'develop_'
'address_'
'Russian_'
'goal_'
'films_'
'ford_'
'According_'
'allowed_'
'met_'
'everything_'
'formed_'
'campaign_'
'daughter_'
'bit_'
'ensure_'
'Now_'
' #_'
'commercial_'
'ler_'
'star_'
'efforts_'
'larger_'
'Chicago_'
'proposed_'
'ur_'
'killed_'
'ville_'
'Club_'
'80_'
'Public_'
'heart_'
'compared_'
'allow_'
'medical_'
')_'
'was_'
'rock_'
'follow_'
'More_'
'era_'
'hold_'
'situation_'
'cross_'
'female_'
'ance_'
'details_'
'annual_'
'simply_'
'1991_'
'presence_'
'costs_'
'Not_'
'rules_'
'respect_'
'Development_'
'election_'
'purpose_'
'price_'
'songs_'
'leave_'
'worth_'
'Cup_'
'anti_'
'70_'
'instead_'
'spent_'
'stone_'
'critical_'
'leaders_'
'ms_'
'changed_'
'als_'
'length_'
'passed_'
'tax_'
'completed_'
'parties_'
'Is_'
'Law_'
'cities_'
'sold_'
'tell_'
'ball_'
'km_'
'reports_'
'S'
'Health_'
'workers_'
'learn_'
'sed_'
'positive_'
'characters_'
'decided_'
'turned_'
't'
'Director_'
'ideas_'
'org_'
'rates_'
'F'
'il_'
'highest_'
'plans_'
'33_'
'appropriate_'
'Russia_'
'civil_'
'felt_'
'overall_'
'planning_'
'leadership_'
'trying_'
'lack_'
'Office_'
'ka_'
'skills_'
'f'
'are_'
'winning_'
'distribution_'
'website_'
'rich_'
'Jewish_'
'growing_'
'ys_'
'200_'
'factors_'
'middle_'
'famous_'
'rule_'
'Catholic_'
'lived_'
'context_'
'materials_'
'Art_'
'ze_'
'perhaps_'
'income_'
'reference_'
'whom_'
'mid_'
'returned_'
'novel_'
'offers_'
'noted_'
'build_'
'90_'
'ham_'
'sources_'
'Division_'
'performed_'
'remain_'
'D'
'placed_'
'appeared_'
'Even_'
'providing_'
'opened_'
'coach_'
'stop_'
'responsible_'
'facilities_'
'which_'
'é_'
'p'
'importance_'
'c'
'prior_'
'Then_'
'fans_'
'Here_'
'Bay_'
'listed_'
'34_'
'weeks_'
'cut_'
'appears_'
'=_'
'shot_'
'C'
'ses_'
'previously_'
'appear_'
'search_'
'opportunities_'
'Table_'
'helped_'
'practices_'
'Y'
'step_'
'den_'
'Z_'
'reading_'
'N'
'regional_'
'36_'
'historic_'
'views_'
'Paris_'
'map_'
'1989_'
'bad_'
'Japanese_'
'Henry_'
'Northern_'
'everyone_'
'simple_'
'hope_'
'carried_'
'logy_'
'interesting_'
'mission_'
'T'
'sts_'
'ping_'
'Hill_'
'claim_'
'goes_'
'travel_'
'paid_'
'ure_'
'Q_'
'elements_'
'letter_'
'houses_'
'easy_'
'laws_'
'feature_'
'protein_'
'multiple_'
'someone_'
'approximately_'
'Brown_'
'ves_'
'finally_'
'ee_'
'literature_'
'receive_'
'Life_'
'competition_'
'stay_'
'observed_'
'ned_'
'Her_'
'Los_'
'mass_'
'm'
'Mark_'
'talk_'
'opening_'
'remained_'
'regular_'
'37_'
'standards_'
'Minister_'
'Award_'
'centre_'
'pre_'
'street_'
'deep_'
'operation_'
'poor_'
'Pacific_'
'dy_'
'units_'
'serve_'
'I'
'Times_'
'authority_'
'effort_'
'computer_'
'measures_'
'lly_'
'reach_'
'capacity_'
'People_'
'beautiful_'
'announced_'
'Red_'
'oil_'
'method_'
'inside_'
'ad_'
'OF_'
'statement_'
'supported_'
'disease_'
'economy_'
'showed_'
'difference_'
'Congress_'
'P'
'scene_'
'mm_'
'numerous_'
'heard_'
'image_'
'sector_'
'Thus_'
'defined_'
'identity_'
'ran_'
'brother_'
'fight_'
'couple_'
'methods_'
'rise_'
'.'' ``_'
'route_'
'reached_'
';_'
'toward_'
'Soviet_'
'officials_'
'organizations_'
'Boston_'
'gives_'
'ger_'
'mentioned_'
'consider_'
'X'
'ded_'
'1988_'
'cent_'
'contrast_'
'religion_'
'plant_'
' -_'
'safety_'
'Green_'
'artists_'
'ki_'
'friend_'
'Britain_'
'News_'
'selected_'
'signed_'
'USA_'
'ial_'
'giving_'
'Studies_'
'ft_'
'protection_'
'senior_'
'institutions_'
'Your_'
'benefits_'
'Women_'
'academic_'
'eventually_'
'Texas_'
'knew_'
'stand_'
'determined_'
'river_'
'Jones_'
'Big_'
'distance_'
'unit_'
'freedom_'
'Mrs_'
'.; _'
'Another_'
'Sunday_'
'figure_'
'Q'
'except_'
'ri_'
'Inc_'
' £_'
'urban_'
'raised_'
'artist_'
'university_'
'clearly_'
'Lord_'
'Latin_'
'agreement_'
'75_'
'residents_'
'southern_'
'tour_'
'zation_'
'press_'
'Spanish_'
'writer_'
'La_'
'Irish_'
'rd_'
'expression_'
'generation_'
'relatively_'
'moment_'
'Grand_'
'notes_'
'hip_'
'park_'
'Their_'
'politics_'
'Please_'
'male_'
'relations_'
'mental_'
's'
'/ _'
'teaching_'
'award_'
'39_'
'38_'
'contains_'
'sing_'
'discussion_'
'regarding_'
'41_'
'weight_'
'42_'
'introduced_'
'island_'
'basic_'
'relevant_'
'ice_'
'III_'
'violence_'
'differences_'
'1'
'meaning_'
'code_'
'fine_'
'quickly_'
'improve_'
'housing_'
'gs_'
'environmental_'
'goals_'
'nine_'
'covered_'
'plays_'
'seem_'
'd'
'direction_'
'Sir_'
'hands_'
'bridge_'
'Florida_'
'native_'
'offered_'
'apply_'
'policies_'
'northern_'
'funding_'
'caused_'
'daily_'
'runs_'
'produce_'
'moving_'
'Why_'
'Z'
'Both_'
'separate_'
'48_'
'pressure_'
'who_'
'Social_'
'sales_'
'. '_'
'images_'
'Community_'
'condition_'
'despite_'
'Management_'
'else_'
'properties_'
'ended_'
'ries_'
'cally_'
'wasn_'
'traffic_'
'Old_'
'1980_'
'floor_'
'host_'
'becomes_'
'Bill_'
'W'
'structures_'
'Wales_'
'ones_'
'Israel_'
'reasons_'
'hour_'
'ely_'
'Cambridge_'
'U'
'youth_'
'ff_'
'western_'
'Foundation_'
'anyone_'
'ver_'
'Oxford_'
'vote_'
'ex_'
'immediately_'
'saying_'
'ay_'
'Joseph_'
'core_'
'1986_'
'nor_'
'1985_'
'Asia_'
'voice_'
'requirements_'
'ps_'
'chance_'
'k'
'E'
'items_'
'b'
'Centre_'
'from_'
'serious_'
'ney_'
'occurred_'
'tt_'
'Lee_'
'completely_'
'Angeles_'
'increasing_'
'alone_'
'95_'
'1987_'
'l'
'charge_'
'Martin_'
'ni_'
'processes_'
'choice_'
'box_'
'net_'
'01_'
'morning_'
'digital_'
'Because_'
'owned_'
'<_'
'Southern_'
'sexual_'
'developing_'
'battle_'
'sign_'
'speed_'
'interests_'
'Report_'
'v'
'setting_'
'55_'
'please_'
'concept_'
'Best_'
'cast_'
'closed_'
'applied_'
'crime_'
'authorities_'
'x'
'blood_'
'pass_'
'Academy_'
'green_'
'Each_'
'3'
'conducted_'
'Air_'
'target_'
'kept_'
'Carolina_'
'Saturday_'
'double_'
'demand_'
'obtained_'
'gas_'
'conference_'
'challenge_'
'Second_'
'Review_'
'tive_'
'Mar'
'Americans_'
'ess_'
'models_'
'Al_'
'Project_'
'44_'
'Valley_'
'attempt_'
'founded_'
'investment_'
'ancient_'
'huge_'
'Don_'
'continues_'
'4'
'Its_'
'older_'
'normal_'
'EU_'
'wall_'
'largely_'
'write_'
'audience_'
'1984_'
'league_'
'persons_'
'Conference_'
'tradition_'
'mark_'
'drug_'
'ships_'
'fourth_'
'represented_'
'heavy_'
'contract_'
'funds_'
'bar_'
'require_'
'elected_'
'administration_'
'flow_'
'Muslim_'
'lands_'
'Section_'
'43_'
'Johnson_'
'starting_'
'mostly_'
'interested_'
'dead_'
'issued_'
'piece_'
'tried_'
'manager_'
'gets_'
'gold_'
'ell_'
'stations_'
'Roman_'
'coast_'
'port_'
'foot_'
'ning_'
'appointed_'
'actions_'
'RO'
'Virginia_'
'train_'
'lin_'
'Middle_'
'officer_'
'begin_'
'latter_'
'r'
'extent_'
'initial_'
'birth_'
'Professor_'
'cs_'
'un_'
'regions_'
'becoming_'
'Bank_'
'1982_'
'Italian_'
'survey_'
'gender_'
'relationships_'
'peace_'
'benefit_'
'equipment_'
'stars_'
'ans_'
'Town_'
'sis_'
'res_'
'.' _'
'scientific_'
'и'
'ask_'
'Year_'
'decades_'
'extended_'
'ker_'
'ish_'
'Do_'
'reduced_'
'citizens_'
'ot_'
'>_'
'Human_'
'greatest_'
'j'
'Special_'
'powerful_'
'officers_'
'Games_'
'ins_'
'Har'
'forced_'
'thinking_'
'aspects_'
'chief_'
'machine_'
'picture_'
'Chief_'
'association_'
'break_'
'technical_'
', '
'Library_'
'fun_'
'1983_'
'De'
'watch_'
'combined_'
'99_'
'Just_'
'add_'
'1981_'
'?'' _'
'represent_'
'51_'
'ny_'
'negative_'
'di_'
'stated_'
'check_'
'store_'
'Eastern_'
'edition_'
'drive_'
'Mexico_'
'articles_'
'Italy_'
'smaller_'
'contemporary_'
'Zealand_'
'sa_'
'claims_'
'credit_'
'phone_'
'rural_'
'65_'
'Republic_'
'Star_'
'educational_'
'determine_'
'reality_'
'join_'
'Team_'
'fast_'
'Earth_'
'ue_'
' ('
'enjoy_'
'musical_'
'). ``_'
'sale_'
'strategy_'
'nts_'
'Only_'
'Man_'
'mainly_'
'ah_'
'recognized_'
'ky_'
'fields_'
'300_'
'L'
'papers_'
'ges_'
'tor_'
'shared_'
'gay_'
'Mar_'
'Friday_'
'isn_'
' ._'
'sequence_'
'walk_'
'Business_'
'35'
'e'
'comments_'
'significantly_'
'master_'
'documents_'
'estimated_'
'army_'
'ier_'
'billion_'
'remember_'
'respectively_'
'prepared_'
'committee_'
'Program_'
'au_'
'plants_'
'employees_'
'link_'
'ready_'
'perfect_'
'background_'
'47_'
'Mac'
'decisions_'
'teacher_'
'aged_'
'occur_'
'husband_'
'bus_'
'Who_'
'conflict_'
'ages_'
'eastern_'
'factor_'
'equal_'
'40'
'trial_'
'ics_'
'color_'
'accepted_'
'Jack_'
'latest_'
'allows_'
'Information_'
'49_'
'department_'
'opinion_'
'Post_'
'Today_'
'ped_'
'ER_'
'sion_'
'measure_'
'believed_'
'Despite_'
'ow_'
'Services_'
'detailed_'
'creating_'
'easily_'
'zing_'
'pretty_'
'discussed_'
'о'
'prison_'
'volume_'
'software_'
'identify_'
'hear_'
'communication_'
'originally_'
'referred_'
'Football_'
'DNA_'
'climate_'
'1st_'
'users_'
'square_'
'primarily_'
'pages_'
'53_'
'teachers_'
'j_'
'46_'
'requires_'
'positions_'
'happened_'
'animals_'
'yard_'
'Under_'
'Williams_'
'Note_'
'letters_'
'Championship_'
'division_'
'finished_'
'awarded_'
'experiences_'
'Philadelphia_'
'Jr_'
'supply_'
'i'
'damage_'
'actual_'
'guide_'
'failed_'
'directed_'
'Edward_'
'Columbia_'
'score_'
'employment_'
'Scott_'
'1979_'
'AND_'
'Taylor_'
'industrial_'
'trip_'
'relative_'
'formation_'
'dark_'
'connection_'
'justice_'
'Arts_'
'managed_'
'a'
'studio_'
'progress_'
'' (_'
'TA'
'figures_'
'Federal_'
'66_'
'.), _'
'Ko'
'follows_'
'2nd_'
'vehicle_'
'faith_'
'birds_'
'Secretary_'
'excellent_'
'52_'
'entered_'
'leaving_'
'maintain_'
'Michigan_'
'05_'
'agreed_'
'suggest_'
'Queen_'
'assessment_'
'principles_'
'ized_'
'wing_'
'answer_'
'interview_'
'certainly_'
'suggested_'
'remaining_'
'diversity_'
'responsibility_'
'ja'
'Creek_'
'Like_'
'strength_'
'gone_'
'standing_'
'die_'
'ium_'
'door_'
'internal_'
'wind_'
'wo'
'LE'
'debut_'
'challenges_'
'Mc'
'collected_'
'tree_'
'locations_'
'magazine_'
'essential_'
'Book_'
'operating_'
'ists_'
'entry_'
'Islam_'
'Home_'
'wrong_'
'selection_'
'ol_'
'firm_'
'Tre'
'ON_'
'otherwise_'
'ging_'
'stock_'
'reduce_'
'owner_'
'recognition_'
'van_'
'upper_'
'focused_'
'Georgia_'
'showing_'
'looks_'
'Born_'
'purposes_'
'adopted_'
'Or'
'goods_'
'Con'
'ster_'
'protect_'
'useful_'
'manner_'
'33'
'user_'
'Sea_'
'Lu'
'1970_'
'1975_'
'concerned_'
'tools_'
'extensive_'
'intended_'
'non'
'yards_'
'girls_'
'Er'
'IN_'
'phase_'
'onto_'
'5'
'shape_'
'enter_'
'Rights_'
'pattern_'
'examples_'
'Islamic_'
'Gi'
'Film_'
'applications_'
'exchange_'
'Early_'
'64_'
'zone_'
'memory_'
'Elizabeth_'
'path_'
'Spain_'
'alternative_'
'Plan_'
'arrived_'
'Greek_'
'@_'
'victory_'
'organized_'
'functions_'
'1972_'
'transport_'
'Over_'
'appearance_'
'Internet_'
'Amazon_'
'Civil_'
'Three_'
'onal_'
'suggests_'
'happy_'
'document_'
'patient_'
'expressed_'
'ens_'
'es'
'Area_'
'ore_'
'CR'
'transfer_'
'changing_'
'180'
'file_'
'treated_'
'Sports_'
'-- _'
'+_'
'37'
'message_'
'creation_'
'ming_'
'ENT_'
'De_'
'learned_'
'graduate_'
'labor_'
'nes_'
'ber'
'promote_'
'legislation_'
'looked_'
'bank_'
'instance_'
'programme_'
'ul_'
'matters_'
'sport_'
'arts_'
'pe_'
'Ohio_'
'request_'
'Series_'
'landscape_'
'slightly_'
'Louis_'
'screen_'
'authors_'
'minute_'
'Station_'
'extremely_'
'0'
'1973_'
'Once_'
'ni'
'ures_'
'approved_'
'Tom_'
'dedicated_'
'54_'
' (``_'
'Bra'
'domestic_'
'1978_'
'revealed_'
'bra'
'enemy_'
'buy_'
'Family_'
'A'
'und_'
'biggest_'
'frequently_'
'plus_'
'homes_'
'Part_'
'seemed_'
'Justice_'
'Ltd_'
'38'
'steps_'
'una'
'vision_'
'bed_'
'maximum_'
'executive_'
'ana_'
'ze'
'facility_'
'speak_'
'web_'
'temperature_'
'1968_'
'Sonic_'
'6'
'hotel_'
'solution_'
'Trade_'
'Chris_'
'classes_'
'Policy_'
'AT'
'assistance_'
'task_'
'prevent_'
'meant_'
'Gra'
'; (_'
'card_'
'affected_'
'languages_'
'bodies_'
'straight_'
'sample_'
'controlled_'
'grew_'
'RE'
'copy_'
'Shi'
'Time_'
'removed_'
'blue_'
'Well_'
'Young_'
'avoid_'
'ir_'
'experienced_'
'ahead_'
'Trump_'
'LO'
'Navy_'
'exist_'
'Google_'
'command_'
'aid_'
'trees_'
'participants_'
'concerns_'
'patterns_'
'marine_'
'а'
'cancer_'
'broad_'
') - _'
'Land_'
'containing_'
'Force_'
'eyes_'
'establish_'
'tors_'
'Toronto_'
'1977_'
'episode_'
'beat_'
'Before_'
'connected_'
'Parliament_'
'ates_'
'pm_'
'mi_'
'1976_'
'achieve_'
'perspective_'
'spread_'
'Records_'
'widely_'
'origin_'
'jobs_'
'Jan_'
'links_'
'relation_'
'sort_'
'purchase_'
'block_'
'1969_'
'techniques_'
'library_'
'serving_'
'chapter_'
'Atlantic_'
'fighting_'
'fair_'
'secondary_'
'carry_'
'attended_'
'cycle_'
'Long_'
'rare_'
'failure_'
'02_'
'EC'
'Where_'
'portion_'
'behavior_'
'sister_'
'border_'
'Du'
'calls_'
'concern_'
'Such_'
'57_'
'wa_'
'ating_'
': (_'
'ii_'
'Scotland_'
'partner_'
'1974_'
'Jackson_'
'contain_'
'boy_'
'berg_'
'replaced_'
'resulting_'
'edge_'
'LI'
'decade_'
'Avenue_'
'marked_'
'defense_'
'description_'
'Wilson_'
'About_'
'contributions_'
'twenty_'
'storm_'
'safe_'
'ina'
'surrounding_'
'reviews_'
'Pro'
'combination_'
'Sydney_'
'eye_'
'closely_'
'ut_'
'Monday_'
'vs_'
'179'
'Fa'
'е'
'row_'
'finding_'
'delivery_'
'Ta'
'speech_'
'sen_'
'gh_'
'ER'
'za'
') '
'existence_'
'CD_'
'da'
'bound_'
'profile_'
'sets_'
'museum_'
'girl_'
'powers_'
'seasons_'
'y'
'gun_'
'va_'
'34'
'hospital_'
'Ash'
'brain_'
'Love_'
'TO_'
'41'
'ill_'
'mer_'
'28'
'Ju'
' ( _'
'sides_'
'recording_'
'hi_'
'56_'
'wish_'
'Indiana_'
'thousands_'
'NI'
'Festival_'
'roles_'
'claimed_'
'prices_'
'display_'
'1971_'
'represents_'
'minister_'
'Da'
'CA_'
'59_'
'category_'
'ology_'
'campus_'
'72_'
'participation_'
'options_'
'window_'
'ians_'
'kids_'
'fit_'
'estate_'
'hot_'
'agency_'
'about_'
'tz_'
'ence_'
'spot_'
'sive_'
'DE'
'Gu'
'medium_'
'NFL_'
'investigation_'
'defeated_'
'scored_'
'coverage_'
'studied_'
'marketing_'
'19th_'
'committed_'
'Andrew_'
'h'
'discovered_'
'budget_'
'infrastructure_'
'unless_'
'Mu'
'Daniel_'
'spring_'
'CS'
'conservation_'
'Police_'
'hill_'
'NA'
'gate_'
'diverse_'
'Frank_'
'400_'
'Pennsylvania_'
'acts_'
'forest_'
'indicate_'
'SE'
'Media_'
'pre'
'System_'
'Can_'
'Ed_'
'El'
'ility_'
'acid_'
'send_'
'Ministry_'
'Executive_'
'tracks_'
'roads_'
'characteristics_'
'39'
'debate_'
'ically_'
'boat_'
'hundred_'
'adult_'
'Ya'
'te'
'Rock_'
'lay_'
'formal_'
'1967_'
'conduct_'
'achieved_'
'61_'
'what_'
'publication_'
'fell_'
'editor_'
'churches_'
'Vol_'
'Te'
'20th_'
'consistent_'
'featured_'
'Last_'
'IT'
'balance_'
'truth_'
'mixed_'
'leads_'
'commitment_'
'NE'
'Bre'
'weather_'
'rt_'
'sky_'
'facts_'
'classic_'
'ght_'
'choose_'
'Olympic_'
'criminal_'
'launched_'
'minor_'
'. -- _'
'ci'
'SI'
'begins_'
'Kar'
'pair_'
'Des'
'Tor'
'ite_'
'ce'
'courses_'
'Wa'
'visitors_'
'ged_'
'Na'
'Free_'
'populations_'
'evening_'
'har'
'quarter_'
'SA'
'speaking_'
'Member_'
'contribution_'
'lies_'
'ko_'
'session_'
'Christ_'
'ward_'
'SS'
'Joe_'
'1964_'
'182'
'ld_'
'implementation_'
'ry'
'bottom_'
'RA'
'Lo'
'58_'
'indicated_'
'hood_'
'Supreme_'
'leaves_'
'Children_'
'Bar'
'85_'
'perform_'
'Za'
'supporting_'
'w'
'farm_'
'Coast_'
'dance_'
'flight_'
'divided_'
'Cross_'
'platform_'
'ngs_'
'gain_'
'tool_'
'specifically_'
'agents_'
'Top_'
'depth_'
'exactly_'
'earned_'
'detail_'
'Empire_'
'brief_'
'crisis_'
'indeed_'
'creative_'
'earth_'
'Prince_'
'improved_'
'attacks_'
'circumstances_'
'actor_'
'agencies_'
'proteins_'
'Radio_'
'n'
'typically_'
'resulted_'
'US'
'holds_'
'1960_'
'keeping_'
' ; _'
'ji_'
'IS_'
'multi_'
'do'
'MA_'
'03_'
'je'
'over'
'agree_'
'myself_'
'ious_'
'ga'
'expect_'
'Dar'
'63_'
'g'
'nuclear_'
'accounts_'
'Will_'
'43'
'Jews_'
'resource_'
'tournament_'
'affect_'
'Little_'
'Le'
'advantage_'
'crew_'
'ero'
'NO'
'Col'
'Ms_'
'Mo'
'fellow_'
'aircraft_'
'ee'
'62_'
'ro_'
'channel_'
'AN'
'writers_'
'42'
'°_'
'proper_'
'injury_'
'error_'
'taught_'
'elections_'
'consists_'
'logical_'
'awards_'
'Therefore_'
'Let_'
'Kingdom_'
'holding_'
'regard_'
'glass_'
'bill_'
'painting_'
'binding_'
'150_'
'planned_'
'discuss_'
'09_'
'grow_'
'Line_'
'DI'
'partners_'
'engineering_'
'cm_'
'LA'
'advanced_'
'04_'
'agricultural_'
'adults_'
'Students_'
'ple'
'nice_'
'newspaper_'
'businesses_'
'ga_'
'settlement_'
'Cro'
'territory_'
'Mike_'
'li_'
'constructed_'
'increasingly_'
'meetings_'
'44'
'framework_'
'ied_'
'expansion_'
'motion_'
'architecture_'
'appeal_'
'entirely_'
'camp_'
'FA'
'Victoria_'
'singer_'
'Sha'
'wants_'
'ae_'
'200'
'orders_'
'derived_'
'soldiers_'
'customers_'
'spirit_'
'So'
'ethnic_'
'minimum_'
'grade_'
'soil_'
'pop_'
'talking_'
'save_'
'z'
'device_'
'Those_'
'Francisco_'
'typical_'
'filled_'
'Bob_'
'aware_'
'Major_'
'happen_'
'ational_'
'!'' _'
'Facebook_'
'32'
'50'
'journey_'
'prominent_'
'08_'
'sub_'
'markets_'
'Singapore_'
'under'
'En'
'metal_'
'Ba'
'du_'
'movies_'
'ge'
'nearby_'
'ide_'
'Ri'
'q_'
'possibly_'
'RA_'
'introduction_'
'Constitution_'
'accept_'
'Cho'
'Finally_'
'Among_'
'feeling_'
'lists_'
'Blue_'
'bility_'
'Good_'
'inspired_'
'heritage_'
'yn'
'cars_'
'sections_'
'edit_'
'opposition_'
'qua'
'acting_'
'Mas'
'IS'
'Jo'
'subjects_'
'sought_'
'ka'
'comprehensive_'
'centuries_'
'Technology_'
'1945_'
'agent_'
'Power_'
'Bio'
'explain_'
'twice_'
'transportation_'
'Yet_'
'DA'
'union_'
'ji'
'29'
'draw_'
'trust_'
'concentration_'
'Bur'
'ā'
'mail_'
'definition_'
'Labour_'
'Asian_'
'favorite_'
'kin_'
'notice_'
'Head_'
'files_'
'06_'
'Atlanta_'
'AL'
'Mer'
'Article_'
'Ni'
'45'
'confirmed_'
'Dun'
'iso'
'YouTube_'
'gene_'
'Egypt_'
'shed_'
'bly_'
'winner_'
'Dan'
'animal_'
'51'
'za_'
'maintained_'
'reflect_'
'signs_'
'ja_'
'brand_'
'Davis_'
'ret'
'chosen_'
'granted_'
'strategies_'
'ino'
'Thursday_'
'producer_'
'Holy_'
'loved_'
've'
'Study_'
'Prime_'
'clinical_'
'fear_'
'principal_'
'unknown_'
'aim_'
'advice_'
'1965_'
'Pakistan_'
'67_'
'Dutch_'
'ö'
'skin_'
'Modern_'
'winter_'
'fa'
'advance_'
'ba_'
'36'
'subsequent_'
'Bridge_'
'73_'
'head'
'establishment_'
'Ha'
'1966_'
'vo'
'employed_'
'significance_'
'explained_'
'explore_'
'findings_'
'corporate_'
'comparison_'
'boys_'
'ser'
'habitat_'
'Wednesday_'
'driving_'
'contained_'
'mis'
'extra_'
'Country_'
'couldn_'
'causes_'
'components_'
'reduction_'
'maps_'
'Sim'
'Ku'
'Ber'
'ization_'
'Following_'
'Hospital_'
'print_'
'ti_'
'drawn_'
'Yes_'
'Par'
'CO'
'Open_'
'theme_'
'om_'
'MO'
'Marine_'
'relating_'
'titles_'
'BO'
'Men'
'proved_'
'threat_'
'Yu'
'Rev_'
'cation_'
'CC'
'evolution_'
'Cor'
'enjoyed_'
'coastal_'
'68_'
'visited_'
'ery_'
'duty_'
'Muslims_'
'Jesus_'
'therapy_'
'offering_'
'fo'
'cold_'
'rank_'
'Historical_'
'Local_'
'linked_'
'Four_'
'reaction_'
'post'
'mine_'
'71_'
'1950_'
'ber_'
'sho'
'Web_'
'dly_'
'Brazil_'
'thanks_'
'tra'
'sell_'
'load_'
'delivered_'
'Awards_'
'Steve_'
'30'
'programming_'
'л'
'Qua'
'scheme_'
'statements_'
'AR'
'wild_'
'le'
'Alexander_'
'vehicles_'
'69_'
'up'
'rooms_'
'CA'
'email_'
'registered_'
'7'
'outstanding_'
'passing_'
'Are_'
'ch'
'exercise_'
'xi'
'tells_'
'Ne'
'serves_'
'Man'
'HO'
'dates_'
'item_'
'considerable_'
'tur'
'AS'
'spend_'
'maintenance_'
'grant_'
'residential_'
'ä'
'ob'
'Chapter_'
'database_'
'Corporation_'
'truly_'
'participate_'
'MA'
'micro'
'profit_'
'external_'
'corner_'
'stands_'
'Census_'
'77_'
'personnel_'
'Security_'
'recommended_'
'measured_'
'towns_'
'Age_'
'ne'
'O'
'Bu'
'streets_'
'acquired_'
'Illinois_'
'fore'
'bi'
'Use_'
'Order_'
'Mus'
'distinct_'
'seeing_'
'Though_'
'78_'
'correct_'
'describe_'
'Christians_'
'Jim_'
'Data_'
'ches_'
'owners_'
'ES_'
'Ti'
'Go'
'wn_'
'visual_'
'ts'
'literary_'
'07_'
'concerning_'
'Global_'
'ends_'
'PA'
'watching_'
'labour_'
'super'
'degrees_'
'doubt_'
'SO'
'Port_'
'fla'
'Field_'
'fan_'
'dry_'
'Mi'
'Tra'
'hi'
'fresh_'
'principle_'
'Morgan_'
'younger_'
'eds_'
'allowing_'
'Vo'
'Master_'
'del_'
'troops_'
'Nations_'
'photos_'
'iron_'
'20'
'. - _'
'mile_'
'intellectual_'
'procedures_'
'yl_'
'ously_'
'representative_'
'Medical_'
'strategic_'
'bought_'
'driven_'
'captured_'
'amazing_'
'EN'
'somewhat_'
'ana'
'Kat'
'Wisconsin_'
'height_'
'bringing_'
'absence_'
'Rome_'
'institution_'
'draft_'
'ving_'
'samples_'
'independence_'
'SS_'
'photographs_'
'occurs_'
'To'
'PA_'
'BBC_'
'scope_'
'Pe'
'Stephen_'
'Any_'
'('
'moral_'
'Manchester_'
'Missouri_'
'payment_'
'networks_'
'Ken'
'candidate_'
'resolution_'
'partnership_'
'man'
'Mon'
'Un'
'Sin'
'IT_'
'yo'
'se'
'Dra'
'bury_'
'ko'
'walls_'
'helping_'
'sla'
'electronic_'
'extension_'
'46'
'seek_'
'ie'
'sufficient_'
'min_'
'Class_'
'uk_'
'pro_'
'ir'
'contribute_'
'HA'
'photo_'
'GA'
'Tuesday_'
'01'
'governments_'
'Pi'
'pick_'
'Oregon_'
'provision_'
'BE'
'81_'
'constant_'
'percentage_'
'Point_'
'dated_'
'selling_'
'strongly_'
'pa'
'designated_'
'ai_'
'secret_'
'joint_'
'debt_'
'West'
'practical_'
'ture_'
'49'
'clubs_'
'si'
'retired_'
'engine_'
'guy_'
'revenue_'
'entitled_'
'Ce'
' <_'
'Mor'
'AC'
'sy_'
'Super_'
'Ki'
'CE_'
'possibility_'
'option_'
'chain_'
'go'
'47'
'edited_'
'io_'
'assets_'
'zi'
'Sta'
'FI'
'anti'
'discrimination_'
'arms_'
'Tu'
'Night_'
'Cra'
'Eli'
'48'
'Ryan_'
'с'
'tly_'
'ood_'
'lake_'
'friendly_'
'em_'
'76_'
'91_'
'seat_'
'purchased_'
'fiction_'
'Tri'
'sharing_'
'Kansas_'
'categories_'
'Water_'
'Hollywood_'
'Poland_'
'dynamic_'
'Korea_'
'if'
'engaged_'
'52'
'stic_'
'Kong_'
'83_'
'In'
'88_'
'RI'
'+ _'
'ori'
'cash_'
'Forest_'
'Arthur_'
'CI'
'objects_'
'Sho'
'Be'
'ordered_'
'seeking_'
'Military_'
'interpretation_'
'ing'
'effectively_'
'Pa'
'Gar'
'so'
'solutions_'
'periods_'
'Ser'
'00'
'74_'
'substantial_'
'none_'
'storage_'
'ma'
'administrative_'
'transition_'
'districts_'
'San'
'8'
'Political_'
'faculty_'
''') _'
'ss'
'31'
'foundation_'
'q'
'lity_'
'í'
'enable_'
'Captain_'
'protected_'
'insurance_'
'approaches_'
'burg_'
'NC'
'stress_'
'1970s_'
'26'
'bo'
'Jerusalem_'
'Go_'
'devices_'
'mouth_'
'mobile_'
'solid_'
'regulation_'
'Iraq_'
'neighborhood_'
'grown_'
'84_'
'é'
'eni'
'Historic_'
'grounds_'
'Tro'
'MS_'
'wonderful_'
'responses_'
'declared_'
'pit'
'Economic_'
'calling_'
'IV_'
'ED_'
'Arab_'
'ks'
'Fan'
'confidence_'
'regime_'
'sco'
'drugs_'
'AN_'
'reporting_'
'pieces_'
'wave_'
'limit_'
'oral_'
'Do'
'Cha'
'raise_'
'Ara'
'.). _'
'mountain_'
' ) _'
': '_'
'fundamental_'
'founder_'
'bs_'
'ultimately_'
'ly'
'indicates_'
'Native_'
'index_'
'rail_'
'knows_'
'Miss_'
'97_'
'inter'
'contributed_'
'Min'
'fixed_'
'Syrian_'
'Massachusetts_'
'unable_'
'massive_'
'Ro'
'regulations_'
'70'
'she'
'Network_'
'Commonwealth_'
'philosophy_'
'94_'
'initially_'
'is'
'performing_'
'Theatre_'
'domain_'
'Democratic_'
'fifth_'
'Read_'
'candidates_'
'Che'
'shi'
'work'
'Syria_'
'lla_'
'den'
'Chairman_'
'1980s_'
'starts_'
'attempts_'
'stream_'
'prime_'
'desire_'
'han_'
'flu'
'ST_'
'war'
'receiving_'
'dependent_'
'SU'
'Pen'
'cra'
'Code_'
'generated_'
'Nov_'
'):_'
'nations_'
'argument_'
'reform_'
'Kent_'
'assistant_'
'crowd_'
'courts_'
'Sub'
'scenes_'
'IC'
'92_'
'wa'
'testing_'
'stores_'
'gained_'
'sh'
'guys_'
'Ly'
'interaction_'
'struggle_'
'plane_'
'hand'
'faced_'
'Twitter_'
'Po'
'Later_'
'60'
'... (_'
'lt'
'Lewis_'
'Every_'
'missing_'
'professor_'
'oni'
'copies_'
'promotion_'
'talent_'
'sto'
'newly_'
'mor'
'assigned_'
'narrative_'
'ati'
','' ``_'
'93_'
'monitoring_'
'ters_'
'gan'
'Wil'
'3rd_'
'be'
'Lea'
'sti'
'Mal'
'hearing_'
'shop_'
'permanent_'
'slow_'
'attend_'
'Natural_'
'tu'
'spending_'
'chemical_'
'increases_'
'Allen_'
'athletes_'
'sons_'
'od_'
'belief_'
'membership_'
'waters_'
'86_'
'peak_'
'charges_'
'Trust_'
'clean_'
'Ka'
'ional_'
'Ver'
' + _'
'mention_'
'thank_'
'geo'
'couples_'
'ingly_'
'drama_'
'shift_'
'fund_'
'us'
'si_'
'gar'
'comment_'
'DO'
'understood_'
'cer'
'Jersey_'
'matches_'
'composition_'
'basketball_'
'abuse_'
'Islands_'
'> _'
'yourself_'
'windows_'
'element_'
'ck'
'demonstrated_'
'criteria_'
'im_'
'ral_'
'ele'
'EM'
'obvious_'
'ina_'
'lie_'
'Ci'
'1963_'
'.(_'
'CD'
'Show_'
'Through_'
'broken_'
'Officer_'
'98_'
'Duke_'
'Fri'
'DC_'
'obtain_'
'ae'
'Mari'
'improvement_'
'actors_'
'Van_'
'hundreds_'
'beach_'
'Rec'
'corruption_'
'Ali_'
'provincial_'
'ter'
'79_'
'ng'
'gra'
'Memorial_'
'ownership_'
'Scottish_'
'Engineering_'
'jo'
'Several_'
'provisions_'
'cur'
'1990s_'
'pri'
'herself_'
'$_'
'involvement_'
'nk'
'expanded_'
'broadcast_'
'neither_'
'ES'
'ities_'
'Republican_'
'1960s_'
'BA'
'involving_'
'Saint_'
'scholars_'
'AD'
'frame_'
'here'
'launch_'
'brings_'
'accordance_'
'offices_'
'Miller_'
'Further_'
'influenced_'
'weekend_'
'ked_'
'Books_'
'describes_'
'welcome_'
'processing_'
'sea'
'Manager_'
'whereas_'
'whatever_'
'Sun_'
'mg_'
'immediate_'
'awareness_'
'Deb'
'signal_'
'format_'
'foot'
'commonly_'
'operate_'
'charged_'
'Heritage_'
'pool_'
'decline_'
'Sand'
'Me_'
'ya'
'PE'
'Beach_'
'?_'
'53'
'Oct_'
'intelligence_'
'operated_'
'ili'
'87_'
'1940_'
'Os'
'posted_'
'pin'
'82_'
'eri'
'entertainment_'
'component_'
'57'
',' _'
'branch_'
'recognize_'
'eu'
'capable_'
'Jean_'
'Lincoln_'
'27'
'Or_'
'ü'
'observations_'
'1962_'
'usly_'
'ea_'
'oon_'
'Foreign_'
'acres_'
'Annual_'
'bird_'
'Instead_'
'object_'
'pon'
'Kan'
'ible_'
'poly'
'96_'
'walking_'
'caught_'
'stuff_'
'guitar_'
'á'
'Ja'
'successfully_'
'61'
'178'
'Ban'
'Route_'
'Gor'
'vast_'
'fri'
'apparently_'
'air'
'Bal'
'Sciences_'
'Battle_'
'%) _'
'mi'
'wait_'
'mar'
'performances_'
'1900_'
'sounds_'
'Ru'
'uni'
'structural_'
'plot_'
'ise_'
'ski_'
'Fort_'
'dog_'
'Indians_'
'informed_'
'label_'
'brown_'
'limits_'
'Bishop_'
'AL_'
'vin'
'emotional_'
'1948_'
'Care_'
'encourage_'
'Ann_'
'Ale'
'Bol'
'Affairs_'
'flat_'
'Patrick_'
'visible_'
'kill_'
'me'
'breeding_'
'maybe_'
'9'
'severe_'
'ND'
'.: _'
'helps_'
'gen_'
'pain_'
'Aboriginal_'
'ington_'
')(_'
'Ca'
'Game_'
'presentation_'
'spiritual_'
'on'
'Liverpool_'
'250_'
'exhibition_'
'Gri'
'scientists_'
'oo'
'med_'
'shares_'
'181'
'EL'
'Charlie_'
'mu'
'Mount_'
'traditions_'
'emergency_'
'ME'
'banks_'
'Dec_'
'HI'
'laid_'
'alcohol_'
'Tar'
'fashion_'
'Up'
'Lady_'
'Wo'
'panel_'
'cal'
'ridge_'
'mix_'
'equivalent_'
'integrated_'
'schedule_'
'ak_'
'Senior_'
'featuring_'
'scoring_'
'ju'
'ement_'
'Far'
'Lei'
'wine_'
'judge_'
'ona'
'coal_'
'Ed'
'MM'
'ets_'
'Wal'
'Is'
'covers_'
'representation_'
'1941_'
'evaluation_'
'Dis'
'boundaries_'
'resistance_'
'wouldn_'
'wealth_'
'alongside_'
'pictures_'
'indi'
'Ke'
'ered_'
'Ji'
'regarded_'
'hu'
'89_'
'Senate_'
'opposite_'
'Pay'
'''_'
'een_'
'Bor'
'mo'
'familiar_'
'semi_'
'ke'
'%, _'
'finds_'
'Inter'
'Her'
'Christmas_'
'composed_'
'shaped_'
'invited_'
'colonial_'
'tropical_'
'Colorado_'
'settled_'
'province_'
'Indeed_'
'OR'
'facing_'
'ane_'
'railway_'
'Survey_'
'yn_'
'organisations_'
'advertising_'
'MP'
'ents_'
'Pra'
'destroyed_'
'An'
'Pre'
'1961_'
'jazz_'
'Moreover_'
'Building_'
'identification_'
'el'
'violent_'
'MS'
'18'
'ker'
'impossible_'
'Assembly_'
'joining_'
'Nu'
'Bureau_'
'ur'
'continuing_'
'approval_'
'Dor'
'adjacent_'
'bea'
'carrying_'
'nar'
'PI'
'63'
'4th_'
'El_'
'broke_'
'valuable_'
'racial_'
'hire_'
'suffered_'
'90'
'г'
'championship_'
'publications_'
'mer'
'fill_'
'tests_'
'emphasis_'
'Furthermore_'
'cas'
'weapons_'
'farmers_'
'cies_'
'). (_'
'Good'
'assist_'
'estimates_'
'ea'
'Tony_'
'Authority_'
'turns_'
'marks_'
'Wood'
'customer_'
'aspect_'
'Ze'
'distributed_'
'capture_'
'FE'
'tone_'
'readers_'
'parking_'
'islands_'
'argued_'
'Place_'
'vol_'
'researchers_'
'Feb_'
'.'
'rose_'
'lots_'
'behaviour_'
'Khan_'
'Culture_'
'texts_'
'ase_'
'Houston_'
'Cli'
'secure_'
'ongoing_'
'layer_'
'finish_'
'Regiment_'
'competitive_'
'Ar'
'apart_'
'1944_'
'ain_'
'refer_'
'TI'
'stopped_'
'adding_'
'100'
'communications_'
'stages_'
'Kra'
'54'
'tend_'
'Ontario_'
'ht'
'council_'
'trained_'
'movements_'
'rising_'
'dropped_'
'Main_'
'kes_'
'il'
'cooperation_'
'Car'
'Be_'
'permission_'
'TO'
'Obama_'
'necessarily_'
'fly_'
'dri'
'developments_'
'classical_'
'can'
'bal'
'proud_'
'Fund_'
'AM_'
'600_'
'li'
'BC_'
'cu'
'Sri_'
'garden_'
'unde'
'oe'
'Se'
'producing_'
'wi'
'translation_'
'out'
'roots_'
'Brian_'
'Administration_'
'preparation_'
'consideration_'
'Ab'
'ica_'
'Vice_'
'stable_'
'ranked_'
'procedure_'
'drop_'
'Polish_'
'narrow_'
'VA'
'consumption_'
'fishing_'
'reserve_'
'constitutional_'
'presents_'
'Ham'
'ho'
'headed_'
'equality_'
'WA'
'NP'
'ros'
'attached_'
'Geo'
'sun_'
'worldwide_'
'motor_'
'universities_'
'don'
'Sto'
'spoke_'
'Championships_'
'AS_'
'at'
'Bowl_'
'opposed_'
'concepts_'
'thi'
'sequences_'
'Corps_'
'ride_'
'incident_'
'inde'
'Sar'
'Lar'
'' '_'
'definitely_'
'recovery_'
'Ur'
'No'
'brothers_'
'zo'
'o'
'de'
'concert_'
'losing_'
'Ger'
'strike_'
'Century_'
'Regional_'
'efficient_'
'cho'
'electric_'
'IA'
'Box_'
'yellow_'
'an'
'Fire_'
'ast'
'Francis_'
'mid'
'201'
'split_'
'quick_'
'Simon_'
'internet_'
'entrance_'
'du'
'lose_'
'subsequently_'
'eb'
'Au'
'800_'
'routes_'
'ius_'
'heat_'
'interviews_'
'Space_'
'Pin'
'*_'
'auto'
'Third_'
'ances_'
'heads_'
'falls_'
'situated_'
'videos_'
'breaking_'
'Zi'
'Greece_'
'reasonable_'
'elsewhere_'
'ung_'
'nal_'
'albums_'
'wear_'
'gov_'
'eat_'
'collective_'
'affairs_'
'Clark_'
'Bro'
'technologies_'
'Sat'
'extreme_'
'cing_'
'ef'
'apparent_'
'Kon'
'objective_'
'1939_'
'transferred_'
'lu'
'ak'
'Hotel_'
'vely_'
'occupied_'
'Je'
'cards_'
'Governor_'
'defeat_'
'submitted_'
'density_'
'champion_'
'Chi'
'rc'
'enti'
'Golden_'
'ov_'
'haven_'
'encouraged_'
'che'
'plate_'
'exclusive_'
'scores_'
'prove_'
'suitable_'
'integration_'
'Test_'
'honor_'
'liberal_'
'ending_'
'dangerous_'
'Va'
'1956_'
'teri'
'rin'
'turning_'
'At'
'#_'
'guard_'
'р'
'count_'
'0s_'
'murder_'
'interactions_'
'1959_'
'express_'
'captain_'
'beauty_'
'Gro'
'è'
'supposed_'
'Water'
'Dal'
'jurisdiction_'
'1958_'
'regularly_'
'ock_'
'dream_'
'closer_'
'NY_'
'AD_'
'rapidly_'
'ia'
'examined_'
'21'
'), (_'
'/'
'silver_'
'Anderson_'
'touch_'
'ny'
'Based_'
'AC_'
'1947_'
'tt'
'Ag'
'Kevin_'
'Highway_'
'refers_'
'Lane_'
'Ak'
'back'
'Bus'
'fy_'
'Agency_'
'topics_'
'Ali'
'56'
'120_'
'Bon'
'boundary_'
'Hol'
'ideal_'
'fied_'
'Live_'
'fuel_'
'Thompson_'
'Convention_'
'impacts_'
'collaboration_'
'cool_'
'dominant_'
'ó'
'addressed_'
'consequences_'
'SM'
'Berlin_'
'Que'
'ez_'
':'
'exception_'
'accurate_'
'VI'
'Story_'
'op_'
'fe'
'mann_'
'lane_'
'Bee'
'hall_'
'def'
'62'
'temple_'
'Hen'
'Air'
'su'
'programmes_'
'van'
'chu'
'rapid_'
'Final_'
'La'
'IL_'
'â_'
'nc'
'peri'
'Pan'
'ri'
'free'
'Men_'
'ett_'
'ON'
'guests_'
'genes_'
'al'
'Within_'
're'
'ord_'
'von_'
'supports_'
'GI'
'st'
'manage_'
'heavily_'
'trans'
'au'
'ala'
'chart_'
'ds'
'Minnesota_'
'CT'
'inner_'
'stood_'
'Mol'
'Ben_'
'rap'
'lin'
'ire_'
'Santa_'
'exposed_'
'ria_'
'thousand_'
'topic_'
'exists_'
'cla'
'Ana'
'wins_'
'outcomes_'
'functional_'
'chair_'
'AM'
'assumed_'
'restaurant_'
'pur'
'Le_'
'hair_'
'concrete_'
'ress_'
'Ho'
'Cape_'
'eta'
'adi'
'NT'
'%. _'
'fought_'
'ep'
'childhood_'
'ratio_'
'nic_'
'ders_'
'ceremony_'
'household_'
'ham'
'depending_'
'Op'
'genus_'
'armed_'
'reaching_'
'ering_'
'Switzerland_'
'baby_'
'resident_'
'ante'
'poetry_'
'dis'
'parish_'
'poverty_'
'lo_'
'horse_'
'representatives_'
'Si'
'id'
'frequency_'
'willing_'
'mit'
'merely_'
'cultures_'
'references_'
'medicine_'
'Take_'
'64'
'une'
'Stra'
': '
'.-_'
'sit_'
'ro'
'sli'
'enforcement_'
'1930_'
'demonstrate_'
'decide_'
'Mad'
'Muhammad_'
'Ten'
'Gordon_'
'LL'
'Harvard_'
'1942_'
','
'yer_'
'55'
'ject'
'Play'
'1955_'
'ip'
'Between_'
'wider_'
'manufacturing_'
'improvements_'
'ena'
'For'
'dam_'
'counter'
'Per'
'MP_'
'1954_'
'spa'
'consumer_'
'Sil'
'Page_'
'Mountain_'
'Get_'
'modified_'
'democracy_'
'tro'
'healthy_'
'Harry_'
'1949_'
'Anne_'
'scheduled_'
'Sal'
'ms'
'wise_'
'wedding_'
'steel_'
'exciting_'
'rain_'
'victims_'
'gas'
'forth_'
'writes_'
'ok_'
'ale_'
'arrested_'
'baseball_'
'Howard_'
'hole_'
'arian_'
'rel'
'ING_'
'BU'
'vice_'
'retail_'
'notable_'
'kh'
'drawing_'
'analyses_'
'proof_'
'Red'
'mode_'
'fre'
'del'
'IE'
'CT_'
'Revolution_'
'deliver_'
'refused_'
'emerged_'
'char'
'recommendations_'
'considering_'
'UN'
') ``_'
'statistics_'
'proposal_'
'driver_'
'Trans'
'Bell_'
'UN_'
'Tha'
'Cher'
'moves_'
'camera_'
'Son'
'og'
'va'
'returns_'
'waiting_'
'ick_'
'happens_'
'Sher'
'AP'
'18th_'
'sensitive_'
'exposure_'
'ad'
'IM'
'organisation_'
'hor'
'War'
'hits_'
'ban_'
'List_'
'lat'
'duties_'
'reputation_'
'behalf_'
'cited_'
'Welsh_'
'Nan'
'stones_'
'mining_'
'Pro_'
'ane'
'Freedom_'
'cks_'
'AB'
'th'
'industries_'
'Mel'
'ld'
'collections_'
'ac'
'IC_'
'engage_'
'Pu'
'Computer_'
'orientation_'
'Right_'
'Walter_'
'variation_'
'singing_'
'Oh_'
'prisoners_'
'Nature_'
'ta'
'experiments_'
'escape_'
'Kha'
'Den'
'conclusion_'
'Di'
'CE'
'Adam_'
'usual_'
'Sel'
'mechanism_'
'humans_'
'con'
'Gold_'
'connections_'
'PP'
'colleagues_'
'correspondence_'
'Daily_'
'craft_'
'Mos'
'variable_'
'Netherlands_'
'Kentucky_'
'po'
'accessible_'
'WI'
'listen_'
'semi'
'WE'
'prepare_'
'bro'
'arrival_'
'ano'
'Star'
'gla'
'accessed_'
'Moscow_'
'initiative_'
'PRO'
'Bri'
'Aug_'
'remarkable_'
'ars_'
'representing_'
'Sea'
'LL_'
'1920_'
'equally_'
'sar'
'printed_'
'Wei'
'Rod'
'sin'
'bands_'
'The'
'shooting_'
'select_'
'ids_'
'putting_'
'parent_'
'oo_'
'Ye'
'implemented_'
'trend_'
'hop_'
'spaces_'
'sand_'
'asking_'
'qualified_'
'Tendulkar_'
'TT'
'IN'
'Members_'
'1957_'
'beliefs_'
'grand_'
'anxiety_'
'documentary_'
'journal_'
'Nor'
'ole'
'sustainable_'
'villages_'
'ssi'
'potentially_'
'endo'
'he'
'soul_'
'ou'
'dollars_'
'explains_'
'View_'
'solo_'
'yd'
'sse'
'funded_'
'Mun'
'experts_'
'ani'
'amounts_'
'Val'
'para'
'ine'
'58'
'trends_'
'impressive_'
'gift_'
'enhance_'
'ching_'
'centers_'
'conservative_'
'hen'
'clients_'
'Up_'
'rly_'
'ordinary_'
'where_'
'warm_'
'killing_'
' '' _'
'Five_'
'Donald_'
'blo'
'participated_'
'Ah'
'stability_'
'cul'
'doctor_'
'*'
'shire_'
'mp'
'blocks_'
'Cap'
'in'
'Temple_'
'1952_'
'satellite_'
'Tan'
'nu'
'guns_'
'der'
'appearances_'
'Lat'
'residence_'
'Out_'
'shortly_'
'gli'
'technique_'
'achievement_'
'à_'
'ile'
'New'
'Bla'
'Mot'
'Bru'
'reserves_'
'sions_'
'seconds_'
'genre_'
'Et'
'll'
'. ↑ ``_'
'Mil'
'ste'
'fee_'
'graphic_'
'fairly_'
'objectives_'
'viewed_'
'returning_'
'HIV_'
'Cla'
'distinguished_'
'MC'
'val'
'``'
'io'
'Len'
'chi'
'Sam_'
'Click_'
'buried_'
'ual_'
'estimate_'
'Design_'
'operational_'
'ants_'
'Puerto_'
'time'
'minority_'
'Hamilton_'
'worst_'
'versions_'
'trail_'
'proportion_'
'ara_'
'tre'
'hol'
'conversation_'
'atmosphere_'
'visiting_'
'ranging_'
'Fox_'
'anniversary_'
'demands_'
'moments_'
'pdf_'
'medal_'
'isolated_'
'dose_'
'sum_'
'outcome_'
'chairman_'
'Han'
'Dan_'
'Clo'
'the'
'greatly_'
'As'
'registration_'
'jun'
'guest_'
'crucial_'
'afternoon_'
'On'
'Energy_'
'of'
'BI'
'OR_'
' ``'
'attempted_'
'parallel_'
'officially_'
'missed_'
'ian'
'telling_'
'linear_'
'eo'
'Ren'
'ISBN_'
'1953_'
'han'
'click_'
'Israeli_'
'1951_'
'tan'
'Call_'
'66'
'Whit'
'Afghanistan_'
'reader_'
'dh'
'Ala'
'Long'
'Bea'
'meta'
'examination_'
'Railroad_'
'cable_'
'Delhi_'
'mechanisms_'
'yu'
'retirement_'
'pointed_'
'Abu_'
'Ol'
'Lan'
'Mass_'
'1914_'
'neuro'
'completion_'
'situations_'
'rou'
'light'
'census_'
'SC_'
'Railway_'
'xa'
'oldest_'
'sub'
'magnetic_'
'efficiency_'
'Sam'
'Plat'
'ο'
'1946_'
'relief_'
'IF'
'democratic_'
'02'
'sy'
'sle'
'AA'
'els_'
'lle_'
'deeply_'
'worship_'
'sitting_'
'ative_'
'mes_'
'Food_'
'lyrics_'
'lar_'
'priority_'
'в'
'hur'
'experimental_'
'colour_'
'Bat'
'hes_'
'ace_'
'shell_'
'tri'
'holiday_'
'PS'
'ruling_'
'Papers_'
'risks_'
'gan_'
'lab'
'liver_'
'genetic_'
'easier_'
'cutting_'
'Hat'
'Spring_'
'Iowa_'
'flowers_'
'electro'
'Low_'
'Fer'
'intervention_'
'festival_'
'extend_'
'Federation_'
'star'
'universe_'
'bell'
'Out'
'covering_'
'Jane_'
'Jud'
'IL'
'dominated_'
'boards_'
'IR'
'rn_'
'millions_'
'Ros'
'cin'
'Environmental_'
'guidelines_'
'emi'
'vary_'
'molecular_'
'dramatic_'
'Kur'
'CB'
'Bo'
'segment_'
'terminal_'
'sen'
'rop'
'Free'
'chamber_'
'Stadium_'
'72'
'Work_'
'Back_'
'promoted_'
'et'
'Ocean_'
'59'
'summary_'
'CM'
'sha'
'ton'
'ette_'
'agriculture_'
'Township_'
'u'
'care'
'ED'
'respective_'
'input_'
'ade'
'Melbourne_'
'eva'
'Roger_'
'yes_'
'1943_'
'meter_'
'airport_'
'Youth_'
'rib'
'mate_'
'Using_'
'Bel'
'tat'
'talks_'
'guidance_'
'discussions_'
'Control_'
'filed_'
'dating_'
'roll_'
'hero_'
'her'
'bur'
'channels_'
'Still_'
'Hy'
'Conservation_'
'kinds_'
'license_'
'Anti'
'unc'
'concluded_'
'aa'
'80'
'junior_'
'unusual_'
'Sweden_'
'Alan_'
'flag_'
'PO'
'BL'
'uns'
'ert_'
'Alfred_'
'Ran'
'Fo'
'pilot_'
'Land'
'alo'
'176'
'IP'
'aro'
'sees_'
'Wood_'
'JA'
'CEO_'
'Buck'
'ich_'
'pod'
'machines_'
'incorporated_'
'Kim_'
'Agreement_'
'Action_'
'nne'
'Denver_'
'ora'
'dale_'
'Works_'
'sheet_'
'Queensland_'
'Fair'
'formerly_'
'85'
'tle_'
'implications_'
'Watch_'
'ruled_'
'Bas'
'oli'
'Summer_'
'65'
'respond_'
'lli'
'availability_'
'accompanied_'
'theatre_'
'ised_'
'critics_'
'Medicine_'
'Letter_'
'arm_'
'tor'
'ers'
'bb'
'71'
'-'
'ography_'
'instruments_'
'che_'
'ably_'
'dan'
'valley_'
'lo'
'picked_'
'NT_'
'1950s_'
'ub'
'ID_'
'votes_'
'Fat'
'ric_'
'rarely_'
'prize_'
'gun'
'chose_'
'surprise_'
'engagement_'
'continuous_'
'versus_'
'innovative_'
'employee_'
'biological_'
'Kor'
'revolution_'
'restricted_'
'define_'
'professionals_'
'Super'
'ón_'
'water'
'dia'
'iti'
'gre'
'mountains_'
'Christianity_'
'personality_'
'Maryland_'
'Bruce_'
'Ang'
'uk'
'provinces_'
'determination_'
'tissue_'
'Ami'
'lis_'
'Jordan_'
'ou_'
'aren_'
'ala_'
'tin'
'Para'
'seats_'
'alive_'
'Green'
'Albert_'
'grave_'
'ght'
'175'
'Perhaps_'
'bright_'
'Shu'
'survived_'
'). '
'tough_'
'fs_'
'clo'
'Cur'
'improving_'
'grants_'
'expert_'
'Clinton_'
'fe_'
'Margaret_'
'fur'
'Village_'
') -- _'
'FA_'
'Pal'
'Late_'
'ff'
'Vol'
'dogs_'
'Harbor_'
'Guide_'
'discovery_'
'rit'
'evil_'
'passes_'
'Eu'
'taxes_'
'ens'
'rent_'
'pi'
'Amb'
'as'
'Su'
'Al'
'rat'
'kan'
'innovation_'
'fees_'
'ened_'
'bre'
'pic'
'ek_'
'Wikipedia_'
'Craig_'
'output_'
'illegal_'
'hed_'
'Zu'
'themes_'
'ik'
'ality_'
'wan'
'len'
'promoting_'
'Denmark_'
'Lawrence_'
'Fame_'
'roof_'
'ht_'
'governor_'
'no'
'cop'
'parameters_'
'faces_'
'Met'
'Iran_'
'nd'
'abroad_'
'are'
'ET'
'installed_'
'Char'
'ser_'
'earliest_'
'artistic_'
'multi'
'sight_'
'characterized_'
'Dave_'
'Sept_'
'planet_'
'attitude_'
'Rule_'
'waste_'
'poet_'
'loan_'
'secretary_'
'5th_'
'specified_'
'initiatives_'
'eligible_'
'Upper_'
'CH'
'zer_'
'rot'
'plat'
'judgment_'
'hat'
'applicable_'
'var'
'fying_'
'TE'
'See'
'tional_'
'Maria_'
'75'
'scholarship_'
'highway_'
'pe'
'involves_'
'OS'
'Wi'
'mini'
'Yo'
'ura'
'combat_'
'LE_'
'Wright_'
'SA_'
'html_'
'expand_'
'cha'
'May'
'Crown_'
'Bi'
'177'
'ti'
'ranks_'
'legacy_'
'believes_'
'Harris_'
'Gre'
'pet'
'ar'
'Father_'
'. ↑ _'
'calculated_'
'abandoned_'
'е_'
'ular_'
'essentially_'
'Gold'
'ba'
'Unfortunately_'
'swa'
'Title_'
'remove_'
'bor'
'pu'
'ei'
'Sol'
'dialogue_'
'Language_'
'ticket_'
'EE'
'medieval_'
'у'
'payments_'
'bet'
'zy_'
'Given_'
'cher'
'1917_'
' ... '
'induced_'
'TR'
'SC'
'novels_'
'kick_'
'raising_'
'Mid'
'Ant'
'supporters_'
'occasion_'
'ila'
'elo'
'‐_'
'Rain'
'tha'
'struck_'
'footballer_'
'Ray_'
'Pur'
'tar'
'ron'
'Korean_'
'Gallery_'
'associations_'
'tickets_'
'suit_'
'Ram'
'Indigenous_'
'corresponding_'
'argue_'
'Del'
'ida'
'ki'
'it'
'replace_'
'cricket_'
'aims_'
'tested_'
'emerging_'
'Bush_'
'yc'
'passage_'
'widespread_'
'lar'
'Ob'
'Fort'
'permitted_'
'CL'
'Sarah_'
'Prior_'
'Planning_'
'paintings_'
'finance_'
'OL'
'dealing_'
'Sab'
'Having_'
'Fin'
'GO'
'68'
'Politics_'
'1918_'
'reli'
'recommend_'
'neo'
'let'
'challenging_'
'!'
'tru'
'reveals_'
'properly_'
'ara'
'Square_'
'Sara'
'pairs_'
'designs_'
'Ins'
'assembly_'
'pra'
'Say'
'AT_'
'ris'
'Moore_'
'Death_'
'witness_'
'ato'
'accident_'
'deals_'
'cit'
'catch_'
'presidential_'
'Analysis_'
'Dublin_'
'. ^ _'
'realized_'
'amongst_'
'CF'
'temporary_'
'ger'
'stein_'
'tons_'
'ag'
'Heart_'
'Gal'
'voted_'
'soft_'
'ct_'
'Hay'
'commander_'
'Ut'
'ure'
'Schools_'
'lling_'
'vital_'
'requirement_'
'seriously_'
'royal_'
'generations_'
'comedy_'
'UM'
'Cu'
'101_'
'stro'
'sel'
'logic_'
'legislative_'
'ft'
'ert'
'ita'
'Magazine_'
'ultimate_'
'survival_'
'SP'
'cts_'
'hit'
'Region_'
'kar'
'expertise_'
'Vic'
'Next_'
'67'
'pers_'
'Wea'
'updated_'
'counties_'
'Very_'
'blog_'
'NASA_'
'BM'
'download_'
'SE_'
'esi'
'zu'
'Las'
'males_'
'gers_'
'PC'
'welfare_'
'lf'
'pace_'
'factory_'
'examine_'
'reveal_'
'plenty_'
'99'
'Samuel_'
'Thank_'
'''). _'
'con_'
'Oklahoma_'
'Mani'
'Kin'
'Hal'
'hs_'
'down'
'Tal'
'Online_'
'Miami_'
'tan_'
'er'
'controls_'
'ban'
'Limited_'
'Ad'
'symptoms_'
'gi_'
'column_'
'Cross'
'ons'
'ear'
'defensive_'
'Hu'
'attitudes_'
'arrangements_'
'AI'
''', ``_'
'physics_'
'or'
'77'
'worse_'
'Was_'
'Peace_'
'weak_'
'aci'
'Meanwhile_'
'surgery_'
'Turkey_'
'specimens_'
'aries_'
'Anthony_'
'mani'
'interior_'
'graduated_'
'indigenous_'
'converted_'
'aimed_'
'1936_'
'rie_'
'newspapers_'
'counter_'
'Metropolitan_'
'EA'
'plain_'
'meters_'
'Register_'
'esc'
'cke'
'Philip_'
'voters_'
'per'
'fin'
'Map_'
'downtown_'
'Channel_'
'transformation_'
'lights_'
'flying_'
'Tur'
'nti'
'entering_'
'vest'
'reflected_'
'ose_'
'exhibit_'
'distinction_'
'We'
'comfortable_'
'Rou'
'railroad_'
'expensive_'
'passion_'
'gui'
'thirty_'
'teach_'
'reducing_'
'Wrestling_'
'supra_'
'quiet_'
'compete_'
'celebrated_'
'Urban_'
'Have_'
'societies_'
'ocean_'
'Win'
'Rose_'
'spoken_'
'oi'
'brick_'
'Site_'
'PT'
'Judge_'
'preserved_'
'biography_'
'UL'
'Has'
'Kennedy_'
'ua'
'agreements_'
'appointment_'
'ncy_'
'Garden_'
'ut'
'fired_'
'accused_'
'Var'
'Mak'
'notion_'
'https_'
'EP'
'ola_'
'suffering_'
'KE'
'trouble_'
'separated_'
'enhanced_'
'rated_'
'Organization_'
'Sur'
'Robinson_'
'establishing_'
'absolute_'
'reviewed_'
'Chu'
'surrounded_'
'Hai'
'flows_'
'false_'
'absolutely_'
'hosted_'
'en'
'ay'
'weekly_'
'wearing_'
'thoughts_'
'que'
'Tai'
'Fall_'
'vessel_'
'alle'
'Eric_'
'stayed_'
'eti'
'frequent_'
'az'
'μ'
'theoretical_'
'scar'
'feels_'
'doors_'
'sessions_'
'ns'
'feed_'
'Will'
'variables_'
'smoke_'
'musicians_'
'criticism_'
'Thanks_'
'Literature_'
'oa'
'intensity_'
'Collection_'
'tis'
'focuses_'
'voting_'
'fort_'
'gh'
'assume_'
'Colo'
'partly_'
'Me'
'Fe'
'Case_'
'Bay'
'rp'
'pathway_'
'moderate_'
'eng'
'Rock'
'hyper'
'ali'
'abi'
'begun_'
'Douglas_'
'Alabama_'
'Hudson_'
'Ford_'
'tam'
'posts_'
'decrease_'
'Rea'
'tom'
'Systems_'
'ugh_'
'Van'
'tie_'
'ston_'
'etic_'
'ug'
'audiences_'
'1929_'
'cru'
'lor'
'cher_'
'visits_'
'threatened_'
'pa_'
'TC'
'17th_'
'piano_'
'ku'
'intense_'
'Financial_'
'Digital_'
'package_'
'Roy_'
'producers_'
'epi'
'ray_'
'Vis'
'1938_'
'regulatory_'
'restrictions_'
'yan_'
'skill_'
'Transportation_'
'CP'
'origins_'
'unlikely_'
'tables_'
'favor_'
'carefully_'
'Cultural_'
'tics_'
'Staff_'
'Matt_'
'Kam'
'Ep'
'kers_'
'infection_'
'bu'
'bars_'
'Orthodox_'
'dia_'
'tus_'
'Lang'
'rocks_'
'recognised_'
'Pol'
'Connecticut_'
'ron_'
'gap_'
'Reg'
'Gary_'
'ication_'
'ner'
'hockey_'
'fire'
'dio'
'Austria_'
'Arabic_'
'obviously_'
'1937_'
'lock_'
'bid_'
'Price_'
'shopping_'
'Sti'
'DS'
'Cas'
'Bed'
'ux_'
'peoples_'
'translated_'
'tourism_'
'ski'
'Sche'
'tch_'
'ras'
'zero_'
'ition_'
'tal_'
'finals_'
'bone_'
'Meeting_'
'shops_'
'kg_'
'explanation_'
'architectural_'
'stra'
'generate_'
'Kelly_'
'Archives_'
'normally_'
'arranged_'
'restaurants_'
'bear_'
'directors_'
'Bos'
'borough_'
'reflects_'
'adequate_'
'+'
'kle'
'busy_'
'bles_'
'Ra'
'Training_'
'rea'
'jan'
'observation_'
'helpful_'
'evident_'
'consumers_'
'sta'
'mice_'
'men'
'experiment_'
'Again_'
'losses_'
'Bai'
'ini'
'injured_'
'devoted_'
'Unit_'
'rejected_'
'displayed_'
'col'
'Notes_'
'Defense_'
'studying_'
'migration_'
'Kath'
'Junior_'
'tacrolimus_'
'ini_'
'ech'
' @_'
'till_'
'ows_'
'cross'
'Marshall_'
'Cre'
'73'
'tting_'
'Model_'
'eff'
'Detroit_'
'vegetation_'
'conventional_'
'Pas'
'End_'
'painted_'
'fruit_'
'dra'
'actress_'
'influential_'
'vas'
'Sla'
'vertical_'
'memories_'
'mainstream_'
'folk_'
'dea'
'Stone_'
'Russell_'
'makers_'
'inches_'
'Grant_'
'sixth_'
'remote_'
'Hel'
'valid_'
'ty'
'cyto'
'perceived_'
'measurements_'
'ah'
'Bak'
'sacred_'
'Om'
'NSW_'
'dinner_'
'depression_'
'Iv'
'giant_'
'Ste'
'Gen'
'nou'
'racing_'
'Market_'
')). _'
'unions_'
'undertaken_'
'by'
'one'
'69'
'1935_'
'to'
'82'
'oll'
'Fre'
'''
'By'
'errors_'
'causing_'
'boats_'
'Tennessee_'
'McG'
'03'
'photo'
'Vin'
'Ky'
'ic'
'1919_'
'Bha'
'tis_'
'Wy'
'н'
'expectations_'
'Imp'
'af'
'religions_'
'implement_'
'Student_'
'zz'
'ther'
'feelings_'
'Qa'
'110_'
'institutional_'
'bigger_'
'targets_'
'swi'
'uti'
'treat_'
'nineteenth_'
'extra'
'Law'
'Commons_'
'sation_'
'hr'
'sp_'
'Castle_'
'lets_'
'Pun'
'Cy'
'leg_'
'imaging_'
'ws_'
'listening_'
'78'
'theories_'
'Prize_'
'91'
'transit_'
'rei'
'meets_'
'falling_'
'esp'
'ST'
'attacked_'
'gu'
'carbon_'
'Additionally_'
'salmon_'
'ud_'
'tied_'
'ans'
'inch_'
'forming_'
'admitted_'
'opens_'
'mal'
'ean_'
'mos'
'log_'
'Zo'
'handle_'
'CC_'
'Alex_'
'totally_'
'suicide_'
'script_'
'instrument_'
'1933_'
'Six_'
'Port'
'Lower_'
'Lot'
'depends_'
'characteristic_'
'broader_'
'Change_'
'accounting_'
'Type_'
'sch'
'Real_'
'equi'
'diseases_'
'Coach_'
'1934_'
'but'
'stal'
'cle'
'Walker_'
'gro'
'rag'
'acquisition_'
'Re'
'directions_'
'FO'
'vessels_'
'trains_'
'shipping_'
'push_'
'nto'
'coffee_'
'KI'
'AG'
'maintaining_'
'Wat'
'Fu'
'Tru'
'san'
'yl'
'pure_'
'Ben'
'uri'
'underlying_'
'nds_'
'cou'
'app_'
'Reserve_'
'Princeton_'
'publishing_'
'contest_'
'Stu'
'FM_'
'ru'
'die'
'81'
'instructions_'
'decreased_'
'Comp'
'76'
'ik_'
'ver'
'ab'
'uta'
'sectors_'
'Song_'
'Hand'
'ong_'
'Disney_'
'winners_'
'dynamics_'
'radio'
'paying_'
'constantly_'
'Sou'
'Light_'
'rian_'
'pan_'
'ere'
'Ari'
'sted_'
'hence_'
'dit'
'unity_'
'α_'
'Qui'
'... '
'repeated_'
'Cru'
'74'
'wonder_'
'tte_'
'surplus_'
'Marg'
'yp'
'Rob'
'Mau'
'Ei'
'Campbell_'
'discover_'
'Mis'
'households_'
'Mag'
'managers_'
'Rama'
'port'
'mou'
'illness_'
'Much_'
'fair'
'upt'
'subs'
'proceedings_'
'bel'
'Cart'
'reception_'
'imagine_'
'д'
'Bible_'
'miss_'
'exact_'
'Path'
'possession_'
'firms_'
'aba'
'Sa'
'register_'
'Dame_'
'transmission_'
'smooth_'
'connect_'
'Premier_'
'Can'
'ene_'
'psychological_'
'crimes_'
'Adams_'
'fle'
'audio_'
'Way_'
'Nelson_'
'ware_'
'assess_'
'titled_'
'fewer_'
'Ry'
'classification_'
'salt_'
'destination_'
'contracts_'
'Jan'
'ues_'
'suggesting_'
'founding_'
'canal_'
'wed_'
'universal_'
'protest_'
'700_'
'Utah_'
'Communist_'
'snow_'
'distinctive_'
'Resources_'
'Pad'
'Fra'
'nta'
'actively_'
'settings_'
'6th_'
'thereby_'
'Did_'
'succeeded_'
'replacement_'
'difficulties_'
'na'
'existed_'
'educated_'
'radical_'
'parks_'
'coaching_'
'Hi'
'.'' (_'
'nan_'
'hot'
'excited_'
'Jar'
'rl'
'creates_'
'Bot'
'Baltimore_'
'Mission_'
'Auto'
'styles_'
'Jam'
'supplies_'
'roughly_'
'pto'
'highlights_'
'mus'
'RC'
'Mississippi_'
'Ill'
'extraordinary_'
'injuries_'
'Murray_'
'fold_'
'vor'
'gor'
'Dri'
'Assistant_'
'fication_'
'danger_'
'apartment_'
'Neu'
'offensive_'
'ively_'
'credits_'
'mechanical_'
'1928_'
'%_'
'speaker_'
'IG'
'sou'
'lia_'
'intra'
'answers_'
'irre'
'destruction_'
'Television_'
'NR'
'whi'
'sentence_'
'varied_'
'nominated_'
'ix_'
'bearing_'
'defence_'
'CON'
'* _'
'super_'
'preferred_'
'land'
'comp'
'Christopher_'
'Brand'
'tab'
'sch_'
'lation_'
'thin_'
'Ele'
'consent_'
'Medal_'
'cat_'
'circle_'
'lle'
'TM'
'Kil'
'ques_'
'aus'
'restoration_'
'females_'
'sun'
'elite_'
'chi_'
'alleged_'
'Ker'
'sman_'
'Victorian_'
'95'
'Brennan_'
'squad_'
'Stewart_'
'Common_'
'winds_'
'nces_'
'im'
'gs'
'ffe'
'survive_'
'stadium_'
'um'
'gy'
'dae_'
'sia_'
'headquarters_'
'coaches_'
'Bristol_'
'Moo'
'Ay'
'episodes_'
'concentrations_'
'Whether_'
'Ottawa_'
'nom'
'PH'
'Ross_'
'Ph_'
'; '
' ''_'
'21st_'
'bon'
'nl'
'RE_'
'ven_'
'thesis_'
'fer_'
'di'
'rivers_'
'Stre'
'slowly_'
'lb'
'flood_'
'eno'
'Hong_'
'hopes_'
'Vietnam_'
'ten'
'Tea'
'Chester_'
'verse_'
'mathematics_'
'ami'
'PM_'
'Communications_'
'Band_'
'feeding_'
'Ward_'
'LA_'
'shore_'
'eli'
'commission_'
'adds_'
'discipline_'
'regardless_'
'м'
'twelve_'
'Jonathan_'
'oro'
'EP_'
'un'
'governance_'
'cow'
'client_'
'sin_'
'disc'
'bru'
'bi_'
'requested_'
'por'
'op'
'Cam'
'Bou'
'ken_'
'° _'
'ssion_'
'Airport_'
'integrity_'
'Morris_'
'WW'
'Ai'
'overview_'
'llo'
'TS_'
'Bar_'
''''
'denied_'
'com'
'Cleveland_'
'zon'
'involve_'
'UR'
'Est'
'! '
'moni'
'sciences_'
'pt_'
'forget_'
'Standard_'
'Gan'
'1910_'
'managing_'
'deaths_'
'kel'
'junction_'
'gradually_'
'backs_'
'Multi'
'Find_'
'illi'
'ect'
'Sy'
'Maha'
'Arizona_'
'wounded_'
'ude'
'comic_'
'Wis'
'Roman'
'Plunkett_'
'Pearl_'
'Franklin_'
'burn_'
'Seattle_'
'Mea'
'participating_'
'Ae'
'computers_'
'Hor'
'compliance_'
'cinema_'
'HS'
'2d_'
'Non_'
'Check_'
'pan'
'SR_'
'Quebec_'
'Hills_'
'val_'
'ison_'
'inclusion_'
'feedback_'
'DVD_'
'oriented_'
'oca'
'mat'
'92'
'virtual_'
'expenses_'
'constitution_'
'Child_'
'Bad'
'ram_'
'Number_'
'Blo'
'immigration_'
'fi'
'dip'
'RP'
'graphy_'
'Wall_'
'Battalion_'
'wri'
'targeted_'
'ora_'
'Egyptian_'
'lau'
'influences_'
'Sum'
'realize_'
'ees_'
'accommodation_'
'Does_'
'nano'
'Rit'
'Am_'
')'
'margin_'
'Pope_'
'PhD_'
'Mini'
'LT'
'wood'
'permit_'
'gle'
'ble'
'Tit'
'Future_'
'tribes_'
'rating_'
'lem'
'vet'
'dar'
'HE'
'Private_'
'PCR_'
'jar'
'Pittsburgh_'
'ica'
'fu'
'tim'
'Fore'
'FC_'
'zin'
'uc'
'rad'
'Appendix_'
'responsibilities_'
'journalist_'
'brilliant_'
'TH'
'Nevertheless_'
'к'
'stronger_'
'arche'
'annually_'
'SB'
'rb'
'Lou'
'Fen'
'lic'
'ari'
'GE'
'gon'
'drinking_'
'Tour_'
'OS_'
'Deputy_'
'promise_'
'Swa'
'Fun'
'12th_'
', $_'
'consisting_'
'arguments_'
'arch'
'rs'
'hidden_'
'facilitate_'
'tower_'
'underground_'
'hro'
'grand'
'shots_'
'pur_'
'bis'
'anywhere_'
'Oil_'
'macro'
'lic_'
'citizen_'
'angle_'
'Due_'
'saved_'
'passengers_'
'tation_'
'clay_'
'Sau'
'Mai'
'ved_'
'mbi'
'eggs_'
'Vi'
'Upon_'
'Olympics_'
'passenger_'
'lp'
'dee'
'1000_'
'IO'
'Catherine_'
'tall_'
'strange_'
'Cab'
'Without_'
'Volume_'
'Matthew_'
'16th_'
'eco'
'yan'
'tele'
'not'
'drink_'
'bin'
'Full_'
'ster'
'lessons_'
'Philippines_'
'Environment_'
'Camp'
'electricity_'
'ap'
'ino_'
'RS'
'~_'
'monthly_'
'hum'
'whilst_'
'charts_'
'Gon'
'Billy_'
'Tech_'
'Swiss_'
'MI'
'Cemetery_'
'Kerala_'
'Bour'
'attendance_'
'Some'
'Small_'
'SEP_'
'Mack'
'Ice_'
'uma'
'sect'
'median_'
'cor'
'Years_'
'Mala'
'Bond_'
'stu'
'88'
'jo_'
'evi'
'empty_'
'dor_'
'axis_'
'wer'
'mas_'
'gel'
'Over'
'1927_'
'Norway_'
'my'
'sugar_'
'PC_'
'vulnerable_'
'Pop'
'NCAA_'
'Jason_'
'zi_'
'dor'
'Diego_'
'variations_'
'kid_'
'ate'
'mand'
'threats_'
'smart_'
'celebrate_'
'bli'
'squa'
'for'
'trials_'
'nity_'
'ito'
'10'
'sna'
'duration_'
'Barry_'
'Ian_'
'nda'
'branches_'
'Similarly_'
'т'
'veri'
'ac_'
'1931_'
'pal'
'literacy_'
'chan'
'ced_'
'sor'
'homo'
'centres_'
'Hockey_'
'mathematical_'
'empire_'
'environments_'
'Under'
'Stanley_'
'Search_'
'bri'
'Wall'
'thick_'
'suddenly_'
'stre'
'qui'
'gaming_'
'deb'
'Abraham_'
'urs_'
'phenomenon_'
'Mali'
'AU'
'classified_'
'habitats_'
'Cri'
'ye'
'races_'
'mil'
'idi'
'gathered_'
'literally_'
'Ir'
'vol'
'ction_'
'Pap'
'Cer'
'stri'
'bar'
'Which_'
'Nation_'
'gg'
'controversial_'
'Working_'
'Shin'
'Province_'
'analog'
'Description_'
'vity_'
'messages_'
'Theory_'
'Ple'
'Strat'
'mill_'
'lowest_'
'Carr'
'pursue_'
'guess_'
'ec'
'AF'
'sil'
'.)'
'volunteers_'
'pher'
'esse'
'kt'
'aside_'
'Mark'
'AA_'
'sf'
'Iron_'
'Dub'
'sur'
'hy'
'Rs_'
'Gulf_'
'Cit'
'adoption_'
'Sec'
'Cat'
'wrestling_'
'tasks_'
'inspiration_'
'din'
'consecutive_'
'perc'
'ily_'
'eating_'
'ass_'
'virus_'
'outs'
'opinions_'
'nic'
'ext'
'Lie'
'CO_'
'yg'
'ogy_'
'accuracy_'
'volumes_'
'stand'
'omo'
'Mona'
'ME_'
'dies_'
'bo_'
'ben'
'Post'
'Cad'
'Black'
'hotels_'
'arrest_'
'Singh_'
'DS_'
'sphere_'
'popularity_'
'Pha'
'arrangement_'
'Gau'
'pull_'
'worker_'
'tz'
'tm'
'sian_'
'meri'
'hard'
'He'
'incredible_'
'curriculum_'
'abstract_'
'VE'
'BC'
'7th_'
'elevation_'
'Sachin_'
'Additional_'
'dress_'
'rt'
'fer'
'nk_'
'Ter'
'Imperial_'
'briefly_'
'attractive_'
'Stein'
'Roo'
'Key_'
'Dean_'
'Andre'
'faster_'
'Source_'
'taste_'
'front'
'Scholar_'
'Gran'
'EX'
'Bab'
'Turkish_'
'tries_'
'Il'
'substance_'
'milk_'
'automatic_'
'scrap'
'pay'
'compare_'
'GE_'
'10th_'
'od'
'izing_'
'divisions_'
'Kal'
'investigate_'
'eye'
'Cop'
'Ap'
'1925_'
'tel'
'ide'
'Broadway_'
'sp'
'attracted_'
'Tom'
'Capital_'
'preserve_'
'God'
'Fle'
'vin_'
'87'
'rear_'
'84'
'theater_'
'occasionally_'
'car'
'Sing'
'Kh'
'94'
'prop'
'metres_'
'associate_'
'ond'
'maker_'
'reliable_'
'grass_'
'Nick_'
'? '
'1930s_'
'immigrants_'
'earn_'
'Sm'
'Date_'
'1921_'
'1915_'
'removal_'
' `` _'
'Ve'
'virtually_'
'HC'
'Act'
'89'
'difficulty_'
'bun'
'bull'
'1912_'
'paragraph_'
'gy_'
'bio'
'submit_'
'nth'
'choices_'
'applies_'
'Emp'
'Basi'
'ight_'
'asp'
'hardly_'
'NS'
'Ec'
'Doctor_'
'raw_'
'handed_'
'1916_'
'rom'
'oke'
'watched_'
'zones_'
'Az'
'retained_'
'ndr'
'cate'
'Ras'
'Notre_'
'Cou'
'Colombia_'
'Bangladesh_'
'Ast'
'occupation_'
'attorney_'
'08'
'Speaker_'
'venue_'
'unlike_'
'twentieth_'
'predicted_'
'White'
'Sid'
'Mat'
'Former_'
'slope_'
'erm'
'Mitchell_'
'1905_'
'solar_'
'pleasure_'
'competing_'
'camp'
'Sound_'
'Forces_'
'mon'
'beg'
'ard'
'Carter_'
'ler'
'Paper_'
'Home'
'Fal'
'Dea'
'home'
'dle_'
'GA_'
'locally_'
'bon_'
'CHA'
'lan_'
'knowing_'
'measurement_'
'bomb_'
'aw'
'Sag'
'update_'
'opera_'
'Parker_'
'Gall'
'Berkeley_'
'9th_'
'ranking_'
'Ps_'
'Bull'
'insight_'
'Sym'
'Ny'
'Att'
'trading_'
'ed'
'NM'
'1926_'
'namely_'
'Pat'
'86'
'rede'
'log'
'kingdom_'
'em'
'arm'
'run'
'closing_'
'Tel'
'Rio_'
'EB'
'sponsored_'
'entity_'
'drew_'
'cro'
'Graham_'
'crash_'
'conversion_'
'argues_'
'166'
'ye_'
'compensation_'
'noise_'
'apo'
'Race_'
'Poly'
'indicating_'
'franchise_'
'Frederick_'
'98'
'dha'
'dal'
'Susan_'
'Edition_'
'usi'
'nf'
'Tat'
'PR'
'125_'
'happening_'
'ata_'
'Ing'
'ured_'
'departments_'
'cta'
'Camp_'
'tiny_'
'nz'
'gt'
'talked_'
'Jeff_'
' /_'
'β_'
'ale'
'Ven'
'Tim_'
'pig'
'surveys_'
'judicial_'
'hosts_'
'Kap'
'exclusively_'
'lect'
'UC'
'STA'
'Brooklyn_'
'. ('
'bow_'
'Nam'
'mo_'
'deposits_'
'declined_'
'cle_'
'Lau'
'Bin'
'%'
'long'
'Mediterranean_'
'FD'
'tech_'
'ps'
'ille_'
'HM'
'1922_'
'RNA_'
'vel'
'tta_'
'invasion_'
'fic'
'Mam'
'remembered_'
'lawyer_'
'Finland_'
'reforms_'
'ella_'
'Booth_'
'prayer_'
'pitch_'
'notably_'
'composer_'
'Pho'
'1932_'
'acted_'
'rely_'
'Hau'
'Dia'
'pulled_'
'progressive_'
'trips_'
'steam_'
'penalty_'
'appe'
'Tin'
'nt'
'iss'
'engineer_'
'cel'
'TL'
'PU'
'ho_'
'crossing_'
'Book'
'politicians_'
'eo_'
'ang'
'Ge'
'ud'
'throw_'
'reign_'
'mn'
'ourselves_'
'dro'
'Tam'
'Crow'
'É'
'tube_'
'cene_'
'83'
'vocal_'
'subt'
'Protection_'
'Com'
'unsu'
'retain_'
'occasions_'
'lam'
'judges_'
'everyday_'
'Mit'
'Andy_'
'--'
'illa'
'hips_'
'⁄_'
'agenda_'
'KA'
'preservation_'
'membrane_'
'UA'
'96'
'ris_'
'legend_'
'how_'
'collect_'
'essay_'
'adventure_'
'nted_'
'manuscript_'
'fantastic_'
'Gua'
'Gang'
'expanding_'
'colleges_'
'Drive_'
'1913_'
'diameter_'
'Video_'
'Schu'
'Hag'
'Bart'
'Available_'
'Jimmy_'
'rev'
'geographic_'
'restored_'
'plan'
'legendary_'
'hat_'
'Housing_'
'Pot'
'Marie_'
'Hus'
'identical_'
'fleet_'
'Bry'
'Being_'
'recovered_'
'pul'
'Proceedings_'
'Johnny_'
'overseas_'
'ith_'
'focusing_'
'Falls_'
'spatial_'
'celebration_'
'hir'
'copyright_'
'ani_'
'Sor'
'Independent_'
'HU'
'fail_'
'ede'
'Winter_'
'laugh'
'Syn'
'Record_'
'FOR_'
'Bron'
'proposals_'
'monitor_'
'magic_'
'line'
'05'
'colony_'
'ua_'
'scales_'
'fan'
'Wang_'
'Benjamin_'
'?'
'uli'
'statistical_'
'pha'
'hills_'
'gha'
'tion'
'revenues_'
'parliament_'
'ete'
'Gil'
'ABC_'
'shock_'
'initiated_'
'IA_'
'Fi'
'Bag'
'yesterday_'
'equipped_'
'Baker_'
'liked_'
'ace'
'Lam'
'rch'
'organic_'
'Nar'
'ines_'
'Reading_'
'Fir'
'worthy_'
'width_'
'doctrine_'
'MR'
'Evans_'
'disaster_'
'buck'
'Tele'
'Nin'
'sed'
'lt_'
'gri'
'co'
'Rules_'
'Rat'
'MAR'
'key'
'Movement_'
'Kir'
'', '_'
'sec'
'enterprise_'
'NE_'
'Dist'
'CH_'
'puts_'
'pel'
'Try_'
'Princess_'
'Id'
'19'
'ura_'
'Season_'
'Learning_'
'overs'
'hon'
'forests_'
'array_'
'Foster_'
'BA_'
'sca'
'hydro'
'Light'
'Jai'
'Edit'
'DE_'
'superior_'
'CBS_'
'ente'
'complicated_'
'zes_'
'pro'
'mere_'
'cup_'
'Sometimes_'
'wildlife_'
'rescue_'
'introduce_'
'Rico_'
'Encyclopedia_'
'. ^ ``_'
'wal'
'uct'
'fun'
'Peru_'
'holder_'
'It'
'Finance_'
'Bert'
'united_'
'nie_'
'lifetime_'
'far'
'Wayne_'
'AP_'
'gi'
'departure_'
'demo'
'cap'
'waves_'
'ION_'
'attending_'
'weigh'
'Whe'
'Cost'
'AIDS_'
'1911_'
'ano_'
'hired_'
'appreciate_'
'Professional_'
'Develop'
'tem'
'ske'
'sci'
'Kit'
'130_'
'ml'
'viewers_'
'speakers_'
'lag'
'amo'
'References_'
'1923_'
'nde'
'gos'
'cuts_'
'Labor_'
'Bau'
'ang_'
'Tim'
'enormous_'
'LS'
'Bir'
'gin'
'Micro'
'79'
'sat_'
'''), _'
'mixture_'
'ig'
'highlight_'
'era'
'164'
'lion_'
'economics_'
'Thailand_'
'Amy_'
'8th_'
'pun'
'kk'
'exploration_'
'Chap'
'hunting_'
'everybody_'
'Front_'
'lift_'
'ign'
'- '
'usa'
'shoot_'
'Ul'
'Bund'
'when_'
'ndi'
'instruction_'
'identifying_'
'tun'
'mad'
'investments_'
'ile_'
'Dy'
'telephone_'
'codes_'
'assessed_'
'iel'
'VER'
'landing_'
'Hunter_'
'dle'
'clock_'
'Left_'
'Chal'
'reproductive_'
'negotiations_'
'Rei'
'Poll'
'wooden_'
'ox_'
'limitations_'
'tin_'
'iga'
'Scar'
'Anna_'
'une_'
'ote'
'nac'
'Unlike_'
'Eg'
'Don'
'vi_'
'sharp_'
'sad_'
'overt'
'gest'
'Not'
'consistently_'
'itr'
'OK_'
'NG_'
'surprising_'
'pp'
'Saudi_'
'portrait_'
'ological_'
'Ball'
'disco'
'Scot'
'Rud'
'Publishing_'
'Edinburgh_'
'trop'
'fat'
'Sport_'
'Indi'
'Apple_'
'sity_'
'assa'
'Mur'
'udi'
'Bis'
'gat'
'asi'
'Yi'
'LP_'
';'
'part'
'ai'
'ont'
'deter'
'birthday_'
'Zone_'
'TM_'
'2018_'
'Relations_'
'ports_'
'bass_'
'adopt_'
'Pala'
'uniform_'
'IP_'
'victim_'
'roa'
'providers_'
'constitute_'
'Official_'
'organ_'
'fi_'
'cc'
'aut'
'All'
'walked_'
'thermal_'
'py_'
'oms_'
'ecological_'
'amy'
'act'
'abs'
'Pri'
'Birmingham_'
'veteran_'
'lou'
'golf_'
'Py'
'Neil_'
'Bulletin_'
'marriages_'
'lit'
'dozen_'
'commissioned_'
'Vancouver_'
'Had'
'repair_'
'nie'
'nel_'
'honour_'
'Wan'
'Access_'
'sam'
'Carl'
'15th_'
'profession_'
'mon_'
'gon_'
'detection_'
'bat'
'Player_'
'Burma_'
'TS'
'prof'
'Renaissance_'
'perfectly_'
'allo'
'empower'
'Lab'
'Index_'
'Collins_'
'ude_'
'sb'
'requests_'
'jump_'
'Sala'
'Fred_'
'omi'
'careful_'
'Ron'
'My'
'personally_'
'imposed_'
'execution_'
'historians_'
'MD_'
'ken'
'dat'
'striking_'
'ene'
'Hoo'
'13th_'
'symbol_'
'sleep_'
'hal'
'ega'
'Af'
'174'
'opponents_'
'lea'
'differ_'
'Co'
'tribute_'
'ree'
'plates_'
'ex'
'Silver_'
'spots_'
'random_'
'gallery_'
'fighters_'
'dge_'
'band'
'Karl_'
'Dallas_'
'ys'
'aging_'
'Maybe_'
'22'
'talented_'
'ot'
'ngton_'
'inter_'
'East'
'Cell_'
'oti'
'lend'
'sustained_'
'sit'
'mbo'
'effectiveness_'
'Week_'
'ome'
'publicly_'
'capabilities_'
'arrive_'
'het'
'alism_'
'Pr'
'rge'
'rat_'
'assault_'
'Med'
'pounds_'
'listing_'
'XX'
'Madison_'
' - '
'lay'
'inhabitants_'
'hs'
'graduates_'
'Id_'
'his'
'hate_'
'conflicts_'
'complexity_'
'Protestant_'
'Gothic_'
'tax'
'TA_'
'Lt_'
'Mans'
'Ble'
'vic'
'ling'
'Legal_'
'string_'
'holders_'
'Apr_'
'rema'
'ook_'
'hon_'
'Ig'
'Baseball_'
'remo'
'nan'
'='
'warning_'
'reactions_'
'osi'
'laboratory_'
'Colonel_'
'Ame'
'phe'
'Capt_'
'temperatures_'
'Industry_'
'Fol'
'synthesis_'
'hie'
'FS'
'Down'
'favourite_'
'Make_'
'97'
'Dam'
'Cooper_'
'alu'
'lateral_'
'hou'
'rog'
'nest'
'ere_'
'Warren_'
'Chan'
'platforms_'
'pla'
'doc'
'biology_'
'Louisiana_'
'Jay_'
'stag'
'Malaysia_'
'Expe'
'tori'
'responded_'
'Orange_'
'Current_'
'sma'
'likes_'
'journalists_'
'consequence_'
'Ful'
'tribal_'
'quest_'
'divi'
'acceptable_'
'shu'
'ls'
'kitchen_'
'Room_'
'Photograph'
'who'
'spectrum_'
'gang_'
'arc'
'Slo'
'Fair_'
'Blair_'
'writings_'
'alt'
'NG'
'releases_'
'sly_'
'separation_'
'play'
'Ph'
'Gla'
'Cal'
'rted_'
'oc'
'thro'
'mes'
'belong_'
'attributed_'
'SN'
'LD'
'matrix_'
'lers_'
'documented_'
'slo'
'signing_'
'oy_'
'fa_'
'Mexican_'
'rdi'
'interactive_'
'fra'
'ening_'
'court'
'consultation_'
'daughters_'
'cz'
'browser_'
'Danish_'
'sworth_'
'itu'
'PL'
'Maj'
'Break'
'psychology_'
'ensuring_'
'Lor'
'Earl_'
'yr'
'win'
'investigated_'
'Recent_'
'Gui'
'side'
'dom_'
'alter'
'Schi'
'Lutheran_'
'scal'
'insist'
'egg_'
'dispute_'
'breath'
'adaptation_'
'upcoming_'
'exc'
'achi'
'Rad'
'Oscar_'
'Montreal_'
'illustrated_'
'eenth_'
'Mayor_'
'tank_'
'hae'
'graph_'
'105_'
'favour_'
'Side_'
'GU'
'organised_'
'evolved_'
'das_'
'cre'
'Pale'
'thinks_'
'paint_'
'ize_'
'clothing_'
'Lieutenant_'
'Chin'
'preparing_'
'damaged_'
'anu'
'Kol'
'unce'
'tension_'
'phrase_'
'idae_'
'hl'
'gem'
'Mut'
'Hou'
'eries_'
'Roberts_'
'Hawaii_'
'Dee'
'TU'
'Portuguese_'
'Monte'
'Bow'
'phon'
'executed_'
'Blues_'
'stem_'
'ially_'
'utility_'
'swimming_'
'Pres'
'ML'
'Entertainment_'
'BS'
'.''_'
'nes'
'Turner_'
'.... _'
'103_'
'oid_'
'asks_'
'ande'
'Lac'
'resort_'
'guided_'
'ach'
'Basin_'
'black'
'Ever'
'Barbara_'
'Arabia_'
'168'
'marry_'
'determining_'
'Total_'
'uring_'
'enabled_'
'Spo'
'PS_'
'ø'
'perception_'
'outer_'
'naturally_'
'inu'
'assisted_'
'Rom'
'Hard_'
'EN_'
'seed_'
'interpreted_'
'diagnosis_'
'ant'
'ambi'
'165'
'rain'
'Off'
'pleased_'
'operates_'
'onic_'
'ministry_'
'funny_'
'cus_'
'accomplished_'
'OT'
'93'
'sten'
'owe'
'green'
'Photo_'
'Clar'
'ét'
'info_'
'collapse_'
'wings_'
'loa'
'Nigeria_'
'Mou'
'Friends_'
'1909_'
'surprised_'
'revised_'
'phi'
'kar_'
'Commissioner_'
'sing'
'priest_'
'dad_'
'historian_'
'spark'
'ci_'
'She'
'Defence_'
'Alice_'
'ul'
'tale_'
'nda_'
'erected_'
'castle_'
'contrary_'
'achievements_'
'TION_'
'Ree'
'vis_'
'radiation_'
'Spa'
'deemed_'
'Brit'
'transcript'
'ration_'
'evaluate_'
'classroom_'
'nge'
'curve_'
'Person'
'DU'
'Canal_'
'cia_'
'pyr'
'Safety_'
'Jefferson_'
'Dick_'
'signals_'
'qualities_'
'exp'
'cy'
'Alliance_'
'102_'
'turn'
'tight_'
'nia_'
'hy_'
'Shel'
'reco'
'addresses_'
'11th_'
'OM'
'06'
'kha'
'buying_'
'Prof_'
'inci'
'fil'
'defend_'
'Short_'
'Apo'
'sad'
'Cod'
'drain'
'Sun'
'Nicholas_'
'ws'
'mothers_'
'gel_'
'chemistry_'
'BB'
'reverse_'
'contributing_'
'PER'
'basi'
'automatically_'
'sex'
'belonging_'
')) _'
'tum'
'OP'
'CN'
'interface_'
'Spr'
'Sad'
'Am'
'; ``_'
'wy'
'rail'
'gathering_'
'doi_'
'convention_'
'colors_'
'bond_'
'architect_'
'Ac'
'ram'
'intention_'
'Menorca_'
'tit'
'iat'
'gw'
'extending_'
'OU'
'uan'
'shing_'
'Fur'
'transformed_'
'basically_'
'RT'
'Chen_'
'wars_'
'respondents_'
'acceptance_'
') '_'
'veni'
'relate_'
'missions_'
'Marx_'
'162'
'Austin_'
'los'
'encounter_'
'absent_'
'Mul'
'140_'
'Ic'
'vil'
'signature_'
'nit'
'moi'
'isa'
'THE'
'PDF_'
'Ok'
'pregnancy_'
'disorder_'
'crown_'
'JE'
'04'
'voices_'
'terrorism_'
'ore'
'mie'
'ffi'
'vi'
'tours_'
'supplied_'
'solve_'
'Mah'
'Currently_'
'singles_'
'anc'
'Sul'
'Ort'
'Mont'
'Dum'
'Din'
'lai'
'tou'
'territories_'
'authorized_'
'Lebanon_'
'lying_'
'outdoor_'
'iii_'
'sne'
'quoted_'
'neighborhoods_'
'farming_'
'KO'
'Creative_'
'proven_'
'entries_'
'Ex'
'horses_'
'fort'
'crack'
'Ll'
'Introduction_'
'renamed_'
'ph'
'106_'
'′'
'weren_'
'pala'
'eur_'
'charter_'
'Psychology_'
'overcome_'
'oph'
'mel'
'desired_'
'Carl_'
'Support_'
'Shanghai_'
'Assa'
'reporter_'
'000'
'Technical_'
'Sli'
'sz'
'roo'
'rie'
'operator_'
'mont_'
'issu'
'Trip'
'secured_'
'TRA'
'Bern'
'nau'
'lim'
'comparable_'
'borne_'
'Kee'
'GT'
'investigations_'
'forever_'
'campaigns_'
'bowl_'
'tennis_'
'produces_'
'partially_'
'dece'
'Nazi_'
'Mess'
'111_'
'handling_'
'fulfill'
'colonies_'
'cast'
'NOT_'
'Christ'
'kir'
'deli'
'affirm'
'EC_'
'Boy'
'undergraduate_'
'nick'
'mic_'
'glo'
'dop'
'ein_'
'eh'
'Sus'
'Ga'
'Dark_'
'alternate_'
'VE_'
'Sai'
'Hindu_'
'rec'
'construct_'
'cis'
'circu'
'net'
'guilty_'
'probability_'
'consensus_'
'archaeological_'
'Trac'
'Dam_'
'mature_'
'accommodate_'
'Stor'
'Mara'
'Christi'
'keeps_'
'fel'
'analyzed_'
'1924_'
'broadcasting_'
'Prophet_'
'tted_'
'oy'
'lan'
'subsidence_'
'sens'
'expense_'
'controversy_'
'Kara'
'Dre'
'sburg_'
'install'
'engines_'
'button_'
'aster'
'Neuro'
'osaur'
'inspect'
'holes_'
'bust'
'Belgium_'
'Spirit_'
'Naval_'
'NN'
'Cyprus_'
'09'
'ɑ'
'holy_'
'Son_'
'AV'
'ranges_'
'plu'
'Awa'
'vie'
'segments_'
'nas'
'displays_'
'consciousness_'
'MC_'
'Boy_'
'Argentina_'
'Gray_'
'wel'
'technological_'
'lus'
'Industrial_'
'180_'
'pride_'
'forum_'
'yt'
'gar_'
'nem'
'heading_'
'gru'
'Mir'
'Antonio_'
'fiscal_'
'fifty_'
'entities_'
''' '
'cluster_'
'Was'
'Kun'
'Hit'
'deeper_'
'constraints_'
'Down_'
'velocity_'
'sweet_'
'sley_'
'layers_'
'bay_'
'Norwegian_'
'everywhere_'
'Yale_'
'Kas'
'strengthen_'
'ope'
'mutual_'
'hys'
'bot'
'Others_'
'Count_'
'switch_'
'schemes_'
'lor_'
'Ty'
'Forum_'
'spor'
'north'
'had'
'bert_'
'Mart'
'Includes_'
'ung'
'sized_'
'oning_'
'humanity_'
'Watson_'
'Gy'
'GR'
'inte'
'ead_'
'volunteer_'
'Opera_'
'rd'
'pat'
'calendar_'
'Palace_'
'JO'
'Inf'
'Vas'
'Admi'
'tea_'
'tail_'
'sand'
'impression_'
'excess_'
'Fig'
'и_'
'xo'
'terrorist_'
'rich'
'lei'
'Cook_'
'CAR'
'respected_'
'Nad'
'Charlotte_'
'wat'
'vo_'
'stick_'
'sso'
'olo'
'exo'
'there'
'merc'
'ict'
'Mine'
'Cos'
' > _'
'tain'
'lk'
'Portland_'
'Economics_'
'settlers_'
'revolutionary_'
'sim'
'poi'
'ime_'
'Spar'
'Construction_'
'chas'
'basin_'
'Larry_'
'Formation_'
'Euro'
'ira'
'detected_'
'Population_'
'tic'
'lc'
'age'
'ada'
'stakeholders_'
'NHL_'
'Lloyd_'
'Infantry_'
'farmer_'
'expo'
'TP'
'Level_'
'strain_'
'seeks_'
'ield_'
'ota'
'ca'
'dol'
'treaty_'
'steady_'
'powered_'
'mea'
'defi'
'Spi'
'requiring_'
'recordings_'
'det'
'cake_'
'Tokyo_'
'fed_'
'Yan'
'MR_'
'Attorney_'
'naval_'
'certificate_'
'Lin'
'row'
'irs_'
'Look_'
'quarter'
'neck_'
'Assessment_'
'AR_'
'attract_'
'fro'
'NF'
'Mountains_'
'Joint_'
'tr'
'ord'
'hm'
'14th_'
'tag_'
'regulated_'
'productive_'
''.'
'somewhere_'
'lie'
'joy_'
'borders_'
'Scha'
'Phil_'
'Moon_'
'Lit'
'Agr'
'cargo_'
'alm'
'activation_'
'Thoma_'
'Operations_'
'DR'
'peaceful_'
'intersection_'
'conte'
'Wad'
'Ten_'
'streams_'
'governmental_'
'RS_'
'Kos'
'Ea'
'wit'
'istic_'
'acknowledged_'
'Lib'
'£_'
'sole_'
'pot'
'pho'
'day'
'aka_'
'Raja'
'sensitivity_'
'gardens_'
'consisted_'
'Thr'
'163'
'tra_'
'defect'
'cyber'
'Springs_'
'traveling_'
'lus_'
'Lanka_'
'Asse'
'æ'
'engaging_'
'News'
'ups_'
'ths_'
'son'
'governing_'
'ost'
'noticed_'
'hos'
'emo'
'applying_'
'Philosophy_'
'Hard'
'Directors_'
'rough_'
'memorial_'
'meal_'
'adapted_'
'Gin'
'Epi'
'Ada'
'tribe_'
'systematic_'
'simultaneously_'
'harm_'
'TE_'
'Hugh_'
'uno'
'rin_'
'eric'
'Holl'
'news'
'matic_'
'lunch_'
'par_'
'investors_'
'instrumental_'
'yb'
'ovi'
'lovely_'
'ique_'
'PAR'
'MG'
'Dakota_'
'ean'
'describing_'
'altered_'
'Question_'
'Orleans_'
'Magn'
'Lost_'
'Ibid_'
'peni'
'ok'
'grati'
'Terry_'
'Sign'
'Franc'
'qa'
'acute_'
'span_'
'sisters_'
'set'
'Powell_'
'07'
'solely_'
'renowned_'
'gur'
'edu_'
'designer_'
'Norman_'
'1907_'
'wage_'
'Um'
'Max_'
'tourist_'
'quin'
'informal_'
'dep'
'cular_'
'bha'
'Vista_'
'Steven_'
'trans_'
'nga'
'ill'
'formula_'
'charity_'
'arti'
'Rot'
'RD'
'din_'
'Taiwan_'
'Reli'
'PM'
'Jazz_'
'signaling_'
'deck_'
'Jer'
'EF'
'Barn'
'104_'
'int_'
'Died_'
'obligations_'
'magnitude_'
'loans_'
'Scho'
'Angel'
'pushed_'
'ntly_'
'muscle_'
'mala'
'Catholics_'
'saving_'
'ppe'
'mess'
'collagen_'
'and'
'FOR'
'Disp'
'tak'
'sending_'
'transactions_'
'fet'
'1906_'
'kit'
'Saw'
'Reference_'
'seventh_'
'immuno'
'ified_'
'hel'
'Mill'
'Kn'
'Chau'
'ven'
'insights_'
'drivers_'
'Hil'
'Girl_'
'reaches_'
'possibilities_'
'hu_'
'Mt_'
'plastic_'
'hell_'
'unt'
'kins_'
'backed_'
'PD'
'march_'
'circuit_'
'Th'
'Mars_'
'scholar_'
'rus_'
'custom_'
'rf'
'opa'
'disabled_'
'archives_'
'VI_'
'Og'
'DJ_'
'ury_'
'belt_'
'Swedish_'
'RF'
'Emperor_'
'venture_'
'receives_'
'impa'
'Mana'
'Kenya_'
'poem_'
'ann'
'Throughout_'
'Mother_'
'−_'
'assert'
'Transport_'
'Ken_'
'Dream'
'fen'
'Jump_'
'1901_'
'ator_'
'Richmond_'
'gravity_'
'followers_'
'Horn'
'Branch_'
'profits_'
'pin_'
'golden_'
'exceptional_'
'south'
'precise_'
'hle'
'forge'
'root_'
'plo'
'mas'
'lighting_'
'kon'
'digit'
'break'
'bishop_'
'1908_'
'top'
'geographical_'
'bin_'
'adverse_'
'UE'
'Ow'
'Jin'
'wards_'
'rival_'
'nent_'
'dust_'
'More'
'Besides_'
'167'
'lon_'
'inform_'
'fate_'
'equity_'
'cell'
'stin'
'oned_'
'Mora'
'Li_'
'Hiro'
'romantic_'
'occurring_'
'cris'
'uto'
'speaks_'
'sg'
'sampling_'
'referring_'
'agi'
'Sei'
'cove'
'Tob'
'sting_'
'scu'
'reb'
'distant_'
'contents_'
'Die_'
'Dance_'
'longest_'
'flower_'
'fascinating_'
'deputy_'
'Keith_'
'1880_'
'short'
'sa'
'uit'
'kal'
'Pier'
'Leon'
'Frank'
'rance_'
'extends_'
'Caribbean_'
'ssa_'
'isc'
'ici'
'Entr'
'usage_'
'static_'
'och'
'disciplinary_'
'Come_'
'š'
'truck_'
'kas'
'anth'
'Sie'
'Por'
'Bell'
'beings_'
'recreation_'
'partial_'
'Chair_'
'rect'
'Meta'
'Letters_'
'unre'
'trip'
'ose'
'hei'
'VA_'
'Plant_'
'Jacob_'
'Alaska_'
'wonder'
'shi_'
'pole_'
'intent_'
'Ng'
'Hitler_'
'Dur'
'ono'
'dot'
'Pit'
'Germans_'
'AK'
'sporting_'
'rab'
'lanes_'
'Part'
'Io'
'Hot_'
'taxa_'
'successor_'
'soft'
'organizational_'
'mali'
'mal_'
'ré'
'exe'
'bridges_'
'alli'
'Ancient_'
'ssed_'
'offense_'
'hypothesis_'
'careers_'
'Woman_'
'Name_'
'pref'
'hee'
'dre'
'concentrated_'
'Stuart_'
'Raj'
'Kla'
'Farm_'
'OC'
'Gru'
'Command_'
'ume'
'tunnel_'
'poems_'
'ph_'
'mt'
'mation_'
'internationally_'
'Kazakhstan_'
'ually_'
'rar'
'honest_'
'ava'
'RB'
'Exchange_'
'succeed_'
'prep'
'confirm_'
'River'
'Manhattan_'
'param'
'exploring_'
'ake_'
'1870_'
'xx'
'vocals_'
'nut_'
'municipal_'
'cream_'
'cheer'
'Bh'
'stored_'
'exit_'
'GL'
'zon_'
'mounted_'
'lur'
'antic'
'dys'
'Sci_'
'stretch_'
'Rugby_'
'Penn_'
'discourse_'
'chronic_'
'107_'
'sk_'
'loo'
'beer_'
'RU'
'our'
'machinery_'
'lant'
'electoral_'
'disc_'
'anticipated_'
'án'
'riding_'
'ratings_'
'explored_'
'esh'
'burden_'
'gua'
'Juan_'
'Cai'
' --_'
'minds_'
'cations_'
'burn'
'youtube_'
'workshop_'
'tary_'
'proto'
'developers_'
'att'
'infl'
'friendship_'
'ein'
'delay_'
'SL'
'Overall_'
'Dig'
'nat'
'destroy_'
'Pee'
'Kid'
'Chen'
'musician_'
'Mean'
'Harrison_'
'scientist_'
'metric_'
'attain'
'asset_'
'RT_'
'operators_'
'disorders_'
'WO'
'WH'
'boss_'
'171'
'perspectives_'
'ites_'
'coe'
'tar_'
'jan_'
'horror_'
'Windows_'
'tune_'
'substantially_'
'punk_'
'dou'
'avi'
'Liberty_'
'Contemporary_'
'Cana'
'172'
'guarantee_'
'dimensions_'
'bases_'
'achieving_'
'Lun'
'primer_'
'master'
'Rool_'
'Form_'
'wheel_'
'luc'
'convinced_'
'comfort_'
'Regulation_'
'trac'
'rick_'
'iol'
'compiled_'
'breaks_'
'activists_'
'Southeast_'
'Democrats_'
' × _'
'old'
'Rather_'
'PB'
'Liber'
'ID'
'Haw'
'α'
'weapon_'
'sville_'
'soldier_'
'sie'
'paro'
'pack_'
'esti'
'eld_'
'dreams_'
'doctors_'
'ov'
'installation_'
'gen'
'zar'
'relatives_'
'pli'
'planes_'
'ffa'
'employer_'
'clothes_'
'Use'
'Pic'
'Nil'
'hem'
'enter'
'affecting_'
'SR'
'soccer_'
'organis'
'forty_'
'encountered_'
'dal_'
'bowl'
'Vel'
'Gul'
'Amendment_'
')._'
'geography_'
'corre'
'compa'
'Glasgow_'
'landed_'
'fallen_'
'conducting_'
'amino_'
'closest_'
'ald'
'110'
'specialist_'
'pr'
'dimensional_'
'wet_'
'smoking_'
'plum'
'infi'
'conf'
'Treaty_'
'Appl'
'á_'
'hospitals_'
'ghe'
'cam'
'St'
'Cold_'
'Athletics_'
'impe'
'enrich'
'eness_'
'chal'
'banking_'
'SD'
'Machine_'
'Vienna_'
'Nas'
'Dio'
'# _'
'uv'
'penn'
'tia'
'fat_'
'challenged_'
'Mik'
'Ches'
'161'
'lasting_'
'kr'
'Wildlife_'
'Kings_'
'gross_'
'correlation_'
'considerably_'
'complaint_'
'vani'
'ssa'
'depend_'
'ack_'
'Stanford_'
'hyl'
'ais'
'kis'
'adv'
'Reco'
'...'
'tb'
'Stea'
'Boys_'
'thu'
'rma'
'iness_'
'drawings_'
'bai'
'Trail_'
'Roth'
'Mall'
'wake_'
'sul'
'stick'
'rent'
'mur'
'Hei'
'Bones_'
'vit'
'formally_'
'Ou'
'Express_'
'Brothers_'
'Along_'
'ring'
'km'
'Scr'
'Juli'
'Hunt_'
'ppa'
'philosophical_'
'ind'
'hil'
'addressing_'
'Lions_'
'Inc'
'Hence_'
'GC'
'Aur'
'owed_'
'Knights_'
'Cann'
'wind'
'leaf_'
'ess'
'ces'
'bike_'
'Sir'
'Reserv'
'Psycho'
'ET_'
'pack'
'opponent_'
'rest'
'civilian_'
'% (_'
'descriptions_'
'Beyond_'
'&#_'
'tage_'
'slaves_'
'mia_'
'ives_'
'Champion_'
'Avi'
'uncon'
'punish'
'bid'
'Park'
'Noble_'
'tac'
'show'
'riti'
'prefer_'
'mp_'
'Joan_'
'tape_'
'ela'
'crossed_'
'collecting_'
'Republicans_'
'Matt'
'én'
'tically_'
'stops_'
'oma'
'mac'
'lun'
'kill'
'finest_'
'default_'
'Academic_'
'varying_'
'su_'
'settlements_'
'screening_'
'parliamentary_'
'drill'
'House'
'red'
'ising_'
'ecti'
'azi'
'Disc'
'BT'
'immune_'
'cab'
'Ib'
'1890_'
'boli'
'aid'
'HB'
'moon_'
'innings_'
'Bah'
'AO'
'160_'
'shallow_'
'oma_'
'northwest_'
'Stan'
'rese'
'nas_'
'hasn_'
'Trinity_'
'Studio_'
'160'
'iv_'
'eate'
'ado'
'Uni'
'Personal_'
'Biol_'
'tari'
'sick_'
'Wol'
'Results_'
'Medi'
'Head'
'CI_'
'hint'
'epti'
'doubt'
'Phe'
'Nov'
'storms_'
'skilled_'
'qu'
'pag'
'ferr'
'diet_'
'descend'
'consist_'
'surfaces_'
'attribut'
'ads_'
'Jur'
'24'
'chin'
'ata'
'archive_'
'Wild_'
'Tamil_'
'Mills_'
'fame_'
'announcement_'
'Wolf'
'Statistics_'
'Rub'
''' -- _'
'з'
'yield_'
'team'
'Wel'
'Power'
'meat_'
'Beau'
'tta'
'invention_'
'hurt_'
'discussing_'
'acqui'
'Northwest_'
'Neo'
'twe'
'prohibited_'
'affordable_'
'ach_'
'YE'
'Hughes_'
'Fla'
'Bie'
'worry_'
'updates_'
'rity_'
'promised_'
'nam'
'magazines_'
'loaded_'
'ash'
'oh'
'bling_'
'Sham'
'Mumbai_'
'Interstate_'
'170'
'tal'
'steep_'
'rud'
'Physical_'
'Care'
'Beat'
'photograph_'
'ification_'
'hid'
'gam'
'dde'
'chol'
'aya'
'traveled_'
'artificial_'
'Sega_'
'runner_'
'ome_'
'ico'
'grey_'
'fighter_'
'Tails_'
'Pa_'
'xe'
'cry'
'Sant'
'€_'
'financing_'
'declar'
'Primary_'
'Murphy_'
'tudes_'
'rily_'
'nomination_'
'nerve_'
'corridor_'
'Knight_'
'ú'
'isi'
'catch'
'bonds_'
'administered_'
'Coo'
'Cincinnati_'
'shal'
'oversee'
'oci'
'db'
'Sens'
'Mei'
'LC'
'violation_'
'quantity_'
'iz'
'Jon_'
'HT'
'lla'
'devo'
'dam'
'Until_'
'Conn'
'ula'
'sau'
'nse'
'comprised_'
'claiming_'
'Marl'
'Beijing_'
'rugby_'
'ndo'
'legs_'
'Nebraska_'
'1865_'
'slopes_'
'defendant_'
'Sz'
'Pt'
'Gol'
'Bang'
'protecting_'
'predominantly_'
'ort_'
'Aus'
'pis'
'nary_'
'lecture_'
'eg'
'Fau'
'gym'
'dan_'
'legitimate_'
'ight'
'employers_'
'Histori'
'voluntary_'
'sizes_'
'igu'
'bath'
'NU'
'30th_'
'xia'
'wer_'
'suspended_'
'nst'
'lism_'
'instances_'
'hop'
'enemies_'
'WR'
'Les_'
'Leader_'
'Helen_'
'Baptist_'
'orn'
'now'
'bol'
'nder'
'exhibits_'
'asc'
'amb'
'Sign_'
'Blu'
'Alt'
'ür'
'zoo'
'zen'
'ttle'
'lia'
'lati'
'historically_'
'formats_'
'electrical_'
'deri'
'cons'
'RES'
'Nai'
'Dol'
'70s_'
'utter'
'lak'
'ij'
'Run'
'Cole_'
'Addi'
'3D_'
'rts_'
'hanging_'
'draws_'
'rip'
'hap'
'functioning_'
'ave'
'atic_'
'NY'
'Finnish_'
'mina'
'ih'
'Corn'
'terrible_'
'shoot'
'provider_'
'pol'
'lease_'
'Fou'
'DT'
'115_'
'), ``_'
'sir'
'nym'
'ining_'
'designation_'
'Holland_'
'Buddhist_'
'vis'
'spectacular_'
'narrow'
'inel'
'highlighted_'
'editing_'
'cti'
'aj'
'Mira'
'cus'
'108_'
'workshops_'
'wei'
'publisher_'
'flo'
'depart'
'Lucas_'
'FT'
'Acad'
'estr'
'dimension_'
'chapters_'
'Jack'
'Cub'
'Bernard_'
'odi'
'dru'
'dent'
'Maine_'
'Edwards_'
'into'
'barriers_'
'Welcome_'
'Higher_'
'phor'
'mystery_'
'lucky_'
'jack'
'bit'
'reserved_'
'profiles_'
'lessly_'
'bread_'
'abundance_'
'Wor'
'Tyr'
'Provi'
'LD_'
'Insurance_'
'Gh'
'1920s_'
'173'
'tely_'
'lyn_'
'interp'
'Snow_'
'MN'
'LM'
'Cancer_'
'Athletic_'
'appreciation_'
'Wheel'
'Stro'
'1898_'
'nik_'
'mean'
'hoping_'
'excellence_'
'dina'
'Foot'
'Brother_'
'Ald'
'1899_'
'precisely_'
'ought_'
'appearing_'
'Wie'
'Subs'
'Prop'
'visitor_'
'prevention_'
'nest_'
'await'
'Warner_'
'Bran'
'Basketball_'
'rg_'
'communicate_'
'MRI_'
'Nat'
'Hill'
'walks_'
'nis'
'ched_'
'angi'
'Warfare_'
'Performance_'
'Love'
'Fish_'
'whenever_'
'refugees_'
'incarceration_'
'documentation_'
'dic'
'Brigade_'
'%), _'
'ise'
'bla'
'rol'
'pit_'
'owns_'
'les'
'ite'
'excluded_'
'cali'
'surf'
'sink'
'preliminary_'
'competitions_'
'μm_'
'ej'
'dera'
'buses_'
'athlete_'
'approached_'
'Ps'
'Bridge'
'ole_'
'mant'
'ently_'
'burning_'
'athletic_'
'Colli'
'vig'
'encouraging_'
'balls_'
'Us_'
'Flo'
'qualify_'
'mph_'
'mond_'
'interventions_'
'herb'
'Ted_'
'searching_'
'night'
'liga'
'expedition_'
'confident_'
'boot'
'Bear_'
'wee'
'road'
'reproduction_'
'pregnant_'
'phones_'
'brand'
'UNI'
'Robot'
'respect'
'dest'
'come'
'Sullivan_'
'Sr_'
'Phil'
'Esp'
'EI'
'Anti_'
'Abbey_'
'1864_'
'tos'
'obligation_'
'int'
'hay'
'TOR'
'NBA_'
'nec'
'ct'
'wid'
'main'
'kind'
'commentary_'
'cap_'
'Sac'
'Pan_'
'LY_'
'LGBT_'
'Hip_'
'Gun'
'strict_'
'soils_'
'rainfall_'
'UP'
'Fried'
'ship'
'nights_'
'memorable_'
'epo'
'Forrest_'
'Blood_'
'cloud_'
'Sky_'
'zy'
'zer'
'liquid_'
'convicted_'
'ESPN_'
'Buffs_'
'1903_'
'somehow_'
'ent'
'crazy_'
'Compa'
'protests_'
'liability_'
'discharge_'
'Sheffield_'
'mega'
'Us'
'350_'
'reflection_'
'politician_'
'opi'
'hardware_'
'funeral_'
'complaints_'
'Maz'
'Dead_'
'Amsterdam_'
'nent'
'grandfather_'
'dual_'
'coordinate_'
'WN'
'Turn'
'Laboratory_'
'Jen'
'Fact'
'Dha'
'Contact_'
'CU'
'readily_'
'jor'
'camps_'
'acknowledge_'
'SH'
'Hob'
'quer'
'beaches_'
'afford_'
'Ron_'
'1902_'
'169'
'tl'
'mayor_'
'IV'
'Bet'
'tne'
'sby_'
'Wre'
'Hom'
'Bog'
'Biology_'
'Abi'
'youngest_'
'spin_'
'rew'
'nationally_'
'Mono'
'Jerry_'
'Grace_'
'ead'
'bag_'
'Hara'
'112_'
'sme'
'lac'
'erg'
'cran'
'aggressive_'
'Rose'
'Commander_'
'tch'
'orange_'
'kat'
'Martin'
'Lis'
'repa'
'Gha'
'Alp'
'itt'
'confusion_'
'admission_'
'YA'
'Victor_'
'Ref'
'Agent_'
'zie'
'rna'
'ra'
'90s_'
'uncertainty_'
'rus'
'reads_'
'cheap_'
'Life'
'stroke_'
'Lyn'
'Haven_'
'FY'
'Der'
'BR'
'1904_'
'rr'
'profound_'
'god_'
'duc'
'committees_'
'IB'
'wages_'
'pert'
'flexible_'
'cognitive_'
'aero'
'Sep_'
'Phoenix_'
'Pers'
'Penn'
'qi'
'maternal_'
'GS'
'Dem'
'rem'
'nish'
'llo_'
'Jenkins_'
'tag'
'Scientific_'
'Bird_'
'odd_'
'mul'
'intersex_'
'gaining_'
'Bobby_'
'ural_'
'shan'
'Palestine_'
'Moldova_'
'Garr'
'ref_'
'cand'
'archi'
'Jun_'
'Elli'
'stic'
'electron_'
'Should_'
'Inst'
'Brooks_'
'113_'
'rifle_'
'orm'
'finishing_'
'export_'
'asa'
'High'
'yi'
'mers_'
'medals_'
'got'
'genuine_'
'dismiss'
'considers_'
'TH_'
'Pont'
'Non'
'tendency_'
'robust_'
'placing_'
'met'
'brands_'
'bias_'
'amended_'
'Raf'
'Hur'
'Eddington_'
'teeth_'
'saur'
'mouse_'
'firing_'
'cemetery_'
'Twi'
'Microsoft_'
'150'
'satisfaction_'
'cater'
'ame'
'UT'
'б'
'Indonesia_'
'Bun'
'oco'
'inhibit'
'hoped_'
'bills_'
'packed_'
'ledge'
'inquiry_'
'Who'
'Peri'
'ois_'
'ideology_'
'amp'
'traditionally_'
'surviving_'
'os'
'mortality_'
'You'
'specialized_'
'sol'
'mistake_'
'imagination_'
'Hungary_'
'Ama'
'wire_'
'learn'
'integral_'
'bn'
'atu'
'Milan_'
'Hin'
'Editor_'
'jam'
'advised_'
'Marc'
'mpt'
'journals_'
'ethical_'
'comprises_'
'WA_'
'Tour'
'Tigers_'
'Key'
'emissions_'
'PRI'
'symbols_'
'gue_'
'clu'
'Tag'
'RM'
'Gur'
'Bach'
'timber_'
'secret'
'counts_'
'alumni_'
'Tun'
'Equi'
'petition_'
'independently_'
'imi'
'Scout_'
'Hop_'
'Everyone_'
'Bes'
'vul'
'psi'
'pen_'
'mapping_'
'affair_'
'Llan'
'Leg'
'Beg'
'uous_'
'tati'
'productivity_'
'perf'
'crops_'
'circles_'
'ч'
'ough'
'inventory_'
'harmoni'
'fluid_'
'expe'
'Rest'
'ners_'
'generous_'
'boxes_'
'beneath_'
'ann_'
'Set_'
'Exce'
'109_'
'shorter_'
'pier'
'kka'
'grain_'
'flaw'
'eral'
'Stri'
'Raw'
'Programme_'
'Ot'
'Gen_'
'tome'
'shirt_'
'ren'
'occurrence_'
'nad'
'afterwards_'
'Negro_'
'MO_'
'Les'
'Commerce_'
'τ'
'hing_'
'hara'
'ank'
'dealt_'
'beds_'
'bulk_'
'acre_'
'Vid'
'Production_'
'Burn'
'outs_'
'occasional_'
'mba'
'honors_'
'Gas'
'loop_'
'conjunction_'
'ards_'
'Rein'
'Albany_'
'suspect_'
'stunning_'
'sack'
'lop'
'lations_'
'gho'
'cycles_'
'compound_'
'FR'
'FL'
'suffer_'
'coo'
'arte'
'Perry_'
'ا'
'tub'
'portions_'
'og_'
'dere'
'blow'
'andr'
'Wars_'
'Tacrolimus_'
'HR'
'ez'
'customs_'
'aco'
'RD_'
'Beth'
'manual_'
'gland'
'STE'
'Durham_'
'ute'
'rds_'
'Pou'
'Norfolk_'
'Kot'
'mod'
'embryo'
'Soc_'
'Making_'
'Car_'
'Bil'
'fault_'
'we'
'iba'
'bee'
'Girls_'
'Gem'
'Churches_'
'elevated_'
'Hawk'
'Cour'
'til'
'loose_'
'ira_'
'admire'
'meaningful_'
'horizontal_'
'Newton_'
'Math'
'uz'
'streaming_'
'lined_'
'insu'
'inspection_'
'Malay'
'Jun'
'Add_'
'pass'
'bic'
'Living_'
'Everything_'
'zn'
'vat'
'dn'
'Gir'
'ça'
'fig_'
'editors_'
'attempting_'
'xis'
'starring_'
'moral'
'conce'
'cit_'
'ador'
'Religion_'
'Rahman_'
'Pet'
'skin'
'coordination_'
'Seven_'
'List'
'Fab'
'tip_'
'repeatedly_'
'arch_'
'!! _'
'substrate_'
'merchant_'
'ior'
'implementing_'
'Imagin'
'Count'
'?'''
'physically_'
'je_'
'Property_'
'Practice_'
'Nepal_'
'Neg'
'Hell_'
'heroes_'
'forgotten_'
'fare_'
'enci'
'enables_'
'Sas'
'Dir'
'Architect'
'ype_'
'ml_'
'lifestyle_'
'incidents_'
'emergence_'
'Wit'
'STR'
'Pass'
'None_'
'Hall'
'And'
'''.'
'uss'
'spi'
'neutral_'
'Rich'
'Byron_'
'uro'
'melt'
'engineers_'
'bel_'
'Las_'
'199'
'reportedly_'
'radia'
'pupils_'
'past'
'occu'
'disadvantage'
'civilization_'
'TD'
'Syr'
'Sma'
'Ski'
'.' '_'
'paths_'
'lon'
'ish'
'drove_'
'aw_'
'Hir'
'Harold_'
'= _'
'ssions_'
'prey_'
'par'
'pant'
'orn_'
'ada_'
'thrown_'
'seemingly_'
'resolved_'
'leo'
'domains_'
'coalition_'
'Together_'
'ula_'
'tumor_'
'enz'
'Loo'
'Ani'
'1893_'
'urg'
'rum_'
'resolve_'
'demonstrates_'
'cade'
'TC_'
'а_'
'shoulder_'
'leak'
'edi'
'cere'
'Geneva_'
'Chapel_'
'twin_'
'township_'
'rice_'
'phy'
'math_'
'eru'
'Zionist_'
'TB'
'Sky'
'Rob_'
'LU'
'ral'
'pping_'
'ita_'
'carries_'
'cad'
'Sud'
'Roll'
'LAN'
'sab'
'pent'
'ection_'
'drainage_'
'corporation_'
'colla'
'Self_'
'Beatles_'
'Archived_'
'sal'
'fli'
'GDP_'
'Advisory_'
'routine_'
'ront_'
'particles_'
'iri'
'icon_'
'Rap'
'RC_'
'LSU_'
'Enter'
'ée_'
'induc'
'Schr'
'Mom'
'Leave'
'Kno'
'wishes_'
'mob'
'ento'
'abilities_'
'Petersburg_'
'Days_'
'Buffalo_'
'mus_'
'lasted_'
'deci'
'Vincent_'
'Mig'
'Associate_'
'nos'
'Palestinian_'
'Amo'
'?) _'
'spur'
'elu'
'Sna'
'Looking_'
'treatments_'
'rial_'
'labor'
'Roe'
'Ma_'
'Belfast_'
'ward'
'snap'
'privacy_'
'licensed_'
'dollar_'
'deco'
'const'
'SD_'
'Rand'
'1850_'
'sno'
'battles_'
'strikes_'
'slave_'
'recreational_'
'igi'
'M1'
'pter'
'circulation_'
'1860_'
'arise_'
'ade_'
'Lim_'
'Band'
'Xi'
'DA_'
'Bul'
'presenting_'
'outp'
'northeast_'
'lum'
'gog'
'creativity_'
'bronze_'
'Tau'
'Stee'
'Present'
'Es'
'phil'
'methodology_'
'erf'
'connecting_'
'Put'
'Explor'
'159'
'..'
'pee'
'expenditure_'
'ía_'
'ich'
'generating_'
'critic_'
'tory_'
'ese_'
'yth'
'wild'
'unemployment_'
'path'
'mber'
'iconic_'
'ema'
'ected_'
'Carn'
'transaction_'
'hob'
'acy_'
'Reve'
'Never_'
'sham'
'recalled_'
'dec'
'burial_'
'Herbert_'
'supplement_'
'shut_'
'peer_'
'natal_'
'mm'
'ire'
'asce'
'Lowe'
'ć_'
'ult'
'Vil'
'Denis'
'® _'
'too'
'studios_'
'priorities_'
'kit_'
'circular_'
'chel'
'Persian_'
'1897_'
'yri'
'uer'
'rite_'
'milli'
'ku_'
'evaluated_'
'South'
'Intelligence_'
'Chamber_'
'án_'
'wl'
'ath'
'Pos'
'Nik'
'Bli'
'rolling_'
'opo'
'gotten_'
'enzyme_'
'emp'
'Yorkshire_'
'Alberta_'
'rap_'
'hin'
'good'
'Cle'
'.. _'
'zb'
'violations_'
'scattered_'
'repeat_'
'poorly_'
'Well'
'Strategic_'
'Spot'
'Author_'
'worlds_'
'warrant'
'secular_'
'mist'
'anger_'
'Scan'
'Fellow_'
'CG'
'molecules_'
'lib'
'cted_'
'sediment_'
'quarterback_'
'ath_'
'ape'
'Abd'
'rw'
'annu'
'Measure'
'Coastal_'
'unfa'
'rounded_'
'Todd_'
'Follow_'
'Draft_'
'Charter_'
'Cathedral_'
'Big'
'Add'
'ting'
'nnial_'
'explicitly_'
'Centr'
'1800_'
'wealthy_'
'similarly_'
'modul'
'blow_'
'Popular_'
'Billi'
'vir'
'rac'
'obe'
'mai'
'loving_'
'hari'
'LC_'
'tremendous_'
'gent_'
'acc'
'Devi'
'worn_'
'patron'
'ministers_'
'hitting_'
'Kl'
'ы'
'sk'
'oso'
'lacking_'
'gains_'
'THAT_'
'Drug_'
'politically_'
'mort'
'mag'
'dé'
'bacterial_'
'Pam'
'MH'
'Dictionary_'
'900_'
'prestigious_'
'nam_'
'isation_'
'genera_'
'flood'
'elementary_'
'YOU_'
'FF'
'1896_'
'viewing_'
'fuel'
'bears_'
'Net'
'NATO_'
'Lil'
'toc'
'pleas'
'eld'
'dev'
'Temperance_'
'Suns'
'Large_'
'zo_'
'yw'
'wn'
'eighth_'
'ease_'
'dismissed_'
'Portugal_'
'Corp_'
'Areas_'
'nesses_'
'Berg'
'tern'
'loves_'
'flooding_'
'ev_'
'desert_'
'reta'
'recipient_'
'logi'
'gear_'
'cellular_'
'ab_'
'Petr'
'Lind'
'Guard_'
'succession_'
'publish_'
'Luther_'
'Aa'
'3d_'
'dus'
'Mann'
'GM'
'Floyd_'
'para_'
'ii'
'defining_'
'Kai'
'Anton'
'Ans'
'uin'
'trust'
'survivors_'
'researcher_'
'yst'
'recall_'
'oba'
'heart'
'drift'
'Lip'
'BE_'
'.'' '
'synonym'
'ntr'
'Tot'
'Set'
'Representatives_'
'Ox'
'és_'
'lady_'
'iy'
'hang_'
'bomb'
'assumption_'
'Masters_'
'...) _'
'restore_'
'gifts_'
'erosion_'
'commerce_'
'bili'
'Senator_'
'Billboard_'
'sevent'
'rous_'
'intensive_'
'hypo'
'bir'
'aesthetic_'
'Credit_'
'sm'
'rage_'
'peace'
'hack'
'Original_'
'Orchestra_'
'North'
'Kro'
'websites_'
'mood_'
'impressed_'
'eto'
'True_'
'Ske'
'Harvey_'
'Archi'
'struggling_'
'dying_'
'contexts_'
'Nic'
'topo'
'panc'
'observe_'
'infer'
'grid_'
'comparative_'
'Newcastle_'
'Levi'
'spite_'
'somebody_'
'rn'
'partnerships_'
'oxi'
'microscop'
'manufacturer_'
'intermediate_'
'greet'
'comprising_'
'Shak'
'Cornwall_'
'Biography_'
'stimulate'
'pil'
'eman'
'Scouts_'
'Rum'
'NBC_'
'Kea'
'Cow'
'intern'
'importantly_'
'graduation_'
'fisher'
'est'
'ege'
'descent_'
'Stars_'
'Rang'
'Nancy_'
' °_'
' ). _'
'rid_'
'nons'
'ama_'
'Show'
'Ralph_'
'walk'
'ue'
'bath_'
'art'
'Salt_'
'Mang'
'Broad'
'sudden_'
'epic_'
'transition'
'tight'
'tf'
'punishment_'
'itive_'
'foster_'
'flash'
'recommendation_'
'rece'
'oxygen_'
'Writing_'
'Tower_'
'Rac'
'Play_'
'ND_'
'Advanced_'
'unb'
'punch'
'ket_'
'bau'
'anyway_'
'Vert'
'Oliver_'
'Located_'
'tissues_'
'southwest_'
'scenario_'
'onom'
'mineral_'
'hab'
'flavo'
'distinguish_'
'abundant_'
'Pac'
'PLA'
'cos'
'constrain'
'Clinical_'
'tow'
'rental_'
'foundations_'
'beloved_'
'bacteria_'
'Wai'
'IU'
'Commercial_'
'healthcare_'
'continent_'
'conclusions_'
'Hope_'
'Compl'
'Cameron_'
'Architecture_'
'verte'
'ria'
'luck_'
'gb'
'fantasy_'
'controlling_'
'ail'
'Conservative_'
'Conse'
'tourists_'
'ende'
'cht'
'ain'
'activist_'
'Typ'
'End'
'stain'
'fr'
'extensively_'
'Rai'
'Hos'
'GRA'
'FREE_'
'360_'
'101'
'''; _'
'los_'
'leg'
'late'
'cri'
'Tap'
'PN'
'CK_'
'welcomed_'
'throne_'
'socio_'
'modest_'
'lab_'
'advantages_'
'VII_'
'Singer_'
','''
'murder'
'eliminate_'
'cycli'
'afraid_'
'trails_'
'subc'
'nw'
'ller_'
'discre'
'dancing_'
'belongs_'
'McLe'
'170_'
'tips_'
'slight_'
'jury_'
'hul'
'borrow'
'alan'
'Revis'
'Pick'
'turb'
'pt'
'pari'
'mono'
'minimal_'
'jail_'
'Visit_'
'Ex_'
'130'
' < _'
'slavery_'
'osc'
'chances_'
'Pil'
'Pai'
'Dat'
'globe_'
'gates_'
'brac'
'Finn'
'Fine_'
'Die'
'Bull_'
' ± _'
'tas'
'specializ'
'ruler_'
'promising_'
'popul'
'mme'
'har_'
'gal'
'emerge_'
'cosmo'
'chief'
'cent'
'Pack'
'Nathan_'
'HMS_'
'Bonn'
'Agriculture_'
'unexpected_'
'trace_'
'legally_'
'barely_'
'Experience_'
'physician_'
'lesson_'
'keen_'
'Geological_'
'Any'
'114_'
'rounds_'
'panels_'
'grass'
'completing_'
'Res_'
'stating_'
'fauna_'
'ensi'
'app'
'Naz'
'tein_'
'projected_'
'allies_'
'Lem'
'II'
'APP'
'vicinity_'
'prima'
'lean_'
'flee'
'divorce_'
'blues_'
'rra'
'pere'
'lace'
'comply_'
'transi'
'amid_'
'Dev'
'Alli'
'sophisticated_'
'rub'
'nch'
'iron'
'eran'
'disa'
'coat'
'breakfast_'
'amat'
'Enc'
'ï'
'well'
'shr'
'donated_'
'cleaning_'
'Top'
'Guil'
'DP'
'Chile_'
'%). _'
'imper'
'div'
'Julie_'
'submission_'
'py'
'bana'
'assi'
'VC'
'Sean_'
'valued_'
'shoes_'
'seam'
'remainder_'
'lakes_'
'even'
'cf_'
'Ukraine_'
'Turk'
'Rogers_'
'pipe'
'ong'
'nia'
'nder_'
'hn'
'deme'
'Movie_'
'Kau'
'quarters_'
'ei_'
'accelerat'
'Things_'
'Glen'
'Bachelor_'
'reg'
'pledge'
'luxury_'
'erland_'
'emotions_'
'cide_'
'Sak'
'Pierre_'
'McCa'
'Glo'
'tti_'
'rod'
'hman_'
'computing_'
'Sect'
'Rosa'
'OV'
'OE'
'stall'
'separately_'
'satisfied_'
'lw'
'championships_'
'IDE'
'Czech_'
'ony_'
'hind'
'bore'
' -- '
'strand'
'beating_'
'beaten_'
'Soon_'
'Marcus_'
'Brazilian_'
'123_'
'salary_'
'portfolio_'
'plasma_'
'otic_'
'get'
'brig'
'angel'
'Old'
'tril'
'shin'
'nod'
'forcing_'
'field'
'symboli'
'statutory_'
'soundtrack_'
'schi'
'prot'
'necessity_'
'menu_'
'lectures_'
'centered_'
'amateur_'
'Sui'
'dedication_'
'coni'
'Universal_'
'Meri'
'Dru'
'Benn'
'ε'
'tude_'
'tho'
'mir'
'lings_'
'grace_'
'cian_'
'arena_'
'affects_'
'advocate_'
'ê'
'world'
'silent_'
'fibril_'
'dining_'
'conferences_'
'ars'
'Kate_'
'Ges'
'Faculty_'
'Articles_'
'nsi'
'hme'
'blocked_'
'Vir'
'Publications_'
'Mick'
'rings_'
'rhe'
'nobody_'
'concerts_'
'alike_'
'Hero'
'tre_'
'labeled_'
'hr_'
'Kill'
'wart'
'ush'
'sel_'
'organisms_'
'mol'
'linguistic_'
'hers_'
'dir'
'State'
'Phys'
'Feli'
'Eng'
'warn'
'wad'
'power'
'ound'
'grateful_'
'ey'
'courage_'
'Theater_'
'Chand'
'tally_'
'moo'
'investigat'
'form'
'chains_'
'amm'
'NA_'
'Belle'
'mot'
'monument_'
'marr'
'gather_'
'anda'
'Dennis_'
'Bulgaria_'
'Ach'
'rien'
'productions_'
'lawyers_'
'intimate_'
'download'
'amendment_'
'Nord'
'pir'
'cyst'
'clinic'
'champions_'
'algorithm_'
'Pat_'
'travelling_'
'hunt_'
'duct_'
'SW'
'Nashville_'
'GPS_'
'Custom'
'CK'
'Against_'
'spell'
'sits_'
'isto'
'ese'
'empirical_'
'depicted_'
'chl'
'RG'
'Propos'
'121_'
'suggestions_'
'ive'
'hea'
'Rosen'
'Parks_'
'Lia'
'ō'
'wick_'
'stuck_'
'mad_'
'ecology_'
'cue'
'citizenship_'
'ball'
'advances_'
'Leadership_'
'Hub'
' *_'
'ddy_'
'Slav'
'Herm'
' ? _'
'territorial_'
'mines_'
'logo_'
'chen'
'certified_'
'Vegas_'
'Climate_'
'toe'
'sey_'
'settle_'
'proceed_'
'la'
'franc'
'ap_'
'Quality_'
'Hear'
'suspension_'
'nke'
'blast'
'Gas_'
'Brown'
'Alle'
'tobacco_'
'timing_'
'hua'
'assignment_'
'Shir'
'Regard'
'nearest_'
'mut'
'lesser_'
'Robin_'
'usel'
'traits_'
'symbolic_'
'palm'
'mind'
'ida_'
'athletics_'
'alliance_'
'Yeah_'
'Wed'
'Strategy_'
'.--_'
'interviewed_'
'acquire_'
'Shan'
'Phillips_'
'Liberal_'
'Klein'
'Competition_'
'Chat'
'rth'
'psycho'
'Hem'
'thei'
'dynasty_'
'delivering_'
'WAR'
'Sco'
'HR_'
'1895_'
'nn_'
'migrants_'
'mc'
'fragments_'
'earning_'
'am'
'WS'
'Thir'
'Tac'
'Pel'
'Eds_'
'Dep'
'tings_'
'refu'
'isolation_'
'Resident'
'GG'
'')'
'ст'
'tide_'
'stas'
'redi'
'printing_'
'owi'
'oct'
'num'
'ness'
'museums_'
'latitude_'
'hen_'
'barrier_'
'alb'
'Tip'
'Circu'
'scout'
'planets_'
'pea'
'nus_'
'interval_'
'disse'
'bedroom_'
'threw_'
'len_'
'inc'
'guaranteed_'
'fifteen_'
'corporations_'
'agon'
'Hebdo_'
'Ax'
'vector_'
'varies_'
'portray'
'pend'
'navigation_'
'dig'
'copper_'
'conduct'
'aspir'
'SF_'
'Leonard_'
'wis'
'use'
'sue'
'err'
'Stock'
'Col_'
'Arkansas_'
'.'''
'sce'
'flies_'
'conta'
'acids_'
'Ts'
'fus'
'flexibility_'
'dai'
'closure_'
'Li'
'Eur'
'honored_'
'gge'
'Hab'
'rer'
'Spe'
'RY_'
'NO_'
'mediated_'
'graphics_'
'conscious_'
'coc'
'Cricket_'
'voyage_'
'tail'
'strictly_'
'meni'
'divine_'
'Details_'
'staying_'
'racism_'
'propaganda_'
'poo'
'gree'
'exploitation_'
'convey'
'chess_'
'Would_'
'Inside_'
'Frankfurt_'
'Comput'
'permits_'
'hyp'
'explaining_'
'common'
'Ret'
'yla'
'phases_'
'oss'
'myo'
'inat'
'express'
'emia_'
'Baha'
'Assi'
'warfare_'
'specimen_'
'preference_'
'inva'
'bree'
'assessments_'
'weaken'
'ranch'
'pronounced_'
'hn_'
'attractions_'
'Sixt'
'Feature'
'Communication_'
'Barre'
'unin'
'nel'
'legislature_'
'Walt'
'Magic_'
'Os_'
'Baron_'
'!) _'
'ag_'
'Laur'
'Hydro'
'Contract'
'Bei'
'Arnold_'
')-_'
'vid'
'mart'
'farms_'
'batt'
'Hurricane_'
'DF'
'Brisbane_'
'southeast_'
'pot_'
'Dil'
'ç'
'structured_'
'proximity_'
'mini_'
'maintains_'
'ignored_'
'captiv'
'Tol'
'Nothing_'
'117_'
'masses_'
'loading_'
'Places_'
'Cuba_'
'Art'
'pta'
'indis'
'ices_'
'foods_'
'communist_'
'Independence_'
'why_'
'ruct'
'remi'
'mato'
'loc'
'linking_'
'colored_'
'Jac'
'Hon'
'Ferr'
'Bears_'
'Alg'
'shak'
'histories_'
'brit'
'assumptions_'
'Hug'
'Fr'
'Dw'
'gne'
'WP'
'Scale_'
'MI_'
'BP'
'priests_'
'owing_'
'ice'
'essays_'
'Zhang_'
'Athens_'
'spr'
'rto'
'mail'
'hear'
'found'
'fails_'
'ect_'
'bicycle_'
'MT'
'shri'
'shm'
'faithful_'
'Tommy_'
'''''
'surely_'
'omm'
'med'
'infected_'
'gd'
'WT'
'wisdom_'
'dash'
'capability_'
'Maxim'
'Fro'
'Donkey_'
'ru_'
'hri'
'ease'
'dim'
'Trav'
'Sk'
'Missi'
'Leeds_'
'Cover'
'157'
'. ------'
'thy_'
'tenure_'
'ressi'
'pH_'
'ova_'
'live'
'jay'
'ische'
'interact_'
'elect'
'MB'
'Hav'
'Cliff'
'seller_'
'modes_'
'conclude_'
'Players_'
'Moor'
'Kab'
'Blanc'
'1863_'
'158'
'witnesses_'
'uncle_'
'lave'
'allegations_'
'UD'
'EG'
'pf'
'nge_'
'kne'
'journalism_'
'fibrils_'
'aru'
'Pie'
'outlined_'
'nger_'
'myth'
'grades_'
'civic_'
'arat'
'advisor_'
'Resource_'
'Image_'
'Fisher_'
'BY_'
'surveillance_'
'serum_'
'carrier_'
'bing_'
'Tool'
'Summary_'
'OB'
'Med_'
', -'
'teen_'
'sentenced_'
'rendered_'
'ip_'
'iers_'
'computation'
'bet_'
'Species_'
'Learn_'
'Isa'
'Estonia_'
'60s_'
'),'
'yma'
'tides_'
'quote_'
'nism_'
'ideological_'
'contacts_'
'Romania_'
'Mull'
'1889_'
'rk_'
'receptor_'
'propo'
'prec'
'considerations_'
'cleared_'
'blind_'
'ash_'
'Territory_'
'Mill_'
'Crime_'
'Alv'
'120'
'subm'
'logically_'
'harder_'
'glu'
'Shah_'
'Mes'
'Im'
'Coa'
'spin'
'sake_'
'rob'
'odds_'
'lov'
'jur'
'differently_'
'avat'
'announce_'
'aga'
'Tax_'
'Shell'
'Hein'
'Bec'
'.'_'
'protocol_'
'predict_'
'pond_'
'hut'
'evo'
'enabling_'
'costume'
'acco'
', ``'
'ib'
'banned_'
'Duty_'
'veterans_'
'mans'
'indication_'
'Row'
'. $_'
'thoroughly_'
'pioneer_'
'dm'
'arth'
'ZO'
'Xa'
'Thes'
'Harlem_'
'viral_'
'pseudo'
'jin'
'hydra'
'gie'
'flank'
'duct'
'currency_'
'Greater_'
'GN'
'CS_'
'Bennett_'
'urin'
'tle'
'kb'
'inf'
'Simpson_'
'Has_'
'.) '
' (...) _'
'pollution_'
'kin'
'cape'
'Arn'
'135_'
'wes'
'uce'
'theo'
'shelter_'
'mar_'
'Sound'
'Peninsula_'
'Marketing_'
'Cut'
'yam'
'venues_'
'ull'
'threatening_'
'phal'
'ol'
'incomp'
'fitness_'
'configuration_'
'Nevada_'
'stun'
'likelihood_'
'freed'
'checks_'
'accus'
'VO'
'Fund'
'Cir'
'Bad_'
'presumably_'
'mates_'
'idio'
'gray_'
'bug'
'airs'
'aggregat'
'Thin'
'Pom'
'Mort'
'Diet'
'Cond'
'vu'
'freely_'
'combine_'
'autonomy_'
'Maw'
'Document'
'Chem_'
'152'
'transform_'
'ori_'
'kam'
'fare'
'cot'
'Stone'
'Semi'
'Sav'
'Ray'
'Rash'
'EA_'
'woods_'
'wheel'
'sse_'
'ref'
'enterprises_'
'Wiki'
'Delaware_'
'Bod'
'suspected_'
'phenomena_'
'nce'
'gni'
'equal'
'delayed_'
'bour'
'ICC_'
'tol'
'tends_'
'targeting_'
'snow'
'mption_'
'exhibited_'
'erv'
'cattle_'
'Ton'
'Aff'
'tire'
'ren_'
'place'
'noble_'
'after'
'Thur'
'Raymond_'
'Lud'
'Gregory_'
'pest'
'nm_'
'assists_'
'Mand'
'Bank'
'stack'
'rotation_'
'rai'
'mpe'
'ew_'
'enrolled_'
'colli'
'Sex_'
'Ath'
'sheets_'
'aha'
'Oka'
'Gab'
'Found'
'. *_'
'testimony_'
'sem'
'sacrifice_'
'ective_'
'discusses_'
'Vie'
'Style_'
'Norw'
'Chil'
'25'
'llu'
'ambitious_'
'admit_'
'Storm_'
'Run_'
'Off_'
'Colonial_'
'11'
'originat'
'intact_'
'gna'
'complain'
'Stand'
'Metro_'
'verb'
'rre'
'placement_'
'gig'
'esa'
'Educational_'
'1867_'
'ym'
'prevent'
'oto'
'Witt'
'transfer'
'rane'
'compounds_'
'Religious_'
'FC'
'Ch'
'terminate'
'confused_'
'TF'
'Sit'
'Sh'
'Reed_'
'Challenge_'
'ui'
'tracking_'
'struggles_'
'oda'
'insects_'
'endi'
'crop_'
'`_'
'Keep_'
'JU'
'Euroleague_'
'օ'
'ultra'
'sd'
'regards_'
'hurricane_'
'holidays_'
'dramatically_'
'brid'
'awesome_'
'Tas'
'Gibb'
'Are'
'vy_'
'tomorrow_'
'jewel'
'grad'
'fires_'
'embedded_'
'bat_'
'balanced_'
'arriving_'
'Wer'
'Coll_'
'tackle_'
'overr'
'Mae'
'Anglican_'
' ($_'
'screen'
'rri'
'reso'
'oe_'
'nolog'
'failing_'
'conviction_'
'Mongol'
'Lay'
'LG'
'Hipp'
'GF'
'Ard'
'witnessed_'
'remarks_'
'rebellion_'
'ous'
'lesbian_'
'ground'
'attraction_'
'aboard_'
'UP_'
'Rus'
'Manda'
'Grove_'
'regulate_'
'rally_'
'indicators_'
'fores'
'bus'
'Gene'
'Disco'
'ritual_'
'pola'
'debates_'
'bul'
'Gos'
'nct'
'generic_'
'fusion_'
'ela_'
'bie'
'bab'
'\u'
'Similar_'
'PK'
'DC'
'Bac'
'eme'
'eleven_'
'edly_'
'bold_'
'answered_'
'Start_'
'MU'
'unbe'
'artifacts_'
'Share_'
'Problem'
'Medicare_'
'DH'
'Columbus_'
'wd'
'transcription_'
'thank'
'terrain_'
'measuring_'
'ket'
'eso'
'beneficial_'
'Wig'
'Div'
'BER'
'relates_'
'proceeds_'
'pen'
'iro_'
'`` _'
'UTC_'
'Merc'
'Cole'
'â'
'ums_'
'ub_'
'syndrome_'
'overc'
'nb'
'inland_'
'Isla'
'Gala'
'Chee'
'ߋ'
'ornament'
'fon'
'demographic_'
'declaration_'
'coordinates_'
'TW'
'Lakes_'
'Back'
'xes_'
'strip_'
'definitions_'
'coll'
'alter_'
'allu'
'Stat'
'Dele'
'Chelsea_'
'web'
'stress'
'realm_'
'medi'
'intelligent_'
'farm'
'columns_'
'capitalism_'
'assembled_'
'ari_'
'Venice_'
'Idea'
'Holmes_'
'Ens'
'Cel'
'socialist_'
'mpi'
'mam'
'kra'
'ignor'
'ier'
'evolutionary_'
'distances_'
' . '
'terror_'
'pes_'
'has'
'eous_'
'defines_'
'Mason_'
'132_'
'ule'
'ican'
'Catal'
'ɦ'
'crafts'
'Tah'
'Nep'
'Moll'
'Isle_'
'))'
'tti'
'polymer'
'ona_'
'ero_'
'carp'
'authentic_'
'Rural_'
'Hart_'
'>'
'wr'
'uniform'
'motivated_'
'fossil_'
'dent_'
'clusters_'
'Vau'
'Savi'
'Brook'
'A2'
'rv'
'Related_'
'Pere'
'Malankara_'
'Luke_'
'Kel'
'Bent'
'116_'
'relevance_'
'phr'
'inal_'
'feud'
'convict'
'bad'
'Movi'
'Һ'
'ymo'
'shifted_'
'revi'
'god'
'Consider'
'missi'
'insert'
'high'
'ethics_'
'diplomatic_'
'crea'
'attributes_'
'Pis'
'Cand'
'1894_'
'waste'
'realistic_'
'radical'
'onis'
'finger_'
'check'
'block'
'Shipping_'
'SO_'
'Fresh'
'Exe'
'Aaron_'
'school'
'nol'
'eba'
'conversations_'
'cond'
'Ves'
'Stal'
'Ell'
'Curr'
'tanks_'
'tales_'
'songwriter_'
'ost_'
'oh_'
'WB'
'Tang'
'Pote'
'LP'
'? ``_'
'transl'
'tier_'
'reasonably_'
'oint'
'liberty_'
'integ'
'handful_'
'embark'
'edo'
'credited_'
'coupled_'
'chen_'
'Phase_'
'NJ_'
'Cran'
'Bara'
'unrel'
'quantitative_'
'mysterious_'
'compelling_'
'Range_'
'HD_'
'FB'
'underw'
'thy'
'premiere_'
'heal'
'convenient_'
'confe'
'Operation_'
'Hippo_'
'Greg_'
'Davies_'
'photography_'
'icu'
'applicant_'
'Tab'
'FL_'
'Consequently_'
'validity_'
'sali'
'eras'
'counsel_'
'Auckland_'
'unclear_'
'tid'
'suits_'
'shout'
'ache'
'Crea'
'Charleston_'
'Ass'
'118_'
'som'
'pped_'
'heaven_'
'Originally_'
'Lai'
'Gilbert_'
'Budd'
'1891_'
'wi_'
'uncertain_'
'knock'
'boost_'
'ado_'
'Tree_'
'prog'
'ern_'
'bbe'
'Nie'
'Edi'
'Divin'
'Dec'
'Clarke_'
'shar'
'eliminated_'
'WC'
'Uru'
'151'
'subsid'
'reside'
'lower'
'earthquake_'
'McCo'
'Jos'
'Brad'
'.) (_'
' % _'
'ute_'
'suck'
'ple_'
'pension_'
'astronomy_'
'ancestors_'
'advis'
'Roosevelt_'
'Parr'
'Montgomery_'
'Laura_'
'Circle_'
'Call'
'unders'
'polit'
'patent_'
'fix'
'arising_'
'Woods_'
'FU'
'Emma_'
'waterf'
'trailer_'
'sustainability_'
'ska'
'rapp'
'praise_'
'landscapes_'
'imprisonment_'
'dense_'
'debris_'
'Av'
'1886_'
'ł'
'seasonal_'
'ille'
'hill'
'enthusiasm_'
'advertisement'
'Boe'
'syn'
'sche'
'aria'
'ama'
'Stand_'
'119_'
'~'
'stol'
'olin'
'conse'
'Geography_'
'Ct'
'Ano'
'1892_'
'č'
'sexuality_'
'noting_'
'neighbors_'
'educat'
'affiliated_'
'Thor'
'Distribution_'
'Comb'
' :'
'sep'
'jer'
'ebe'
'analyze_'
'Gee'
'3A'
'sign'
'ogen'
'hwa'
'full'
'explicit_'
'eter'
'demonstration_'
'bac'
'Wire'
'Marriage_'
'LR'
'Fleet_'
'August'
'1861_'
'ен'
'tick'
'seeds_'
'flights_'
'festivals_'
'bog'
'Take'
'Schedule_'
'Money_'
'Marsh_'
'Far_'
'unma'
'incom'
'hag'
'excavat'
'correctly_'
'bang'
'SP_'
'' -'
'vert'
'torture_'
'pose_'
'nna_'
'iz_'
'demanded_'
'assembl'
'Zh'
'Sharp'
'Rag'
'DM'
'155'
'yar'
'sai'
'ruin'
'rehabilitation_'
'nna'
'ima'
'hearts_'
'fitting_'
'exceed_'
'entr'
'soo'
'rational_'
'ogi'
'hia'
'exi'
'dele'
'chap'
'bay'
'Tir'
'Eth'
'Dou'
'Companies_'
'Base_'
'Around_'
'visi'
'Protect'
'Nap'
'Krist'
'Bus_'
'ista'
'indicati'
'editorial_'
'differentiation_'
'dd'
'confined_'
'WS_'
'SmartThings_'
'NH'
'Mennonite_'
'Borde'
'Belize_'
'Ado'
'suit'
'ric'
'miner'
'invest_'
'gori'
'Rachel_'
'Dai'
'Congr'
'mb'
'ater_'
'Routledge_'
'Danny_'
'receiver_'
'incredibly_'
'hila'
'enn'
'dul'
'acet'
'Plant'
'Daw'
'townsite_'
'tea'
'pill'
'init'
'htm_'
'angry_'
'advers'
'Flu'
'133_'
'switch'
'rack'
'pocket_'
'perse'
'leas'
'collaborate'
'Sch'
'RR_'
'Gera'
'Acc'
'yr_'
'tter'
'select'
'sati'
'rke'
'magi'
'kov'
'hart'
'equat'
'chick'
'broadly_'
'altitude_'
'allegedly_'
'Putin_'
'Int'
'Balla'
'temporal_'
'picture'
'oun'
'ellular_'
'anis'
'nj'
'locked_'
'vac'
'tolerance_'
'seiz'
'possess_'
'hostile_'
'handled_'
'extract_'
'cup'
'confi'
'Inv'
'Colla'
'Bass'
'127_'
'reply_'
'replacing_'
'ias_'
'cli'
'advertise'
'Track_'
'Shaw_'
'Roa'
'Fourth_'
'Corporate_'
'zh'
'urg_'
'myc'
'hadn_'
'fabric_'
'cos_'
'Paul'
'Kre'
'137_'
'stock'
'resid'
'mL_'
'C1'
'ALL_'
'129_'
'trap'
'thir'
'mari'
'fond'
'deceased_'
'apa'
'Term'
'Legend'
'Fed'
'ust_'
'supervision_'
'fix_'
'beam_'
'base'
'Same_'
'Playa_'
'Cycl'
'una_'
'powder_'
'ode'
'indirect_'
'ido'
'demi'
'biodiversity_'
'badly_'
'Tr'
'ska_'
'retention_'
'reconstruction_'
'designat'
'Towns'
'GH'
'Euc'
''')'
'ū'
'quil'
'mented_'
'fool'
'chim'
'burned_'
'Schl'
'Mod'
'Doll'
'ups'
'fuck'
'ffle'
'eth_'
'bombing_'
'WE_'
'Table'
'upp'
'tine_'
'inherent_'
'footage_'
'constructi'
'Sen'
'Res'
'Fel'
'Extra'
'Arti'
'1862_'
'rey_'
'reflecting_'
'myth_'
'kn'
'appoint'
'Wallace_'
'Success'
'Cecil'
'silence_'
'orbit'
'lita'
'any'
'Standards_'
'Conc'
'restrain'
'othe'
'implies_'
'enters_'
'choo'
'TER'
'Store_'
'Electric_'
'1888_'
'strati'
'martial_'
'elaborate_'
'authoriz'
'Rab'
'Near_'
'HP'
'GM_'
'Ambassador_'
'ution'
'race'
'pie'
'offend'
'nant_'
'iew'
'genius_'
'dissi'
'Leicester_'
'rows_'
'rend'
'hub_'
'Ov'
'OI'
'uncover'
'joins_'
'glory_'
'esh_'
'direct'
'cente'
'arit'
'Ster'
'ONE_'
' = '
'rti'
'right'
'ecosystem_'
'cousin_'
'Pav'
'ör'
'seri'
'ament'
'alleg'
'alien_'
'ysi'
'quisit'
'ear_'
'cour'
'cooking_'
'Niko'
'Jose_'
'Evolution_'
'Brun'
'Asa'
'Arm'
'wra'
'vent'
'tweet'
'geni'
'capitalist_'
'UG'
'SI_'
'Mid_'
'Guy_'
'Gardens_'
'prevented_'
'abr'
'Memor'
'und'
'libraries_'
'lated_'
'dun'
'Luc'
'Ds_'
'Almost_'
'unpa'
'surprisingly_'
'iet'
'hawk'
'economies_'
'cious_'
'Sed'
'MD'
'scan'
'roster_'
'renewed_'
'ngu'
'identifi'
'ict_'
'humor_'
'hetero'
'ett'
'desi'
'World'
'Tax'
'TY_'
'Lock'
'talents_'
'sew'
'may'
'ffin'
'davi'
'cant'
'appreciated_'
'Lecture'
'Jennifer_'
'175_'
'sacr'
'purpo'
'organs_'
'keeper_'
'dos_'
'ams'
'accumulation_'
'23'
'153'
'uga'
'fit'
'dump'
'rama'
'nig'
'cod'
'Ora'
'Gibson_'
'Birth_'
'uen'
'sent'
'ena_'
'congregation_'
'ceme'
'cabinet_'
'RIC'
'Citation_'
'Carroll_'
'rul'
'quel'
'lh'
'bou'
'Tara'
'PR_'
'Narra'
'Director'
'Class'
'131_'
'�'
'with'
'organize_'
'ien'
'hb'
'fast'
'bos'
'Dream_'
'uci'
'osa_'
'Waters_'
'Emer'
'Circuit_'
'regi'
'gee'
'contend'
'Winston_'
'OO'
'Nut'
'Mee'
'Angl'
'ي'
'recover_'
'lass'
'genesis_'
'emb'
'Ernest_'
'buffer_'
'Owen_'
'Henri'
'qualifying_'
'des'
'awa'
'adjusted_'
'Write'
'Hebrew_'
'Ave_'
'zan'
'sta_'
'spe'
'qualification_'
'pati'
'paper'
'inger_'
'Howe'
'Half_'
'1885_'
'script'
'relieve'
'liat'
'diploma'
'cart'
'cac'
'belonged_'
'Faith_'
'ets'
'essence_'
'catalogue_'
'Sc'
'SK'
'mentor'
'fte'
'cont'
'cari'
'Grave'
'GP'
' ('_'
'unlo'
'thorn'
'thor'
'pou'
'ntial_'
'noc'
'illustrate_'
'hide_'
'cca'
'Tou'
'Reports_'
'Greg'
'Cork_'
'128_'
' ^ '
'whites_'
'quota'
'polyg'
'narratives_'
'fits_'
'dable_'
'Statement_'
'Byzantine_'
'140'
'unse'
'sentences_'
'ials_'
'deposit_'
'athe'
'anci'
'Vander'
'Tournament_'
'Naka'
'Demo'
'400'
'wives_'
'versi'
'tici'
'scru'
'nationwide_'
'narrat'
'motive'
'gic'
'erl'
'eer'
'Gay_'
'111'
'sill'
'identities_'
'exports_'
'explosion_'
'contrast'
'cet'
'Plus_'
'MIT_'
'Evidence_'
'threshold_'
'pathways_'
'parl'
'minorities_'
'lr'
'ding'
'cosm'
'Wide'
'Single_'
'Leo_'
'Cohen_'
'sc'
'ran'
'permi'
'etic'
'dignity_'
'Activi'
'raid'
'proba'
'patri'
'opod'
'Ottoman_'
'Lut'
'Lill'
'Exit_'
'Coulee_'
'sters_'
'rug'
'nica'
'mentions_'
'locomotive'
'choosing_'
'NCE_'
'Astro'
'diet'
'counsel'
'total'
'tod'
'statute_'
'shit_'
'osis_'
'optimal_'
'mobility_'
'illustrates_'
'disappeared_'
'champ'
'breast_'
'big'
'Medic'
'Eva'
'> '
'102'
'roof'
'prefer'
'pid'
'nsion'
'apartments_'
'anni'
'IX_'
'Hog'
'Guardian_'
'vist'
'thre'
'sph'
'situ'
'nursing_'
'multipl'
'mble'
'lett_'
'ioni'
'domin'
'damages_'
'curious_'
'condition'
'bu_'
'Wind'
'Helm'
'witch'
'wander'
'stepped_'
'sorry_'
'loads_'
'hug'
'cree'
'amid'
'Scen'
'Estate_'
'Cs_'
'Career_'
'thermo'
'sick'
'rks_'
'recalls_'
'mock'
'filling_'
'brook_'
'anymore_'
'animation_'
'YAP_'
'Pon'
'Ecology_'
'Depression_'
'modeling_'
'minist'
'book'
'ake'
'Cooperati'
'Allah_'
'1883_'
'156'
'...'' _'
'type'
'salt'
'peasant'
'norms_'
'nai'
'drums_'
'apr'
'Twenty_'
'Reynolds_'
'Quin'
'Method'
'Kenneth_'
'Hampshire_'
'uy'
'steal'
'llan'
'favour'
'Genera'
'' '
'summit_'
'poll_'
'oul'
'neu'
'fur_'
'eon_'
'edit'
'Grand'
'labels_'
'jet_'
'icon'
'dressed_'
'disability_'
'clad'
'Loc'
'>. _'
'450_'
'purely_'
'nate'
'lous'
'hosting_'
'Rick_'
'NC_'
'Folder_'
'Fantas'
'Das'
'Clear'
'vr'
'thereafter_'
'ninth_'
'import_'
'how'
'flow'
'disso'
'cruel'
'Rhy'
'Emily_'
'reass'
'pump'
'explores_'
'Launch_'
'zia'
'viable_'
'rode'
'performers_'
'opho'
'nationalism_'
'marsh'
'iot'
'came'
'bas'
'Whitman_'
'UF'
'Minutes_'
'Boh'
'sop'
'round'
'pursuit_'
'preceding_'
'pillar'
'ment'
'feed'
'ell'
'battery_'
'Wind_'
'Thorn'
'Swin'
'Score'
'Honour'
'Cant'
'nding_'
'ept'
'drafted_'
'disgu'
'df'
'Jeremy_'
'Interior_'
'Engineers_'
'Conservat'
'oin'
'germ'
'erni'
'Mach'
'Inn_'
'pour_'
'onsi'
'leen_'
'justified_'
'expressions_'
'exceptions_'
'due'
'Farmer'
'zzle'
'unfold'
'supervisor'
'steam'
'manifest'
'dar_'
'acclaimed_'
'Walk_'
'Raz'
'Pool'
'CAS'
'Animal_'
'1871_'
'thal'
'server_'
'rtain'
'rive'
'rid'
'reproduc'
'ograph'
'oat'
'masters_'
'furniture_'
'delegation_'
'REA'
'LB'
'Depo'
'DB'
'Creati'
'warrior'
'trim'
'travels_'
'tactics_'
'sr'
'scare'
'prosecutor'
'kick'
'ident'
'eg_'
'cata'
'Sons_'
'Savannah_'
'Pant'
'premises_'
'oner_'
'medicin'
'mbr'
'drives_'
'delegates_'
'consultant_'
'Tall'
'Oak'
'Marian'
'??'
'sum'
'sie_'
'privilege_'
'preventing_'
'manages_'
'erb'
'deployed_'
'clause_'
'ats_'
'Travel'
'Domin'
'Cen'
'1881_'
'él'
'sda'
'competent_'
'boo'
'Zurich_'
'Lovelace_'
'Judaism_'
'Harri'
'Fire'
'Champions_'
'Anglo_'
'yto'
'table'
'stru'
'shifts_'
'ptic'
'divide_'
'cen'
'Unit'
'Spin'
'OH'
'Core'
'Baro'
'Armstrong_'
'Alba'
'Agricultural_'
'154'
'13'
'regulat'
'pinn'
'persist'
'parasit'
'lap'
'close'
'Tho'
'Pep'
' \u'
'virtue_'
'stor'
'rup'
'prese'
'overnight_'
'magnet'
'hed'
'examining_'
'examines_'
'duo_'
'SON_'
'Papa'
'ICA'
'ë'
'tende'
'marking_'
'divide'
'conventions_'
'apt'
'Summer'
'Karen_'
'Concept'
'Complex_'
'Churchill_'
'Abs'
'122_'
'major'
'hybrid_'
'flor'
'comparing_'
'Sib'
'Merce'
'Josh_'
'File_'
'Critical_'
'Bomb'
'touchdown_'
'peers_'
'parent'
'obtaining_'
'emphasized_'
'bend'
'Preservation_'
'Koo'
'Brac'
'202'
'tv_'
'swor'
'subtle_'
'militant'
'logistic'
'ient'
'humo'
'gai'
'donations_'
'continuously_'
'cancel'
'ancest'
'Toy'
'Ther'
'Plate'
'FBI_'
'Campus_'
'Baby_'
'psych'
'organizing_'
'morphi'
'kings_'
'infections_'
'SM_'
'Rep'
'pursuant_'
'pleasant_'
'oga'
'negotiati'
'morphology_'
'incar'
'hoo'
'histo'
'dura'
'bench_'
'agr'
'Victor'
'USS_'
'Pitt'
'Command'
'124_'
', ... _'
'loyal_'
'linea'
'inters'
'haunt'
'clue'
'Travel_'
'STO'
'ér'
'introducing_'
'genital'
'ern'
'dozens_'
'bedro'
'Wag'
'Published_'
'Principal_'
'Mohammed_'
'Kapoor_'
'Fossil_'
'imagery_'
'hal_'
'ι'
'yell'
'substitute_'
'ngi'
'gue'
'dise'
'Target_'
'National'
'Express'
'Endo'
'Det'
'vag'
'remedi'
'obi'
'goo'
'did'
'Regi'
'Madrid_'
'Jas'
' /'
'some'
'quart'
'prospects_'
'gravel_'
'fica'
'bell_'
'OG'
'Cool'
'Britt'
'Account'
'125'
'thereof_'
'smo'
'developer_'
'Teaching_'
'Ris'
'14'
'tutor'
'spell_'
'smoked_'
'org'
'hes'
'excessive_'
'decorated_'
'condo'
'accent'
'Wells_'
'Thai_'
'Gou'
'Anc'
'ño'
'pain'
'ngly_'
'incon'
'hte'
'elin'
'convert_'
'Ral'
'ORD'
'Natal'
'Muse'
'Kie'
'tensions_'
'mud_'
'ha'
'grows_'
'faction_'
'drag_'
'detention_'
'comb'
'checked_'
'anarchist_'
'XI'
'Sic'
'SHI'
'Pole'
'Moha'
'varieties_'
'tria'
'soma'
'modification_'
'ig_'
'glad_'
'ffs_'
'enzymes_'
'blame_'
'archiv'
'alis'
'Criminal_'
'tered_'
'rill'
'oil'
'manufacture_'
'invite_'
'insisted_'
'formula'
'disb'
'Shee'
'Rah'
'Lands'
'Jay'
'vera'
'quot'
'icit'
'expressing_'
'competitors_'
'Villa'
'Re_'
'upset_'
'subsidiary_'
'primers_'
'inclusive_'
'implicat'
'iche'
'enjoying_'
'comm'
'collaborative_'
'cl'
'Lisa_'
'Fon'
'Exp'
'éri'
'wie'
'prob'
'press'
'lep'
'landmark_'
'emba'
'call'
'Ruth_'
'Ocean'
'Fall'
'/ '
'pressures_'
'animated_'
'alternatives_'
'abe'
'Tell_'
'KC'
'2020_'
'worth'
'timely_'
'skeptic'
'pushing_'
'mb_'
'Sut'
'Pearson_'
'Let'
'Imm'
'Gue'
'DER'
'zen_'
'yk'
'siblings_'
'rejection_'
'pse'
'murdered_'
'mainland_'
'edges_'
'countryside_'
'carved_'
'Pir'
'Luck'
'Log'
'Ling'
'ICE'
'slow'
'rting_'
'pred'
'nervous_'
'differentiate'
'cess'
'PAT'
'Day'
'Bud'
'strains_'
'sses_'
'pac'
'nea'
'invested_'
'innocent_'
'hair'
'bite'
'Pea'
'Param'
'Convers'
'Chao'
'vitro_'
'uali'
'sorts_'
'severely_'
'sculpture_'
'sang_'
'rear'
'loyalty_'
'iam'
'erly_'
'abu'
'NL'
'121'
'ī'
'veno'
'spirits_'
'nal'
'hall'
'fest'
'cruise_'
'complexes_'
'Da_'
'Critic'
'145_'
'xi_'
'omy'
'aris'
'VS'
'Rebel'
'Ped'
'Create'
'Classic_'
'Austrian_'
'Application_'
'vai'
'socially_'
'insurgen'
'commun'
'anchor'
'Pl'
'Pari'
'HAR'
'Disease_'
'Compare'
'126_'
'widow_'
'savings_'
'passionate_'
'odon'
'nni'
'mater'
'llar'
'lig'
'lif'
'freight_'
'beh'
'bed'
'Aero'
' -- ``_'
'virtu'
'throwing_'
'sponsor_'
'resigned_'
'libert'
'lee_'
'filter_'
'coli'
'biographical_'
'afford'
'Rocke'
'Patt'
'IR_'
'Card_'
'16'
'wrap_'
'vivo_'
'urse_'
'subjected_'
'sovereign_'
'pencil_'
'kow'
'descendants_'
'cotton_'
'climb_'
'accountability_'
'Thro'
'Naga'
'McKe'
'Burr'
'Apa'
'. ``'
'vine'
'terrace'
'sky'
'settl'
'pub_'
'forecast_'
'fled_'
'ensu'
'dependence_'
'clima'
'canes_'
'avoided_'
'Tale'
'NS_'
'FP'
'Emergency_'
'Emb'
'Ava'
'staff'
'persuade'
'logg'
'half'
'Plan'
'Lum'
'Gauguin_'
'Card'
'repe'
'plaintiff_'
'lessness_'
'ands_'
'Zellers_'
'Rid'
'Govern'
'Dom'
'Buddha_'
'BRI'
'Aqua'
'AI_'
'ß'
'wrestle'
'urs'
'rde'
'exit'
'auction_'
'anchor_'
'Songs_'
'Qu'
'Mangalore_'
'Close_'
'1875_'
'uit_'
'shut'
'precision_'
'painter_'
'obs'
'heim_'
'elderly_'
'disappear'
'bh'
'agne'
'accurately_'
'Reich'
'Harper_'
'ENT'
'uter'
'solving_'
'see'
'mic'
'gangs'
'ewa'
'Engl'
'Did'
'Cairo_'
'Associated_'
'tram'
'sup'
'nail'
'locality_'
'endow'
'ceiling_'
'bones_'
'alization_'
'Nev'
'Conso'
'Bryan_'
'sal_'
'sac'
'rebuild'
'lit_'
'injection_'
'gaps_'
'Terms_'
'Sevent'
'Secondary_'
'Risk_'
'Elm'
'Accessed_'
'spoil'
'pus_'
'ort'
'olit'
'motor'
'kho'
'ettes_'
'eros'
'dov'
'RN'
'Michelle_'
'Malabar_'
'Gender_'
'unwi'
'omet'
'oj'
'lm'
'inhibitor'
'fraction_'
'detect_'
'commit_'
'Rep_'
'Hun'
'Florence_'
'Darwin_'
'withdrawal_'
'rats_'
'gart'
'editions_'
'Socialist_'
'Rica'
'OW'
'EL_'
'í_'
'prov'
'prope'
'onally_'
'nevertheless_'
'invented_'
'embrace_'
'disma'
'Ground_'
'Ek'
'Dro'
'Cat_'
'Aga'
'voi'
'uts_'
'unprecedented_'
'ugh'
'lls_'
'firmly_'
'ener'
'brief'
'attacking_'
'anybody_'
'Text_'
'Past_'
'Armenia'
'!_'
'wanting_'
'traces_'
'testif'
'spreading_'
'homi'
'game'
'disre'
'dg'
'bot_'
'accounted_'
'Suff'
'Round_'
'Regen'
'Ent'
'Dial'
'DG'
'ı'
'yll'
'toy'
'rina_'
'keys_'
'entre'
'disciplines_'
'Whi'
'Hum'
'Hick'
'vegeta'
'travelled_'
'guitarist_'
'fitted_'
'deer_'
'Morning_'
'Cott'
'1840_'
'tical_'
'sophi'
'scream'
'revival_'
'refresh'
'po_'
'dispers'
'cong'
'Nag'
'MLB_'
'Iraqi_'
'Brunswick_'
'vers_'
'tent'
'spine'
'prompt'
'nurse_'
'nov'
'mov'
'eu_'
'Phillies_'
'FIG'
'Deep_'
'Burmese_'
'1876_'
'undertake_'
'toxic_'
'mandate_'
'know'
'interpretations_'
'groundwater_'
'applicants_'
'advocacy_'
'MOR'
'Indianapolis_'
'1882_'
'uf'
'triple_'
'osin'
'gio'
'esto'
'ella'
'dy'
'aggregate_'
'HS_'
'DL'
'lore_'
'iya_'
'anomal'
'Twin'
'Stage_'
'Lim'
'LLC_'
'surviv'
'demanding_'
'Pashtun'
'Clos'
'utilized_'
'sufficiently_'
'promises_'
'pris'
'petr'
'pale_'
'chat'
'Justin_'
'Graduate_'
'Fam'
'Bras'
'~ _'
'similarities_'
'residenc'
'lled_'
'laye'
'hp'
'fulness_'
'elder_'
'bracket'
'Managing_'
'Conce'
'trauma_'
'posterior_'
'overwhelming_'
'las_'
'freshwater_'
'drum_'
'chai'
'calc'
'VIII_'
'Hs'
'Gom'
'155_'
'wear'
'thie'
'shes_'
'replied_'
'ppy_'
'ntan'
'inevitable_'
'dos'
'disabilities_'
'besides_'
'Hungarian_'
'Andr'
'Alma'
'resi'
'recipients_'
'lis'
'ien_'
'gram_'
'governed_'
'ghi'
'dau'
'confront'
'ao_'
'albeit_'
'Sylv'
'Motor_'
'Chro'
'Bit'
'wak'
'roc'
'rhythm_'
'representations_'
'prints_'
'premier_'
'ologi'
'ky'
'ZA'
'Italian'
'Isaac_'
'struggled_'
'state'
'scholarly_'
'referendum_'
'prisons_'
'kine'
'deni'
'arc_'
'Russ'
'Oc'
'MAN'
'Fraser_'
'Eagle_'
'wore_'
'stained_'
'prospect_'
'proliferation_'
'otr'
'lord_'
'lamp'
'gion'
'figur'
'contrac'
'concu'
'anatom'
'Them'
'Pradesh_'
'Kala'
'Guinea_'
'Geno'
'F1'
'DK'
'tended_'
'puri'
'originated_'
'ont_'
'infa'
'ima_'
'courtesy_'
'accompanying_'
'Spea'
'Recommend'
'Brea'
'prescribed_'
'emer'
'ast_'
'Koh'
'Flower'
'Eventually_'
'Aun'
'1940s_'
'ulation_'
'tric'
'scann'
'retro'
'memora'
'iven'
'iu'
'erba'
'dors'
'Wee'
'Mail_'
'Dear_'
'Babylonian_'
'threaten'
'shapes_'
'machin'
'gol'
'diver'
'clearance_'
'Visitor'
'Steel_'
'Lee'
'recycl'
'experiencing_'
'chapel_'
'broad'
'Rho'
'Reali'
'Broadcasting_'
'Ata'
'Applied_'
'Adv'
'solved_'
'ffo'
'compatible_'
'casting_'
'Tibet'
'Strait'
'Spon'
'Radi'
'Dent'
'1884_'
'vier_'
'propose_'
'patent'
'manufacturers_'
'dt_'
'Til'
'Hans_'
'Egg'
'Eff'
'ère_'
'ught'
'suggestion_'
'rer_'
'prayers_'
'ppi'
'portraits_'
'poison'
'knight'
'feminist_'
'cker_'
'NK'
'KE_'
'Herald_'
'Albi'
'wan_'
'quarr'
'inscription_'
'hra'
'graphi'
'exhibitions_'
'etr'
'erson_'
'enc'
'Sem'
'LIN'
'Impact_'
'Eight'
'Body_'
'zm'
'rgi'
'imb'
'eho'
'aks_'
'acoustic_'
'Speed'
'Salva'
'Rig'
'MIN'
'MER'
'Gram'
'Cosmo'
'å'
'reign'
'meteor'
'inn'
'assemblage'
'aggressi'
'Mars'
'rmo'
'propriet'
'intend'
'hai'
'filter'
'admira'
'Herr'
'Hep'
'HA_'
'Ballona_'
'tract_'
'orial_'
'invo'
'inh'
'dog'
'continuity_'
'busi'
'averaged_'
'adjustment_'
'THIS_'
'Provide'
'LF'
'Invest'
'Georgetown_'
'Casey_'
'1878_'
'whis'
'wen'
'ngle'
'liti'
'floors_'
'eze'
'Proc'
'Hist'
'Ellis_'
'purple_'
'mark'
'itions_'
'fing'
'diagnostic_'
'circum'
'Sl'
'Period_'
'PP_'
'Officers_'
'McN'
'Kingston_'
'Hart'
'HER'
'Bath'
'Afghan_'
'veness_'
'Software_'
'Shari'
'Representative_'
'Gali'
'Cree'
'Br'
'BD'
'symp'
'starred_'
'recruitment_'
'prompted_'
'poke'
'pet_'
'pedestrian_'
'enco'
'detainees_'
'cting_'
'conven'
'Sikh'
'Poste'
'serv'
'oni_'
'Rd_'
'NGOs_'
'Could_'
'Consu'
'tif'
'textu'
'strongest_'
'spar'
'sip'
'rk'
'nap'
'ipi'
'ico_'
'dissertation_'
'dispatch'
'defending_'
'chill'
'accidental'
'Week'
'Cong'
'Compos'
'éc'
'touring_'
'protest'
'premium_'
'minded_'
'grip'
'ears_'
'compositions_'
'aur'
'Tub'
'Martha_'
'Enr'
'й_'
'uh'
'uck'
'tte'
'transp'
'cameras_'
'boxing_'
'aug'
'Yankees_'
'?' _'
'reward_'
'realis'
'raci'
'opera'
'magnificent_'
'kidney_'
'empt'
'ali_'
'Remember_'
'Becke'
'nis_'
'killer_'
'house'
'chronicle'
'Support'
'Seg'
'Ronald_'
'typi'
'promotes_'
'ibility_'
'guides_'
'exclusion_'
'dock'
'bishops_'
'Word_'
'SH_'
'1873_'
'xl'
'trio_'
'thin'
'suited_'
'rein'
'portrayed_'
'kinetic'
'ind_'
'inct'
'disputes_'
'assign'
'allocated_'
'Theo'
'REC'
'Jul_'
'Gle'
'Friend'
'Appe'
'но'
'workforce_'
'wich_'
'tongue_'
'pie_'
'libr'
'Scilly_'
'Perform'
'Below_'
'ACC'
'001_'
'tragedy_'
'thes'
'therapeutic_'
'stake_'
'poster_'
'methyl'
'justify_'
'desk_'
'cil'
'blast_'
'Vita'
'Salvia_'
'ρ'
'reservation_'
'mons'
'ign_'
'erc'
'Voice_'
'Pred'
'Plac'
'Duncan_'
'144_'
'transplant_'
'semester_'
'removing_'
'pursued_'
'nh'
'employ_'
'Trans_'
'Kei'
'Fit'
'worm'
'ress'
'quantities_'
'polis_'
'offset_'
'laugh_'
'inspiring_'
'immigrant_'
'idol'
'fruits_'
'ceremonies_'
'Kru'
'Hopkins_'
'Commen'
' +_'
'neighboring_'
'investigating_'
'ins'
'incorporate_'
'constitutes_'
'civilians_'
'alized_'
'Sultan_'
'Solomon_'
'Mec'
'Glad'
'Antarctic_'
'-(_'
'yot'
'salv'
'rush_'
'pedi'
'infra'
'accidents_'
'Olympia'
'Linda_'
'Cities_'
'Bend'
'80s_'
'tene'
'steer'
'scr'
'radar_'
'ize'
'ek'
'countless_'
'Nico'
'Mile'
'Lad'
'Krem'
'Khu'
'Exc'
'220_'
'treat'
'toni'
'stan_'
'rte'
'rebel_'
'rani'
'ors'
'ineff'
'chic'
'asso'
'aired_'
'Robertson_'
'Rati'
'Miles_'
'Haz'
'slate'
'proc'
'harvest'
'ffer'
'conception_'
'ZE'
'Lyon'
'Grant'
'Colin_'
'CAT'
'$ _'
'shear'
'seized_'
'overlook'
'metropolitan_'
'loud_'
'cyclone_'
'counted_'
'basal_'
'accepting_'
'Interpret'
'') _'
'mont'
'mobiliz'
'halt_'
'cave_'
'alities_'
'Peter'
'Moonlight_'
'unic'
'shouldn_'
'rivals_'
'practically_'
'hera'
'dream'
'dial_'
'criticis'
'celebrity_'
'Tradition'
'Ring'
'Rams'
'Capitol_'
'Anna'
'Adelaide_'
' ,'
'critique_'
'corn_'
'cord'
'Brussels_'
'Block_'
'134_'
' ?'
'orte'
'lyric'
'enh'
'eas'
'Need'
'Loca'
'space'
'rig'
'ntia'
'harbour_'
'gonna_'
'gods_'
'gia'
'blacks_'
'berry_'
'Prov'
'Ela'
'Child'
'Banks_'
'Arb'
'141_'
'wu'
'vinyl_'
'transmitted_'
'ript'
'onia_'
'eis'
'Westminster_'
'Vermont_'
'Varia'
'Lah'
'JS'
'Europeans_'
'Def'
'Bloom'
'Armed_'
'temples_'
'spon'
'satisf'
'rocke'
'possessi'
'genetic'
'dimer'
'cat'
'Ships_'
'Rema'
'Regulations_'
'unf'
'ult_'
'thr'
'reliability_'
'ios'
'differential_'
'clone'
'clin'
'alignment_'
'Tul'
'Session'
'Ridge_'
'Leve'
'Improv'
'Champ'
'Bengal_'
'ulsion_'
'tha_'
'sustain_'
'scarce'
'preferences_'
'magn'
'inform'
'hc'
'eful_'
'degradation_'
'crystalli'
'\\_'
'Physics_'
'Edwin_'
'Abstract_'
'AW'
'wash_'
'unsa'
'stranger'
'nov_'
'lad'
'hierarchy_'
'cid'
'christ'
'bout'
'articulat'
'TN'
'Pass_'
'Dim'
'Alf'
'225_'
'1872_'
'suns'
'sav'
'rove'
'ick'
'heli'
'exercises_'
'ax_'
'Sell'
'Oma'
'Glor'
'​_'
'trap_'
'spokesman_'
'haul'
'aker'
'Indo'
'spill'
'slide_'
'manufactured_'
'litigation_'
'grandchildren_'
'forthcoming_'
'cov'
'ampli'
'aca'
'View'
'Normal'
'Joy'
'Highland'
'FM'
'Cin'
'Arch'
', .'
'shells_'
'pota'
'numbered_'
'ntin'
'critically_'
'accessi'
'Recently_'
'Hispanic_'
'Ess'
'Drum'
': -'
'seque'
'robe'
'objection'
'just'
'ingredients_'
'genres_'
'fut'
'equation_'
'dissent'
'colours_'
'apologi'
'Publishers_'
'PD_'
'Charl'
'receipt_'
'occupation'
'norma'
'identifies_'
'grammar_'
'fears_'
'eci'
'dock_'
'dear_'
'dancer'
'asia'
'Hamp'
'solidarity_'
'prohibit'
'lengths_'
'lang'
'kara'
'advisory_'
'Dob'
'Cres'
'Complete_'
'Bradley_'
'Aka'
'yen'
'xt'
'flowing_'
'demon'
'clai'
'checking_'
'blue'
'Sang'
'Rav'
'1869_'
'wt'
'tes'
'prece'
'plantation'
'dist'
'Flor'
'Em'
'Council'
'Cord'
'Asi'
'villain'
'shadow_'
'primitive_'
'minimi'
'lera'
'Sov'
'Sn'
'Seas'
'Rice_'
'Revival_'
'Butler_'
'12'
'verbal_'
'sensi'
'hl_'
'decides_'
'antiqu'
'Cler'
'warned_'
'subordinate'
'reflecti'
'qualifications_'
'ption_'
'osa'
'king'
'invitation_'
'etc'
'bonus_'
'DN'
'wai'
'trad'
'stad'
'renewal_'
'nch_'
'impl'
'ecosystems_'
'divinorum_'
'Sep'
'Portsmouth_'
'Los'
'Fil'
'zl'
'monster_'
'modernis'
'illeg'
'ican_'
'frames_'
'eal_'
'anat'
'Penguin_'
'Gard'
'Bella'
'Artists_'
'ра'
'umbe'
'rim'
'rho'
'reward'
'pour'
'fault'
'extrem'
'backward'
'Jon'
'Buddhism_'
'Aber'
'. -_'
'unfortunately_'
'styl'
'raj'
'outb'
'ois'
'noti'
'isti'
'glob'
'fora'
'dorsal_'
'decent_'
'compromise_'
'ature_'
'Trophy_'
'Rank_'
'Neo_'
'MEN'
'Cook'
'Civili'
'Adol'
'ém'
'markers_'
'bunch_'
'Ud'
'Democracy_'
'unrea'
'sic_'
'prisoner_'
'kur'
'imina'
'embarrass'
'amendments_'
'USA'
'Solid'
'SHA'
'Reagan_'
'?)'
'supplementa'
'rious_'
'reprint'
'refuse_'
'professional'
'plots_'
'phin'
'ning'
'Wen'
'Iranian_'
'INT'
'Evere'
'yli'
'vision'
'testa'
'lot'
'ipa'
'iona'
'incentives_'
'cking_'
'ballot_'
'arguably_'
'Sola'
'Pand'
'Open'
'supportive_'
'sensib'
'millenni'
'inject'
'fold'
'creati'
'aver'
'Shan_'
'Richardson_'
'Confi'
'CNN_'
'Allo'
'109'
'transcend'
'tig'
'rvi'
'regiment_'
'purchases_'
'pti'
'jee'
'enberg_'
'chari'
'aim'
'Sett'
'Perth_'
'Meli'
'Main'
'Jaya'
'Fr_'
'Cau'
'Beginning_'
'Bates_'
'similarity_'
'sanction'
'rises_'
'rbi'
'practi'
'orbit_'
'motivation_'
'crusade'
'bapti'
'Thi'
'Link'
'Kni'
'Fitzgerald_'
'Admiral_'
'upr'
'tonight_'
'tiv'
'substances_'
'sever'
'rel_'
'manuscripts_'
'cycling_'
'criticized_'
'cred'
'Night'
'March'
'via'
'ulos'
'sn'
'metry_'
'merchants_'
'fm'
'deficit_'
'class'
'Peac'
'Hans'
'Constitutional_'
'Arena_'
'variants_'
'sociali'
'offs'
'mistakes_'
'disl'
'develops_'
'abnormal'
'Zürich_'
'Vig'
'UV'
'Serve'
'RK'
'? (_'
'woodland_'
'sovereignty_'
'satisfy_'
'neuron'
'lung_'
'individuali'
'crosses_'
'continental_'
'bie_'
'Marty'
'LEA'
'Curtis_'
'Barb'
'Abu'
'Abb'
'х'
'wol'
'tens_'
'storm'
'singers_'
'hung_'
'gambling_'
'escaped_'
'coins_'
'bureau'
'Springfield_'
'Pre_'
'Od'
'Colleg'
'., (_'
' ..._'
'thirds_'
'smil'
'pl'
'omic'
'discretion_'
'caste'
'Sunda'
'Practic'
'trademark_'
'tailor'
'stam'
'rech'
'raises_'
'qualitative_'
'nio'
'neo_'
'missionary_'
'lock'
'forward'
'constru'
'competed_'
'Studios_'
'Stud'
'Quarterly_'
'Newport_'
'MPs_'
'Ch_'
'Brief'
'1887_'
'і'
'zil'
'takeo'
'securities_'
'reat'
'kla'
'cut'
'Stevens_'
'Secret_'
'LLE'
'Issues_'
'Economy_'
'AJ'
'suspen'
'leap'
'hunter'
'glucose_'
'gad'
'egi'
'deny_'
'coin_'
'affi'
'Wyoming_'
'Unc'
'Pret'
'P2'
'CAN'
'Abe'
'م'
'rph'
'ortho'
'nominations_'
'authorita'
'Walk'
'trail'
'tap'
'stylis'
'segregation_'
'recit'
'quit'
'practitioners_'
'phosphatase_'
'matric_'
'lee'
'iving_'
'iner_'
'gir'
'fronta'
'foll'
'eighteenth_'
'ctive_'
'artwork_'
'USSR_'
'Shen'
'Outside_'
'Nicola'
'Matter'
'Maharashtra_'
'Golf_'
'DO_'
'Cal_'
'Cabinet_'
'wiki_'
'rha'
'orph'
'np'
'mM_'
'interference_'
'host'
'fictional_'
'federalism_'
'eau_'
'audit_'
'atop'
'Pow'
'Moss'
'Marri'
'Fest'
'165_'
'twi'
'suite_'
'servants_'
'nominee'
'memb'
'infe'
'coat_'
'Raven'
'Nige'
'Merri'
'Interestingly_'
'Gift_'
'Eb'
'EM_'
'Arctic_'
'wre'
'tens'
'itin'
'irrigation_'
'differs_'
'cun'
'ction'
'Toward'
'PG'
'Meh'
'Kay_'
'Here'
'Fe_'
'Camb'
'Boo'
'socio'
'posting_'
'ories_'
'matched_'
'ime'
'commented_'
'baro'
'Workers_'
'USGS_'
'Suz'
'Saints_'
'Parish_'
'Gamb'
'Flight_'
'Barcelona_'
'</_'
'ão_'
'vali'
'tna'
'ther_'
'strai'
'revive'
'palace_'
'mine'
'kos'
'desirable_'
'compl'
'blad'
'Shakespeare_'
'Isles_'
'Getty_'
'Cald'
'''--_'
'weav'
'plast'
'openly_'
'licen'
'gastro'
'cats_'
'Prat'
'OD'
'Liz'
'Kumar_'
'Acr'
'1874_'
'129'
'sync'
'spectra'
'paint'
'icate'
'ester_'
'erati'
'cents_'
'His'
'Avo'
'Arms_'
'shifting_'
'pointing_'
'guer'
'extrac'
'endure'
'brew'
'Swee'
'Reds_'
'Nest'
'Humanit'
''': _'
'read'
'raft'
'postc'
'pens'
'ovic'
'outlets_'
'odo'
'missionaries_'
'itude_'
'hope'
'honor'
'folks_'
'elle_'
'cope_'
'caro'
'INS'
'Cyr'
'Aberdeen_'
'wea'
'urged_'
'undermine'
'iors_'
'interpret_'
'guards_'
'flew_'
'euro'
'ethn'
'entertaining_'
'appeals_'
'Wilde'
'Laws_'
'KN'
'Ethiopia_'
'1879_'
'vita'
'vacation_'
'sat'
'refine'
'outfit'
'mud'
'graduating_'
'flip'
'defer'
'ckle'
'bent'
'adapt_'
'Vote'
'Vernon_'
'Pul'
'Kaz'
'Folk'
'Court'
'Colomb'
'Coc'
'Abo'
'139_'
'108'
'questioned_'
'mutant_'
'determina'
'cautio'
'cani'
'breakdown_'
'bod'
'backing_'
'TG'
'syndicat'
'repetiti'
'pson'
'prevail'
'pos'
'drops_'
'Teachers_'
'Drake_'
'Curri'
'Cale'
')'' '
'zu_'
'wicket'
'ott'
'mandatory_'
'hav'
'fols_'
'ebooks_'
'Sis'
'RED_'
'NYC_'
'GS_'
'solicit'
'magical_'
'locals_'
'lian'
'hatch'
'calm_'
'Shal'
'SY'
'PV'
'DD'
'Course_'
'wha'
'perceptions_'
'meals_'
'fter_'
'erh'
'activated_'
'Tyler_'
'Sever'
'Kitchen_'
'Jose'
'Coven'
'CHI'
'183'
'yme'
'steri'
'sailing_'
'retino'
'recognise_'
'merged_'
'mens_'
'intervals_'
'interchange'
'gle_'
'emigrat'
'disk_'
'Yel'
'Rev'
'Appro'
'worried_'
'wetlands_'
'pursuing_'
'purchasing_'
'protect'
'ocean'
'fascis'
'commence'
'Wash'
'Rail_'
'McCarthy_'
'Lew'
'Investment_'
'Had_'
'uls'
'pros'
'perpetua'
'ntle'
'mili'
'kilo'
'inaugural_'
'gical_'
'contentio'
'comprehen'
'Rene'
'Pf'
'Nava'
'Agen'
'rever'
'recla'
'imo'
'hang'
'gma'
'dj'
'denomination'
'contributes_'
'cite_'
'aden'
'Tere'
'Temp'
'Swan'
'Parad'
'Nordic_'
'Arg'
'After'
'syntax'
'stom'
'sort'
'smile_'
'selective_'
'rulers_'
'quotes_'
'maritime_'
'igo'
'envi'
'disposal_'
'dealer_'
'damn'
'corps'
'constituted_'
'coast'
'biot'
'NB_'
'Goa_'
'Ecol'
'C2'
'Ball_'
'react'
'rand'
'need'
'minate'
'micro_'
'erin'
'earth'
'Zoolog'
'Nixon_'
'Harbour_'
'Carol'
'Camer'
'κ'
'turbine'
'termina'
'serial_'
'momentum_'
'lone_'
'knot'
'hydrogen_'
'hus'
'ef_'
'contracti'
'chs'
'carriers_'
'Written_'
'Shop'
'Ref_'
'Maurice_'
'poets_'
'mona'
'migrate'
'ges'
'gal_'
'ency_'
'battalion_'
'Seri'
'Sale'
'Rate'
'Gunn'
'Coll'
'Balkan'
'ь'
'ubli'
'thm'
'realiz'
'prediction_'
'parameter_'
'emon'
'eim'
'contradict'
'best'
'Wake'
'Shah'
'SPE'
'Roll_'
'Myc'
'Eat'
'D3'
' ((_'
'visual'
'var_'
'unus'
'posed_'
'fraud_'
'fortune_'
'exotic_'
'conductor_'
'ahi'
'adj'
'Zen'
'Tenn'
'Pop_'
'Hama'
'Eagles_'
'EVE'
'Conte'
'Apart_'
'ABS'
'wine'
'will'
'tragic_'
'teaches_'
'simulation_'
'resist'
'reno'
'rebo'
'plug'
'pane'
'ince'
'elit'
'comparisons_'
'clergy_'
'chor'
'bled_'
'backgrounds_'
'Ole'
'OT_'
'Acts_'
'wal_'
'tet'
'stellar_'
'rue'
'own'
'nr'
'novel'
'homa'
'cyclo'
'aerial_'
'Weis'
'WOR'
'QU'
'Gale'
'Clay_'
'Carlos_'
'Bowl'
'wave'
'tas_'
'spawn'
'reasoning_'
'quir'
'ours_'
'olla'
'liqu'
'kw'
'displa'
'caste_'
'airline'
'Rick'
'Map'
'198'
'---'
'successive_'
'rne'
'natur'
'ion'
'ilities_'
'cinemat'
'chew'
'additions_'
'Shep'
'Sally_'
'Poli'
'Nick'
'Nichols'
'Munich_'
'Flemi'
'Evan'
'1500_'
'trafficking_'
'prol'
'kilometers_'
'hk'
'donor_'
'conceived_'
'axi'
'autonomous_'
'Kli'
'CW'
'vibrant_'
'owa'
'limiting_'
'genc'
'elli_'
'dum'
'crust'
'aka'
'Zam'
'Louise_'
'Ahmed_'
'understand'
'roadway_'
'ogat'
'morpho'
'ln'
'iah_'
'housed_'
'exam'
'entic'
'Tourism_'
'treasure'
'presentations_'
'lating_'
'broo'
'boom_'
'Walt_'
'Va_'
'Pla'
'Kri'
'Cara'
'BS_'
'touched_'
'pres'
'marginal_'
'lve'
'kidnapp'
'forg'
'familia'
'facet'
'dil'
'cine'
'attend'
'amine_'
'all'
'UB'
'Pec'
'Kelle'
'Join_'
'Eco'
'Catholic'
'Arma'
'201_'
'weak'
'strat'
'memo'
'inspire_'
'emperor_'
'destinations_'
'Wool'
'Methodist_'
'LS_'
'Indies_'
' ' _'
'tional'
'ssion'
'ril'
'relied_'
'protective_'
'ody'
'hing'
'hesi'
'gou'
'explode'
'differe'
'bill'
'baseline_'
'MAN_'
'Location_'
'Grey_'
'Greens'
'Cruz_'
'stab'
'owl'
'ound_'
'nav'
'knee_'
'guardian_'
'excu'
'attach'
'WILL'
'Thu'
'Stru'
'Scu'
'SF'
'Prison_'
'Oa'
'Gerald_'
'DM_'
'Auburn_'
'.._'
'vale'
'sanc'
'reconstruct'
'neg'
'multic'
'leagues_'
'chase'
'Whatever_'
'Wellington_'
'Programs_'
'Nat_'
'Kul'
'Advance'
'ylo'
'uo'
'swell'
'stopping_'
'slu'
'interpreti'
'eca'
'contested_'
'consum'
'cham'
'blade_'
'Saa'
'Farm'
'Doug_'
'Chr'
'Cele'
'xed_'
'toll_'
'grind'
'approaching_'
'Louth_'
'Flag'
'Employment_'
'Cox_'
'Clement'
'Artist_'
'138_'
'variability_'
'sq_'
'racist_'
'preache'
'orchestra_'
'jah'
'ige'
'iform'
'ggi'
'counterparts_'
'contemplat'
'Spencer_'
'Sev'
'SNA'
'Royal'
'Remo'
'Gut'
'Alex'
'textile'
'shrub'
'rooted_'
'raz'
'orchestra'
'nab'
'merit_'
'medica'
'hove'
'dry'
'distract'
'Health'
'Alexandr'
'190_'
'yah'
'resu'
'mentor_'
'grim'
'fear'
'eur'
'Fib'
'Cumb'
'tsch'
'seminar_'
'rry_'
'rebuilt_'
'overwhelm'
'ogene'
'imported_'
'ific'
'enhancement_'
'XP'
'XM'
'Reform_'
'Pod'
'Patriarch_'
'Lauren'
'Clu'
'Ages_'
'Acce'
'skir'
'sheep_'
'regain'
'rav'
'quit_'
'obse'
'layout_'
'iner'
'honest'
'enacted_'
'enact'
'atic'
'Theolog'
'Stock_'
'Schul'
'Quarter'
'Kiss'
'Dale_'
'Bata'
'outline_'
'onset_'
'esta'
'delighted_'
'competence_'
'UND'
'Eisen'
'Desc'
'Deca'
'Capita'
'Boat'
'Ande'
'1877_'
'ump'
'terri'
'safeguard'
'filmed_'
'deposited_'
'dd_'
'auc'
'acti'
'S2'
'PF'
'Luci'
'Hon_'
'Corri'
'Bowe'
'Aba'
'revision_'
'oya'
'nn'
'moderate'
'mirror_'
'melodi'
'itz_'
'ister_'
'interl'
'elegant_'
'dess'
'demonstrations_'
'defended_'
'Tiger_'
'Symposium_'
'Ode'
'Industries_'
'Eddie_'
'Boul'
'tica'
'spectro'
'pink_'
'ntic'
'iq'
'fibro'
'executives_'
'console_'
'censor'
'Wiz'
'Tan_'
'TIN'
'Operat'
'Gros'
'Goal'
'Gat'
'Chip'
'CP_'
'Above_'
'Abbot'
'750_'
'tten'
'recognizes_'
'ract'
'patriarch'
'nationalist_'
'methodologi'
'histori'
'eve'
'coincide'
'cler'
'atla'
'aire_'
'academi'
'Refer'
'Mobile_'
'': _'
'volu'
'slot_'
'introduces_'
'honour'
'door'
'contractor_'
'Want_'
'Sina'
'Net_'
'Helle'
'Examin'
' ,_'
'tyl'
'tournaments_'
'tel_'
'processed_'
'poli'
'physiological_'
'oppo'
'nsit'
'ined_'
'float'
'conceptual_'
'colon'
'Dodge'
'Dh'
'Croc'
'Caf'
'COMP'
'Boulevard_'
'Archbishop_'
'uman'
'proportions_'
'metabolism_'
'disappointed_'
'bp'
'bia_'
'ballo'
'bachelor_'
'Meet_'
'Guar'
'Gill'
'Federa'
'watershed_'
'tile_'
'tial_'
'tender_'
'template_'
'smooth'
'observers_'
'lde'
'fal'
'WAS'
'Astronom'
'Alger'
'twist'
'safely_'
'readings_'
'participant_'
'obli'
'certification_'
'appa'
'Pete_'
'Lamb'
'Eas'
'Come'
'136_'
'rim_'
'marker_'
'fir'
'excitement_'
'dine_'
'consulting_'
'board'
'arity_'
'Titan'
'Stoke'
'Literary_'
'Gospel_'
'Fie'
'Episcopal_'
'Bolt'
'yor'
'scenarios_'
'retreat_'
'rape_'
'passi'
'occupan'
'neighbourhood_'
'kee'
'dw'
'dominati'
'cuti'
'Whis'
'Script'
'Marath'
'KP'
'Interview_'
'GHT'
'Ava_'
'AH'
'taste'
'superb_'
'sche_'
'rhythm'
'locate_'
'liberal'
'inflation_'
'horn_'
'fier'
'dinosaur'
'aria_'
'ael_'
'Newman_'
'Kille'
'Counties_'
'viewer_'
'uel_'
'tora'
'tain_'
'supplement'
'rict'
'nast'
'modifications_'
'exhaust'
'elevat'
'drinks_'
'draft'
'asu'
'Diar'
'Angel_'
'trapped_'
'theology_'
'sediments_'
'quadra'
'nen_'
'nate_'
'linkage'
'impro'
'hook'
'dropping_'
'conju'
'amaz'
'THO'
'Jag'
'Basic_'
'Allan_'
'surge'
'stats_'
'refra'
'mutations_'
'metaphor'
'hypothes'
'contin'
'consistency_'
'anterior_'
'Wors'
'Surf'
'RR'
'Ima'
'Handbook_'
'youth'
'undoubtedly_'
'insult'
'br'
'acr'
'Virgin_'
'Subject'
'Moral'
'Model'
'MAT'
'Calcu'
'Baltic_'
'о_'
'yed_'
'transport'
'reo'
'kel_'
'institute_'
'configur'
'Tipperary_'
'Strange'
'McDonald_'
'Elev'
'AE'
'151_'
'wells_'
'transfers_'
'strengthening_'
'scho'
'inve'
'gis'
'ession'
'balanc'
'Oz'
'Mab'
'Hour'
'Honey'
'upload'
'undertaking_'
'twitter_'
'traded_'
'permanently_'
'kl'
'intentional'
'iment'
'Work'
'QUE'
'Marin'
'Boon'
'AB_'
' €_'
'xp'
'thickness_'
'sur_'
'stream'
'earnings_'
'doctoral_'
'deficien'
'chrom'
'behavioral_'
'bef'
'adapt'
'Stephan'
'Sah'
'Nei'
'Grade_'
'surrender_'
'shipped_'
'monop'
'heating_'
'erg_'
'edic'
'companion_'
'alcoholic_'
'ZI'
'Rela'
'Luis_'
'Lon'
'149_'
'wound_'
'uba'
'trucks_'
'suburban_'
'substanti'
'statu'
'smell'
'quent_'
'performs_'
'hate'
'harmony_'
'calibrat'
'bios'
'assessing_'
'aboli'
'WITH_'
'Till'
'Sales_'
'Print'
'Franco_'
'240_'
'submarine_'
'strengths_'
'rish'
'pear'
'imperial_'
'ika_'
'general'
'cult_'
'^_'
'Warrior'
'Understanding_'
'Mori'
'COL'
'surgical_'
'smi'
'particle_'
'eria_'
'cutt'
'bak'
'Juggalo'
'Institution_'
'161_'
'. ''_'
'-.'
'sei'
'rium_'
'ouse_'
'mechani'
'insti'
'hun'
'fications_'
'condemn'
'butt'
'abortion_'
'Treasury_'
'Rifle'
'Rando'
'Rabbi'
'Neath_'
'Kad'
'Jo_'
'EV'
'25th_'
'widen'
'sweat'
'oft'
'invasive_'
'cum'
'anam'
'Dog'
'sight'
'mom_'
'habits_'
'foster'
'coefficient'
'STI'
'Mega'
'McCl'
'1868_'
'1830_'
'tee_'
'tang'
'tall'
'snake_'
'san_'
'revealing_'
'melan'
'ibid_'
'economically_'
'coloniz'
'Yar'
'Treatment_'
'Speci'
'Pent'
'Kom'
'Cul'
'іs_'
'ô'
'wk'
'thorough_'
'temporarily_'
'dataset'
'cord_'
'collect'
'brows'
'behaviors_'
'aul'
'advocates_'
'acle_'
'Various_'
'Tort'
'SV'
'147_'
'ssin'
'rm_'
'pup'
'pound_'
'nos_'
'lip'
'ism'
'dron'
'birth'
'alist_'
'Smok'
'Dow'
'Devil'
'Dela'
'Declaration_'
'Chia'
'Chad'
'Aid_'
'ARE_'
'unpublished_'
'renal_'
'prime'
'pec'
'ores'
'oqu'
'opposing_'
'omin'
'offshore_'
'miss'
'assuming_'
'Racing_'
'Curt'
'Chancellor_'
'App_'
'ACT_'
'yss'
'wle'
'stati'
'rebels_'
'mold'
'leisure_'
'groove'
'fights_'
'discharge'
'declare_'
'bind'
'axe'
'anas'
'Stati'
'Sahi'
'GRE'
'Edgar_'
'yo_'
'weight'
'sava'
'pick'
'periodical'
'outrage'
'lof'
'ignore_'
'egr'
'dwarf'
'continu'
'bind_'
'Wu'
'Vit'
'Led'
'Events_'
'Connor_'
'yf'
'succ'
'shelter'
'rep'
'mr'
'mma'
'lew'
'gger'
'existent'
'commitments_'
'celebrating_'
'bother'
'aligned_'
'Palmer_'
'Kind'
'!)'
' `_'
'theological_'
'slid'
'reck'
'ranged_'
'rable_'
'queen_'
'onist_'
'ntu'
'laying_'
'insect_'
'embe'
'coordinated_'
'bottle'
'bolt'
'atten'
'Yos'
'MAC'
'Lime'
'Examples_'
'Doctor'
'Character'
'ко'
'upgrade'
'thrust_'
'ppo'
'ots_'
'orat'
'llin'
'kun'
'gut'
'deserve_'
'cleane'
'burg'
'Revolutionary_'
'LAT'
'Hindi_'
'Contr'
'Anth'
'1859_'
'urge_'
'uil'
'robot_'
'reel'
'plasmi'
'oz'
'kan_'
'cottage_'
'clip'
'chairs_'
'blan'
'Squa'
'Sony_'
'OF'
'Lak'
'103'
'underwe'
'ual'
'fo_'
'fluor'
'eren'
'ctic_'
'balle'
'Dorothy_'
'Album_'
'unl'
'registr'
'procla'
'ngen'
'instant_'
'cum_'
'crow'
'caring_'
'bilia'
'Recogni'
'Noo'
'Institut'
'Grim'
'Fli'
'Cov'
'Bic'
'Biblical_'
'tubes_'
'restricti'
'residues_'
'reduces_'
'rator'
'pers'
'ller'
'ith'
'eol'
'Radio'
'Pall'
'Hodg'
'Highl'
'Dod'
'Collect'
'tetra'
'specification_'
'sixt'
'neat'
'mum_'
'monitored_'
'caliph'
'betray'
'bble_'
'associates_'
'Pag'
'Option'
'Institution'
'Browns'
'trench'
'totali'
'theore'
'speeds_'
'picking_'
'mixing_'
'loca'
'fruit'
'convenience_'
'chaos_'
'blood'
'WWE_'
'TED_'
'Sustainab'
'Neither_'
'Myanmar_'
'Hind'
'Hand_'
'Gene_'
'Enterprise_'
'wherever_'
'uw'
'siege_'
'rubb'
'repli'
'repl'
'recur'
'rabbit'
'quee'
'publi'
'onal'
'lite'
'grandmother_'
'fabricat'
'decree'
'cele'
'architects_'
'Marc_'
'DAY_'
'Arl'
'1854_'
'1848_'
'yeast_'
'vagina'
'tempt'
'syno'
'slip_'
'repeat'
'pl_'
'inspir'
'inher'
'delivers_'
'collaborati'
'angles_'
'Text'
'Symphony_'
'Fitz'
'Costa_'
'Archive_'
'teachings_'
'stum'
'relocat'
'lg'
'kle_'
'ivi'
'honours_'
'generator'
'fixture'
'denote'
'cataly'
'attachment_'
'anes'
'aly'
'Wend'
'Subsequent'
'Sci'
'Genesis_'
'Defend'
'Canadians_'
'wb'
'tali'
'intro'
'gesture'
'fracture'
'flame'
'fastest_'
'dell_'
'debat'
'cte'
'clear'
'WL'
'Syracuse_'
'SAR'
'Hume_'
'. § _'
'xtu'
'publishers_'
'prosper'
'nur'
'immers'
'hospitality_'
'grandson_'
'fts_'
'ase'
'Webster_'
'Terror'
'Span'
'Numer'
'Hed'
'COM'
'Aman'
'wash'
'troll'
'romance_'
'reporters_'
'institute'
'impose_'
'illo'
'harsh_'
'fence_'
'ew'
'dis_'
'SPA'
'Nea'
'Murd'
'Late'
'Fifth_'
'vocation'
'modulat'
'exert'
'ence'
'compilation_'
'Warr'
'Russians_'
'Hey_'
'DOS'
'retriev'
'reap'
'prosperity_'
'plurali'
'paci'
'ott_'
'ode_'
'nnes'
'mammals_'
'inadequate_'
'dge'
'conc'
'blend'
'Zar'
'Watt'
'Marines_'
'Gris'
'Dys'
'Cult'
'Classical_'
'C3'
'simple'
'orin'
'nonc'
'march'
'induction_'
'filing_'
'electrode'
'confidential'
'analytical_'
'absorb'
'Mathematics_'
'Jacques_'
'Alto'
'Ade'
'transported_'
'pathogen'
'pas_'
'off'
'lta'
'hange'
'dred'
'curves_'
'commemorate'
'One'
'Ment'
'Marqu'
'Behavior'
'Austr'
'specialists_'
'problematic_'
'pharmaco'
'petition'
'parental_'
'olf'
'irth_'
'Milwaukee_'
'Hot'
'Cut_'
'Alc'
'wor'
'regre'
'query_'
'leu'
'inventor'
'impos'
'immi'
'imme'
'humanitarian_'
'happiness_'
'habit'
'gno'
'gard'
'filming_'
'Silver'
'Koch'
'KS_'
'Coe'
'victories_'
'unco'
'tad'
'stolen_'
'mall'
'incomplete_'
'barn'
'aux_'
'Often_'
'Guer'
'Cinema_'
' .'
'tenants_'
'syna'
'suffi'
'schema_'
'prejudice_'
'performer_'
'metro_'
'kia'
'ival'
'gear'
'developmental_'
'Ott'
'MAS'
'MARTA_'
'Interacti'
'EO'
'tidal_'
'lid'
'excluding_'
'coi'
'cn'
'behaviour'
'altogether_'
'Wick'
'Stev'
'Pros'
'Less'
'Kama'
'Heights_'
'Corb'
'142_'
'viou'
'trophy_'
'treating_'
'surr'
'stressed_'
'ras_'
'make'
'designing_'
'cry_'
'complications_'
'bidd'
'atom'
'Wave'
'UNESCO_'
'Sear'
'Myth'
'Leslie_'
'Jenn'
'Arabs_'
'. . _'
'yana_'
'unnecessary_'
'swe'
'standa'
'signat'
'honey'
'grate'
'derivative'
'creatures_'
'collapsed_'
'ascend'
'Viv'
'UT_'
'Toni'
'Read'
'Eo'
'Cell'
'Cause'
'BAS'
'safe'
'robi'
'ove'
'jointly_'
'diar'
'cht_'
'chat_'
'Whale'
'Sent'
'Point'
'Partnership_'
'Gai'
'Cali'
'σ'
'uary_'
'tracts_'
'sala'
'real'
'pes'
'nty_'
'mino'
'md'
'mach'
'circa_'
'annex'
'Wet'
'WHO_'
'Tham'
'Shar'
'Jal'
'Gel'
'Franco'
'Finns_'
'EW'
'Byr'
'Amr'
'AH_'
'susceptib'
'rda'
'kicked_'
'encyclopedia_'
'enclos'
'elastic'
'ctor'
'cheese_'
'ave_'
'antibody_'
'alphabet'
'academics_'
'Rie'
'Mario_'
'Kho'
'Archaeology_'
'peaks_'
'nose_'
'lien'
'legaliz'
'lean'
'inson_'
'imma'
'igra'
'hybrid'
'goal'
'central'
'auto_'
'Une'
'Int_'
'те'
'unveil'
'stly_'
'sequenc'
'positively_'
'nist_'
'juvenile_'
'aine_'
'Typical'
'Structur'
'OA'
'Mage'
'JM'
'Emo'
'Adult_'
').'
'Â_'
'tua'
'sio'
'photographer_'
'orio'
'hd'
'freshman_'
'elli'
'ded'
'arguing_'
'Zon'
'Test'
'Roh'
'Porter_'
'Parti'
'Mé'
'Mann_'
'Kids_'
'Help_'
'Heart'
'Deliver'
'vere'
'umin'
'tau'
'tabl'
'ror'
'misc'
'incurred_'
'founders_'
'fia'
'endeavor'
'eminent_'
'dness_'
'distinguish'
'denti'
'coole'
'Lom'
'Gazette_'
'villa'
'vide'
'sense'
'runners_'
'roman'
'rcis'
'hipp'
'girlfriend_'
'forgive'
'emble'
'aviation_'
'arose_'
'acknowledge'
'Warsaw_'
'Tong'
'Prussia'
'Liv'
'Farn'
'Election_'
'Crystal_'
'Alta'
'unif'
'kay'
'ibn_'
'donors_'
'designers_'
'confine'
'Techni'
'Sugar_'
'Counsel'
'squi'
'sboro'
'pitcher_'
'oter'
'joy'
'dwelling_'
'cartoon_'
'Java_'
'Hale'
'Ella'
'Confe'
'tum_'
'sci_'
'physi'
'packages_'
'ides_'
'craft'
'burs'
'bert'
'Sig'
'Sans'
'Mental_'
'Marco'
'Goo'
'DIS'
'sson_'
'rne_'
'resistant_'
'integrate_'
'hori'
'gin_'
'fl'
'complement_'
'communis'
'Taking_'
'Taka'
'Poor_'
'Parties_'
'Hud'
'Holding'
'Defe'
'Correspondence_'
'Congressional_'
'Antiqu'
'wheels_'
'vow'
'torpedo'
'teenth_'
'sona'
'rumo'
'proceeded_'
'monarch'
'lumin'
'kid'
'istenc'
'immense_'
'happi'
'destructive_'
'desperate_'
'commercial'
'combining_'
'breach_'
'allocation_'
'Too_'
'Than'
'Seeley_'
'Kiki_'
'Barri'
'Background_'
'149'
'uda'
'praised_'
'physicians_'
'oste'
'mint'
'mild_'
'fake_'
'commenced_'
'blu'
'Webb_'
'Soul_'
'Sandy_'
'RN_'
'Hors'
'Female_'
'Factor'
'Annie_'
'wne'
'uli_'
'tant'
'smith_'
'nian_'
'lute'
'lev'
'hail'
'erna'
'dominance_'
'demolished_'
'chord'
'administrator_'
'acquaint'
'Quar'
'PLU_'
'Morocco_'
'Monk'
'Linn'
'Fet'
'Derm'
'Consult'
'Anim'
'1866_'
'practiced_'
'polar_'
'ogical_'
'joke_'
'ify_'
'ibe'
'gm'
'dac'
'consolidated_'
'conn'
'alde'
'agrees_'
'Rut'
'Ned'
'Materials_'
'Made_'
'Machin'
'MF'
'Hank'
'Four'
'Fly'
'Andrews_'
'ła'
'textbook'
'term'
'rme'
'privately_'
'pper_'
'plains_'
'pies_'
'marsh_'
'llat'
'apprentice'
'Lett'
'Jamaica_'
'Faci'
'Chamb'
'Ann'
'1857_'
'statue_'
'stamps_'
'servant_'
'projecti'
'icial'
'gie_'
'choir_'
'border'
'Lynn_'
'Karnataka_'
'Jes'
'Dul'
'210_'
'uste'
'survey'
'subtr'
'osh'
'ops_'
'kor'
'juris'
'hike'
'eson_'
'esis_'
'colog'
'Wro'
'Tric'
'Sap'
'Patricia_'
'Manual_'
'Ish'
'Gain'
'Evangeli'
'tired_'
'synthetic_'
'midw'
'glut'
'forecast'
'floating_'
'drama'
'downstream_'
'borat'
'accre'
'Panama_'
'Johns_'
'Ew'
'Eurovision_'
'Dut'
'Dock'
'Differen'
'Diamond_'
'Clem'
'Arc'
'Ahmad_'
'Acco'
') . _'
'utiliz'
'unch'
'tops_'
'rete'
'register'
'operative_'
'fresh'
'ensis_'
'emotion_'
'dition'
'counting_'
'autumn_'
'Pages_'
'Lambe'
'Investigation'
'Hop'
'Canberra_'
'Campaign_'
'wholly_'
'severity_'
'mall_'
'hey'
'erect'
'dita'
'compact_'
'Wir'
'Som'
'Sacred_'
'Ner'
'Jeffrey_'
'tant_'
'masculin'
'margins_'
'ladies_'
'graphs_'
'degrad'
'burst_'
'aura'
'Parkin'
'German'
'Comments_'
'Chess_'
'Borough_'
'Birds_'
'washed_'
'tera'
'suppl'
'pk'
'phylogenetic_'
'matur'
'luk'
'interfere'
'gate'
'foul'
'flora_'
'Thom'
'Mass'
'HF'
'Cass'
'Brid'
'shelf_'
'releasing_'
'minu'
'life'
'insula'
'formi'
'enjoys_'
'dub'
'cabi'
'beneficiar'
'basement_'
'accordingly_'
'Nath'
'Kash'
'Issue_'
'Hawaiian_'
'Diana_'
'Certifi'
'uran'
'summari'
'cloth_'
'casualties_'
'bst'
'anthropo'
'Talk_'
'Nova_'
'Frei'
'Fail'
'Download_'
'wished_'
'prote'
'max_'
'mati'
'lu_'
'gn'
'dl'
'disclos'
'collector_'
'cked_'
'chest_'
'affection'
'adventures_'
'NSA'
'Jane'
'Initiative_'
'Give_'
'Direct_'
'Babylon'
'BP_'
'reform'
'reactiv'
'precipitation_'
'pays_'
'microp'
'ingu'
'imitat'
'exterior_'
'connectivity_'
'abdom'
'Prep'
'Kuma'
'Hec'
'ART'
'word'
'swept_'
'nded_'
'more'
'list'
'landf'
'indicator_'
'defender_'
'communal_'
'bits_'
'Vers'
'VMI_'
'Southwest_'
'Rangers_'
'Quest'
'PRES'
'Neill_'
'Honor_'
'Doo'
'CIA_'
'Boi'
'124'
'thrill'
'shy_'
'realised_'
'preview_'
'normaliz'
'nin_'
'mins_'
'midd'
'heel'
'boil'
'Steele'
'Soldier'
'Mall_'
'Khali'
'Journalis'
'CAP'
'usion_'
'rotati'
'reject_'
'oppress'
'opia'
'gens'
'escalat'
'compile'
'URE'
'R1'
'Porta'
'Now'
'Berge'
'978'
'tears_'
'smash'
'rle'
'pice'
'mei'
'matching_'
'heights_'
'atory_'
'asylum_'
'Methods_'
'EST'
'Colony_'
'Charit'
'Cere'
'Bailey_'
'unexp'
'temp'
'recruited_'
'ptions_'
'mytholog'
'healing_'
'enhancing_'
'embod'
'commodity_'
'commit'
'analyst_'
'Nac'
'Maker'
'Maid'
'MW_'
'Linds'
'Keys'
'Fei'
'Crawford_'
'yon_'
'whisk'
'wheat_'
'rga'
'revolution'
'renewable_'
'promo'
'progression_'
'limestone_'
'laim'
'expire'
'decoration'
'custody_'
'cara'
'Summit_'
'Stop_'
'Stamp'
'Present_'
'Kyle_'
'Ellen_'
'Disa'
'Communis'
'Chick'
'trem'
'swing_'
'planted_'
'imports_'
'hammer'
'europ'
'ebra'
'conclu'
'clade_'
'casino_'
'bina'
'^ '
'Romanian_'
'NB'
'Fus'
'Bene'
'transparency_'
'synth'
'obstacles_'
'gean'
'boarding_'
'ardi'
'api'
'Salo'
'Rocky_'
'Rhin'
'Max'
'Bronze_'
'ár'
'tran'
'restriction_'
'pian'
'opter'
'ias'
'guin'
'grocer'
'facilitat'
'extraction_'
'addict'
'Wald'
'Tow'
'Hook'
'Chemistry_'
'Cala'
'Athen'
'uth_'
'seg'
'noon_'
'manne'
'invit'
'industriali'
'dance'
'cock_'
'chia'
'bil'
'abstract'
'Jiang'
'Hull_'
'Angela_'
'202_'
'wrong'
'touch'
'stead'
'seal_'
'nutrient'
'lobe'
'lina'
'inquir'
'embassy_'
'commentator'
'commanders_'
'Vision_'
'Value_'
'Guidelines_'
'Glass_'
'Door'
'Aqui'
'trigger_'
'pron'
'offerings_'
'encourages_'
'card'
'Wyn'
'Valu'
'Turn_'
'Rubi'
'Recovery_'
'Gad'
'Fish'
'185_'
'weird_'
'trig'
'rst'
'mount_'
'moderniz'
'lobb'
'legitimacy_'
'him'
'ghton_'
'gala'
'forest'
'av'
'Wolf_'
'Wing'
'Trin'
'Sunn'
'Snow'
'Atten'
'Aspe'
'167_'
'�_'
'ün'
'stee'
'rson_'
'gallo'
'escap'
'disciple'
'depend'
'bes'
'anga'
'alin'
'Yea'
'Oe'
'McA'
'Jamie_'
'Holm'
'Forma'
'Cassi'
'COU'
'Alam'
'. .'
'scratch'
'referenc'
'purifi'
'pressed_'
'pc'
'launching_'
'hya'
'genero'
'esth'
'crystal_'
'combinations_'
'clan_'
'appli'
'Schmidt_'
'Schm'
'PW'
'Intel'
'uninte'
'tia_'
'supreme_'
'ree_'
'quet_'
'quent'
'outreach_'
'ocu'
'manga'
'frag'
'devi'
'bare_'
'backer'
'Somalia_'
'NAS'
'Move'
'Knowledge_'
'Gag'
'GEN'
'Carol_'
'Blue'
'unk'
'tric_'
'shine'
'rupt'
'recap'
'pressing_'
'paleo'
'oligo'
'myst'
'modell'
'minerals_'
'infringe'
'incidence_'
'dli'
'copy'
'cooperative_'
'Virg'
'Syriac_'
'Hw'
'Daniel'
'143_'
'thе_'
'reinforced_'
'pom'
'longtime_'
'ila_'
'iation'
'disrupt'
'dialect'
'celebrations_'
'branch'
'Gia'
'Exhibit'
'Batt'
'Aberystwyth_'
'ypic'
'walle'
'suppliers_'
'stria'
'reservoir_'
'multipli'
'diag'
'armies_'
'ODI'
'Flood'
'Effects_'
'Alpha'
'€'
'tures_'
'sweep'
'rak'
'presid'
'inherited_'
'fade'
'beautifully_'
'adheren'
'Too'
'Tes'
'Something_'
'Share'
'Porti'
'Link_'
'Lincolnshire_'
'vascular_'
'ulf'
'oud'
'nte_'
'monuments_'
'interst'
'human'
'hic_'
'gus_'
'grav'
'gly_'
'flags_'
'conceal'
'brains'
'arg'
'Workshop_'
'Sweet_'
'Spec'
'Ore'
'Lus'
'.'')'
'nowhere_'
'genous_'
'enda'
'directing_'
'cultivation_'
'ambassador_'
'Teen'
'Pett'
'Nom'
'Kay'
'Inters'
'Important'
'Chapman_'
'Brod'
'1858_'
'' ``_'
'unrest'
'start'
'specialis'
'servic'
'faith'
'dictionary_'
'clarifi'
'bash'
'``. _'
'USD'
'Swe'
'Sali'
'Salem_'
'Rivers_'
'Pictures_'
'Interv'
'Assu'
'tili'
'possessed_'
'meanings_'
'immor'
'hound'
'hiring_'
'fab'
'cohesi'
'Zac'
'Spen'
'Sama'
'Rhodes_'
'Mant'
'JP'
'Freeman_'
'Fisher'
'Dill'
'AG_'
'1855_'
'valen'
'tu_'
'tsh'
'publicity_'
'predict'
'ngs'
'finalist'
'bodi'
'arrives_'
'Preston_'
'Opti'
'Gr'
'Electronic_'
'Eight_'
'Atlas_'
'yer'
'wreck_'
'sperm_'
'sap'
'rut'
'resume_'
'fenc'
'drummer_'
'dorm'
'dom'
'conco'
'commanded_'
'amu'
'Sp'
'Shortly_'
'Horse_'
'Hammer'
'Aven'
'λ'
'sus_'
'soap_'
'reviewer'
'prosecut'
'pep'
'participat'
'croc'
'correction_'
'calculations_'
'Umar_'
'Testament_'
'ISIS_'
'Ech'
'Chance'
'Alo'
'än'
'wikipedia_'
'vii'
'terrorists_'
'sia'
'rist'
'mps'
'loose'
'iw'
'comprise_'
'civiliz'
'blank_'
'Troy_'
'Tel_'
'Nec'
'Moses_'
'LES'
'Democrat_'
'Biblio'
'AFL_'
'( _'
'princes'
'physiolog'
'penalties_'
'lawsuit_'
'ige_'
'icular_'
'disclosure_'
'declining_'
'breath_'
'Wint'
'Theor'
'Rhe'
'Musical_'
'Monument_'
'Molecular_'
'MENT_'
'FIFA_'
'Di_'
'Brien_'
')), _'
'willingness_'
'visc'
'variant_'
'unav'
'tog'
'rota'
'reminded_'
'municipality_'
'mount'
'kto'
'figured_'
'endemic_'
'elb'
'eit'
'eig'
'ego_'
'eager_'
'dian_'
'deadly_'
'conquest_'
'beside_'
'assured_'
'adju'
'acul'
'Pyr'
'Picture_'
'Palm'
'Mode'
'MT_'
'Gaz'
'Dona'
'Distri'
'Cie'
'Brahm'
'teens_'
'techno'
'spond'
'sco_'
'radius_'
'prom'
'lach'
'heri'
'electron'
'deserves_'
'climbing_'
'bomber'
'bitter_'
'biog'
'Traffic_'
'Loy'
'Heath'
'Dry'
'Chl'
'Batter'
'135'
'117'
' ~_'
'unli'
'trea'
'sque'
'spra'
'secrets_'
'projection_'
'ola'
'nm'
'kni'
'kie_'
'inequality_'
'fax_'
'fanc'
'eus_'
'cott_'
'connects_'
'astronaut'
'abor'
'Minor_'
'Mac_'
''' - _'
'sodium_'
'restart'
'metha'
'emphasize_'
'bull_'
'aren'
'\u '
'Tama'
'Prix_'
'Fell'
'Copenhagen_'
'Concern'
'Communities_'
'Comm'
'Cob'
'!!! _'
'uis'
'tk'
'terrestrial_'
'smallest_'
'rici'
'oli_'
'mena'
'lam_'
'debu'
'andi'
'analys'
'Trial'
'OD_'
'McM'
'Gilli'
'Derek_'
'°'
'zzo'
'trin'
'pub'
'nter'
'nee'
'module_'
'min'
'letting_'
'intellectuals_'
'immuni'
'exposi'
'escen'
'cruise'
'crowds_'
'calculat'
'bah'
'artillery_'
'Yard'
'Vene'
'Stac'
'GB_'
'Celtic_'
'Auth'
'Appa'
'utilit'
'ulate'
'stance_'
'shaw'
'rrect'
'progresse'
'oth'
'ming'
'midfielder_'
'matt'
'foraging_'
'fera'
'fell'
'barre'
'amend'
'Thunder'
'Parliamentary_'
'Napoleon_'
'Mitterrand_'
'Ina'
'Gho'
'Cardiff_'
'Alder'
'towe'
'supervise'
'spoo'
'reu'
'reti'
'rall'
'nucle'
'formulate'
'ense'
'auri'
'ago'
'Tribu'
'Status_'
'PBS_'
'Nis'
'Nau'
'Mennonites_'
'Medieval_'
'Cort'
'Bl'
'163_'
'105'
'unanimous'
'retr'
'prai'
'philosopher_'
'itor'
'innovations_'
'ider_'
'donation_'
'diu'
'colum'
'Shop_'
'Scouting_'
'Meyer_'
'Mao'
'HER_'
'Function'
'ww'
'sailed_'
'respects_'
'pop'
'nami'
'modi'
'ibu'
'forc'
'end'
'dictator'
'cida'
'Vick'
'Vet'
'McCu'
'Implement'
'Eve'
'Eugene_'
'wines_'
'unm'
'suppose_'
'sha_'
'pruden'
'privileged_'
'osteo'
'ibi'
'digest'
'deviation'
'congress'
'compartment'
'calculate_'
'ark_'
'Sew'
'External_'
'sque_'
'speeches_'
'rtic'
'relegat'
'mk'
'map'
'lover_'
'kom'
'interre'
'instinct'
'fau'
'convers'
'anor_'
'Riggs_'
'Hardy_'
'Embassy_'
'Earlier_'
'Chic'
'Caliph'
'Broke'
'Appeal_'
'Albu'
'146_'
'yle'
'siti'
'recover'
'proclaimed_'
'peripheral_'
'outl'
'organise'
'lio'
'interim_'
'endangered_'
'academy_'
'Sup'
'Qaeda_'
'Pipe'
'Notabl'
'Musta'
'Designe'
'Bros_'
'...''
'vivid'
'udd'
'typo'
'surveyed_'
'sui'
'referee_'
'ox'
'ninet'
'insufficient_'
'entrepreneurs_'
'diamond'
'devastating_'
'bee_'
'Villa_'
'TRI'
'Kira'
'Jung_'
'1853_'
'tn'
'stamp_'
'propagat'
'painful_'
'intuiti'
'imprisoned_'
'ifer'
'harassment_'
'genome_'
'emit'
'diving_'
'dean_'
'chn'
'avo'
'atti'
'Ship'
'Proc_'
'Phyl'
'Morr'
'Growth_'
'Eye'
'Emi'
'152_'
').'' _'
'п'
'visa_'
'resent'
'resemble'
'minated_'
'merge'
'mechanics_'
'interv'
'instructor_'
'four'
'draw'
'creator_'
'cous'
'compet'
'cien'
'cie'
'T2'
'Southampton_'
'Exa'
'DEC'
'Cus'
'Ask'
'sequel_'
'rega'
'lovers_'
'invest'
'fis'
'bottle_'
'\u\u\u'
'Yang_'
'Terra'
'Tempe'
'Supp'
'Speciali'
'Julian_'
'Helen'
'Documenta'
'CoA_'
'Cent'
'Bala'
'1852_'
'translations_'
'receptors_'
'informa'
'iana_'
'hepati'
'glio'
'genom'
'ecto'
'echo'
'clearing_'
'cann'
'TX_'
'Rh'
'Punjab'
'Publi'
'Minneapolis_'
'Illustrat'
'Goe'
'Essex_'
' ! _'
'soa'
'resp'
'pall'
'overp'
'mills_'
'lette'
'individually_'
'hec'
'blown_'
'Winni'
'MB_'
'Duch'
'Brandon_'
'Bann'
'zt'
'nu_'
'nin'
'meth'
'merger_'
'idia'
'enrollment_'
'emission_'
'decom'
'Windsor_'
'Wait'
'SG'
'Jessica_'
'Fas'
'Esca'
'Barra'
'157_'
'ustr'
'toi'
'oing_'
'inventi'
'heir_'
'harm'
'gag'
'fs'
'feather'
'exceeding'
'deficiency_'
'Whar'
'Maint'
'Double_'
'Conta'
'?'' ``_'
'. ... _'
'unified_'
'thread_'
'tend'
'slice'
'showcas'
'printer'
'presidency_'
'perm'
'paved_'
'occ'
'nor'
'networking_'
'inis'
'eut'
'destroyer'
'continuation_'
'carr'
'Sey'
'Patri'
'Liu_'
'ISS'
'Fred'
'Diploma'
'CV'
'Butter'
'spect'
'shareholders_'
'prolonged_'
'poles_'
'nucleo'
'nota'
'mass'
'justification_'
'continually_'
'behave'
'atori'
'ately_'
'anie'
'Mind_'
'Lion_'
'yne_'
'violate'
'till'
'tie'
'onn'
'oke_'
'enb'
'eling_'
'detached_'
'consequently_'
'assertion'
'THER'
'Suppl'
'Secur'
'Reader'
'Oi'
'Newspaper'
'Leit'
'Dad'
'Congregation'
'Clare'
'yin'
'topp'
'renew'
'milestone'
'mediat'
'intimidat'
'exploit'
'erra'
'embraced_'
'deadline_'
'bake'
'adapta'
'Speaking_'
'Prob'
'Presidential_'
'Potter_'
'GW'
'Eno'
'Bott'
'205_'
'153_'
'touchdowns_'
'stine'
'recom'
'rati'
'optical_'
'impart'
'extracted_'
'encompass'
'dz'
'culat'
'corresponds_'
'clinic_'
'bump'
'administer'
'Surge'
'Stories_'
'Select_'
'Heb'
'Gate_'
'Explore_'
'Dunn'
'119'
'pending_'
'om'
'jet'
'itan'
'goat'
'envelope'
'discern'
'dic_'
'diary_'
'diagnosed_'
'ciati'
'burge'
'amenities_'
'Save_'
'Proce'
'Permi'
'Jacobs'
'Hurl'
'Aw'
' ), _'
'terate'
'stan'
'playoff_'
'overlap_'
'negotiate_'
'licence_'
'kinase_'
'hydrol'
'funk'
'exclu'
'enclosed_'
'bicycl'
'VERNON_'
'OH_'
'Andro'
'203'
'warm'
'troubles'
'subst'
'rves_'
'offs_'
'inflammatory_'
'hine_'
'fingers_'
'fascinat'
'erge'
'ental'
'enforce_'
'correlated_'
'awe'
'Transform'
'Sources_'
'Row_'
'Pear'
'Generally_'
'EY_'
'1851_'
'132'
'spokes'
'migrat'
'indo'
'horse'
'garage_'
'enl'
'auditor'
'Zei'
'Trum'
'Hospital'
'Bret'
'171_'
'yea'
'tex'
'pipe_'
'num_'
'morphological_'
'lengthy_'
'kilometres_'
'inso'
'hto'
'exu'
'confirmation_'
'clarity_'
'apple_'
'accomplish_'
'Sgt_'
'Progress_'
'Kirk'
'Jackie_'
'INC'
'Hora'
'Fis'
'Euro_'
'ramp_'
'populated_'
'picks_'
'obsessi'
'materiali'
'law'
'encompasse'
'eage'
'consecrat'
'bundle'
'bark'
'Significan'
'Fruit'
'Chuck_'
''' . _'
'trou'
'resign'
'lips'
'hoods_'
'fertility_'
'eag'
'eable_'
'decreases_'
'blessed_'
'RIS'
'Ober'
'Nol'
'Lag'
'0000'
'γ'
'ventral_'
'uld'
'rankings_'
'prospective_'
'oly'
'oka'
'lized_'
'factories_'
'demonstrating_'
'cement_'
'brutal_'
'blend_'
'anz'
'Ma'
'Kis'
'IM_'
'154_'
'yal'
'vague'
'vacant_'
'uru'
'postal_'
'muti'
'menting_'
'cure_'
'besto'
'bag'
'arab'
'Press'
'Male_'
'Depend'
'Cock'
'Bolivia'
'Abbas'
'ن'
'vou'
'spare_'
'sentiment'
'pedia'
'nutrition_'
'nter_'
'nial_'
'nationalit'
'jian'
'impacted_'
'hac'
'carto'
'calyp'
'annoy'
'XVI'
'Kob'
'How'
'Holt'
'Gw'
'Greenw'
'Gay'
'Films_'
'Crusaders_'
'Clarendon_'
'А'
'weighted_'
'stiff'
'occupy_'
'nsic'
'lympho'
'hedge'
'enst'
'contacted_'
'ckl'
'cka'
'cafe'
'beats_'
'awake'
'Shr'
'SW_'
'Rex_'
'Nara'
'Easter_'
'Disse'
'Coach'
'whale'
'vern'
'spectator'
'skie'
'sept'
'qui_'
'media'
'horizon_'
'chie'
'SG_'
'Prem'
'Nonetheless_'
'Mineral'
'Jet'
'JavaScript_'
'Demon'
'Blacks'
'Arro'
'230_'
'122'
'underway_'
'tzer_'
'tsu'
'stripe'
'sic'
'sanctions_'
'pilots_'
'pi_'
'iP'
'displaced_'
'curtai'
'Root'
'Languages_'
'IND'
'Forbes_'
'Diag'
'Blake_'
'Biochem'
'Δ'
'zab'
'sheer_'
'reins'
'put'
'pray_'
'pine_'
'peak'
'indoor_'
'fatal_'
'eed_'
'economist'
'decisive_'
'dans_'
'cription'
'businessman_'
'bara'
'Sieg'
'Reduc'
'Gov'
'123'
'éra'
'urgent_'
'uel'
'stric'
'strengthened_'
'sile'
'indirectly_'
'hus_'
'frank'
'esteem'
'enthusiast'
'aking_'
'Chemical_'
'Bing'
'Bett'
'tip'
'tena'
'overla'
'opt'
'observer_'
'incl'
'graphe'
'eph'
'departed_'
'citing_'
'cc_'
'births_'
'Repo'
'RAN'
'Prev'
'Pleas'
'Meso'
'Maya'
'Henderson_'
'surround'
'obscure_'
'mutation_'
'mil_'
'lexi'
'lds_'
'hormone'
'Tribune_'
'Stran'
'Pate'
'Origin_'
'Oriental_'
'KM'
'Iron'
'Hack'
'zion'
'vari'
'vable_'
'thl'
'repr'
'ork'
'illustrations_'
'iad'
'haw'
'endor'
'crack_'
'councils_'
'cartoons_'
'alist'
'admi'
'Stream'
'Sox_'
'SHO'
'Phili'
'Occasional'
'Interc'
'Emm'
'978_'
'/. _'
'zk'
'transparent_'
'shaping_'
'scandal_'
'rome'
'pretend'
'preceded_'
'osp'
'lud'
'ils_'
'delete'
'cob'
'Wagner_'
'Starting_'
'Purp'
'PubMed_'
'Het'
'Gd_'
'Exten'
'But'
'sax'
'papa'
'manipulate'
'lifted_'
'jihad'
'iss_'
'ional'
'formali'
'exac'
'efficiently_'
'directory_'
'deciding_'
'convey_'
'concentrate_'
'abd'
'Williamson_'
'WG'
'Pte_'
'Know_'
'Comparative_'
'Bajaj_'
'148_'
'workplace_'
'volcano'
'surge_'
'rine_'
'resses_'
'regression_'
'probable_'
'orc'
'oes_'
'lik'
'inmates_'
'ingham_'
'igan_'
'hma'
'highways_'
'fortunate_'
'evangeli'
'enu'
'cles_'
'atis'
'apost'
'abad_'
'Yas'
'Voi'
'Pub'
'Ost'
'Mili'
'Leon_'
'Lab_'
'HP_'
'trick'
'rica'
'resist_'
'pitched_'
'pau'
'outbreak_'
'flag'
'deca'
'alert_'
'administrators_'
'Torre'
'Rover'
'Identif'
'Hayd'
'Fee'
'§_'
'wagon'
'stle'
'simi'
'resc'
'onco'
'dominate_'
'discount_'
'Warn'
'STER'
'Rapids_'
'Organi'
'Mercury_'
'Krishna'
'Iz'
'Globe_'
'Gea'
'Elder'
'Adi'
'., ``_'
'на_'
'sore'
'scro'
'ember'
'clic'
'cial'
'assay_'
'amount'
'Weather_'
'Vik'
'Sub_'
'Specific'
'Smithsonian_'
'Schwar'
'Queens_'
'Marion_'
'Jol'
'ş'
'uch_'
'stem'
'seed'
'reforme'
'pelle'
'mita'
'ilia'
'glyc'
'favorable_'
'ever'
'econ'
'dr'
'combines_'
'butter_'
'bore_'
'PMID_'
'Nel'
'Knuckles_'
'Jean'
'Immuno'
'Fasci'
'Database_'
'Comment_'
') = _'
'ég'
'wl_'
'ued_'
'terrifi'
'suspects_'
'starter_'
'realities_'
'price'
'organizer'
'mara'
'eh_'
'contra'
'bio_'
'Wein'
'TER_'
'Solo'
'Ship_'
'Reu'
'Pus'
'NAL_'
'Manning_'
'Discovery_'
'Cag'
'CMS'
'Blan'
'viola'
'subscription_'
'specifications_'
'sibl'
'procurement_'
'nath'
'filmmakers_'
'expenditures_'
'excel'
'erst'
'ecu'
'concludes_'
'charming_'
'Surv'
'Proper'
'Eq'
'CN_'
'ulu'
'tist'
'teenage_'
'prizes_'
'polls_'
'olu'
'obo'
'nde_'
'naviga'
'itio'
'distress_'
'condemned_'
'apparatus_'
'Una'
'Shap'
'Maps_'
'trader'
'teas'
'tated_'
'surpass'
'stim'
'ross'
'rhetoric_'
'recruiting_'
'pottery_'
'plague'
'persistent_'
'nak'
'maj'
'lining_'
'inum_'
'elaborat'
'digit_'
'bread'
'bioma'
'Product_'
'Ordina'
'Maca'
'Jew'
'Internal_'
'Hul'
'Hort'
'Chel'
'222'
'vertebrate'
'then'
'plain'
'oria'
'lob'
'lacks_'
'fuse'
'flatte'
'ferry_'
'eight'
'build'
'bibliograph'
'atri'
'accumulated_'
'WWII_'
'Traditional_'
'S1_'
'Participat'
'Kus'
'Ira'
'Hitchcock_'
'Brook_'
'Belgian_'
'Ameri'
'Adventure_'
': $_'
'1856_'
'zant'
'ware'
'vocabulary_'
'relaxi'
'rebounds_'
'padd'
'marin'
'infant_'
'galax'
'focal_'
'cheat'
'bilateral_'
'att_'
'astro'
'adolescen'
'Valentin'
'Swansea_'
'Structure_'
'SER'
'Rel'
'Germantown_'
'Contra'
'Carme'
'urn_'
'undi'
'sword_'
'subjective_'
'strate'
'ruins_'
'raid_'
'predicti'
'orth'
'moor'
'metre_'
'folk'
'evolving_'
'etti'
'erne'
'efi'
'eats_'
'coordinator_'
'attract'
'Southe'
'Sca'
'KA_'
'Hayes_'
'Contin'
'Coch'
'x1'
'wire'
'verd'
'resembl'
'obst'
'ndar'
'last'
'gian'
'ghan_'
'frozen_'
'foremost_'
'eventual_'
'entrepreneur'
'count'
'alla'
'absorbed_'
'Principles_'
'Litt'
'Julia_'
'Initia'
'Holo'
'Gates'
'Els'
'Conne'
'Accordingly_'
'vation'
'sparse'
'separati'
'quenc'
'patch_'
'lens_'
'inse'
'inent'
'illus'
'helicopter_'
'cano'
'astonish'
'adi_'
'Sierra_'
'Qur'
'Gujarat_'
'Discover'
'Darling'
'Archer_'
'App'
'wiki'
'trous'
'tenham_'
'scan_'
'nche'
'mentally_'
'intentions_'
'influ'
'homeless_'
'enf'
'detri'
'byte'
'blot'
'bach_'
'babies_'
'Hartford_'
'Giovanni_'
'Chor'
'Assoc'
'1837_'
'пр'
'versatil'
'sandy_'
'rocky_'
'retrieve'
'phag'
'pani'
'neutro'
'neighbour'
'grape'
'fie'
'ders'
'commemorati'
'chant'
'booking_'
'bbl'
'bathroom_'
'Yellow_'
'Viking'
'Triple_'
'Made'
'Biological_'
'Belt'
'Americas_'
'): '
'ل'
'vec'
'unique'
'tched_'
'staged_'
'shore'
'protocols_'
'pelag'
'paral'
'nched_'
'lav'
'helm_'
'geometry_'
'fragment_'
'esm'
'endless_'
'dialog'
'dams_'
'culu'
'az_'
'Vac'
'Scholarship_'
'Pei'
'Fighter'
'Conven'
'Carli'
'Canterbury_'
'Awar'
'50s_'
'128'
'éa'
'winge'
'was'
'specify_'
'rns_'
'rio'
'refle'
'ovar'
'jug'
'hoc'
'foreg'
'categoriz'
'Unp'
'Transp'
'Selecti'
'Pana'
'Cornell_'
'Burns_'
'Baldwin_'
'Abdul_'
'в_'
'sound'
'sided_'
'sak'
'raf'
'oversight_'
'opti'
'neutrali'
'mosa'
'hth'
'graves'
'elongat'
'concession'
'biom'
'bilitat'
'alp'
'Zoo'
'Und'
'Talk'
'RM_'
'RL'
'Pica'
'Oakland_'
'Caucas'
'Buy_'
'Baptis'
'Anato'
'ν'
'tche'
'rness_'
'probe_'
'photographe'
'oru'
'new'
'lica'
'insigni'
'hometown_'
'gr'
'glyco'
'gau'
'ffici'
'env'
'consult_'
'alco'
'Serv'
'Pill'
'NAT'
'HH'
'GER'
'Fors'
'Capt'
'Behind_'
'Asto'
'Anthropolog'
'ín_'
'sponsorship_'
'prepare'
'nte'
'nif'
'jumped_'
'imagined_'
'geologi'
'fathers_'
'embodie'
'contradiction'
'confrontation'
'WF'
'Unif'
'Trai'
'Louisville_'
'Happy_'
'Film'
'FF_'
'sanit'
'revere'
'respond'
'prevalence_'
'lanc'
'kenn'
'haus'
'distincti'
'collectively_'
'campaign'
'Sund'
'Strong_'
'Lake'
'Excellence_'
'Alm'
'vik'
'systematic'
'subj'
'stica'
'shame_'
'inability_'
'graft'
'efficacy_'
'corn'
'conve'
'communion_'
'bear'
'ashe'
'anthropologi'
'WM'
'Statistical_'
'Somali'
'Shre'
'Poetry_'
'Lev'
'Figures_'
'Better_'
'156_'
'stair'
'spotted_'
'osu'
'onne'
'nurtur'
'jurisdictions_'
'grade'
'genic_'
'edd'
'consumed_'
'conquer'
'carv'
'ark'
'Ura'
'Sb'
'Nou'
'Iso'
'Continental_'
'BiP_'
'viz'
'travelers_'
'superf'
'suburbs_'
'reef_'
'prescri'
'postu'
'plott'
'nae'
'engrav'
'eldest_'
'decay'
'cumulative_'
'bombs_'
'atur'
'Reclamation_'
'Individual_'
'Improvement'
'Gae'
'Dark'
'Countries_'
'Charle'
'Bahá_'
'wig_'
'violin'
'sponsors_'
'rolled_'
'reed'
'rais'
'processor'
'motori'
'mish'
'mel_'
'john'
'hana'
'geometric'
'ethnicity_'
'encounters_'
'devote'
'cian'
'ario'
'acut'
'absurd'
'Surrey_'
'Saxon_'
'Lith'
'Identity_'
'Comi'
'tempo'
'paradi'
'math'
'lash'
'jud'
'ipe'
'ideals_'
'fou'
'elimination_'
'computed_'
'bes_'
'barb'
'ancestry_'
'amin'
'Toma'
'Sidd'
'Scra'
'Repl'
'Hoe'
'Hima'
'Ace'
'ANC'
')... _'
'ɑnd_'
'visualiz'
'valleys_'
'subd'
'plead'
'pano'
'ordinance'
'offenders_'
'minimize_'
'lish'
'hamp'
'entail'
'deu'
'desert'
'conserved_'
'confess'
'comment'
'caul'
'arbitrary_'
'Step'
'Soph'
'Giants_'
'Founded_'
'Desert_'
'swim_'
'strip'
'sor_'
'rva'
'rta'
'loop'
'fortifi'
'ester'
'conquered_'
'chemi'
'cati'
'avenue'
'antis'
'Screen_'
'Mio'
'Coff'
'Born'
'Asp'
'triumph_'
'systemic_'
'sweet'
'presume'
'mmer_'
'inca'
'inb'
'holo'
'headline'
'fug'
'colleague_'
'bud'
'align'
'Teacher_'
'Rich_'
'Mind'
'Marshal'
'Gl'
'Edmonton_'
'Coh'
'thrive'
'tering_'
'spontaneous'
'sas'
'paste'
'passive_'
'nv'
'mah'
'logist_'
'intima'
'gloss'
'experi'
'divergen'
'canton'
'ational'
'alie'
'afore'
'Berna'
'215_'
'rro'
'rov'
'reviewing_'
'pave'
'orienta'
'monkey'
'mone'
'miscon'
'instructi'
'gett'
'encr'
'diversi'
'core'
'boring_'
'Scientist'
'Noa'
'Malcolm_'
'Dove'
'Damascus_'
'African'
'éo'
'urn'
'universal'
'statistically_'
'ota_'
'muc'
'judged_'
'infantry_'
'harmful_'
'codon'
'chir'
'anonymous_'
'Ska'
'Lav'
'INA'
'Hid'
'Event_'
'Ern'
'Engineer_'
'éd'
'yours'
'vers'
'steep'
'specialty_'
'rope_'
'moti'
'ionization_'
'inju'
'frog'
'fertiliz'
'feared_'
'entertaine'
'convince_'
'ben_'
'YO'
'Willi'
'Ub'
'Tw'
'Phi'
'Hi_'
'Coalition_'
'Albania'
'AAA'
'ال'
'tRNA'
'sixty_'
'score'
'quest'
'foi'
'eas_'
'dur'
'ctu'
'criminals_'
'composite_'
'chop'
'buzz'
'budd'
'XR'
'Mell'
'Haa'
'Fellowship_'
'Fear'
'Cloud_'
'Barto'
'ype'
'whereby_'
'translate_'
'toilet'
'superi'
'shocked_'
'rdo_'
'opu'
'kindl'
'devotion_'
'barr'
'Trend'
'NEW_'
'Montana_'
'Khal'
'Gav'
'Frontier_'
'Del_'
'wetland_'
'supposedly_'
'steadily_'
'rituals_'
'restor'
'responding_'
'relay'
'preparations_'
'personalities_'
'mpa'
'marke'
'integrati'
'helic'
'discount'
'conform'
'anal'
'Oli'
'Leh'
'Guide'
'Falcon'
'Chiefs_'
'195_'
'senator'
'rena'
'puzzle_'
'prosecution_'
'precious_'
'pertaining_'
'mit_'
'lates_'
'inhibition_'
'ient_'
'harbor_'
'ense_'
'emergen'
'congratulat'
'ballad'
'astrolog'
'albatross'
'XII'
'Hern'
'Glob'
'Game'
'Flan'
'Bosnia'
'Baba'
'té'
'scholarships_'
'reak'
'ewo'
'ellipsoid'
'compensate'
'capt'
'Zan'
'Way'
'Testi'
'Tag_'
'Prin'
'Initially_'
'Built_'
'Beautiful_'
'Associates_'
'ushe'
'tine'
'thinker'
'shield_'
'laz'
'igh'
'generaliz'
'fatty_'
'coached_'
'characterization_'
'Sene'
'Rodrigue'
'Pug'
'Perr'
'Natural'
'Litera'
'Lean'
'Holocaust_'
'subdivi'
'neck'
'motorcycle'
'lineage_'
'ksh'
'guar'
'globally_'
'explosi'
'disturbance_'
'chemicals_'
'biase'
'assure'
'approve_'
'Zulu'
'Zer'
'Utili'
'Spider'
'Richards_'
'Patriot'
'Nintendo_'
'Mys'
'Mug'
'Judicia'
'Davi'
'Commit'
'Buri'
'1A_'
'1776_'
'145'
'warrant_'
'volunteer'
'ussion'
'unp'
'rans'
'nominal'
'nice'
'koi_'
'help'
'geop'
'gend'
'gale'
'fever_'
'evaluat'
'dupl'
'dish_'
'destine'
'cohort'
'characterize'
'Xu'
'Task_'
'Streets_'
'Plans_'
'OM_'
'NIC'
'Midway_'
'IST'
'Gump_'
'Gramm'
'Genealog'
'Bid'
'Aristo'
'subdivision_'
'startup'
'novelist_'
'neglig'
'municipalities_'
'mir_'
'iali'
'fift'
'ews'
'ety_'
'captain'
'announces_'
'Saf'
'Outl'
'José_'
'Innovation_'
'Il_'
'Ark'
'131'
'ña'
'verify_'
'transc'
'stupid_'
'recount'
'passages_'
'pas'
'newsletter_'
'gl'
'fulfill_'
'exile_'
'depiction'
'deliberately_'
'cule'
'Swi'
'Southw'
'Notice_'
'Guant'
'Burg'
'thea'
'summe'
'republic_'
'recommend'
'pulling_'
'protesters_'
'naga'
'masterpiece'
'ivity_'
'illustrat'
'hopefully_'
'enr'
'elect_'
'decl'
'crash'
'collar'
'cha_'
'Rapp'
'Origin'
'Mada'
'Gould_'
'Dick'
'Cash_'
'203_'
'xter_'
'undis'
'underc'
'sketch_'
'rak_'
'professors_'
'nomi'
'luna'
'lodge'
'lime'
'inexp'
'inactiv'
'ghten'
'font_'
'failures_'
'diagnos'
'darkness_'
'cotta'
'Transit_'
'Lago'
'Inno'
'Esc'
'Copyright_'
'115'
',.'
'то'
'weakness_'
'uff'
'tolera'
'speed'
'mast'
'hio'
'erto'
'dicate'
'bye_'
'assimilat'
'Thomson_'
'Tet'
'Tampa_'
'Stab'
'SCH'
'Hyp'
': ``'
'xual'
'sug'
'raphs_'
'pitche'
'ished_'
'insta'
'compliment'
'Wilm'
'Ward'
'Tsu'
'Sex'
'SQ'
'Koi_'
'Druze_'
'Delta_'
'CAL'
'worr'
'unacc'
'slippe'
'sively_'
'programm'
'prevailing_'
'penetrati'
'park'
'pard'
'ores_'
'numera'
'lacked_'
'hydrop'
'entifi'
'cook_'
'consume'
'charg'
'Wri'
'Volunt'
'Vatican_'
'Unt'
'Subst'
'Expos'
'shower_'
'ridges_'
'rehears'
'phrases_'
'overd'
'internal'
'eys_'
'enca'
'deto'
'crews_'
'carbon'
'angl'
'accredited_'
'Spie'
'Mary'
'JA_'
'Das_'
'DHHC'
'Communi'
'216'
'uphe'
'surname'
'partition'
'paradigm_'
'outla'
'kli'
'kata'
'irregular_'
'evaluating_'
'dilut'
'combat'
'canad'
'afi'
'Recreation_'
'Lob'
'Israeli'
'Claire_'
'Arri'
'194'
'ön'
'sends_'
'salaries_'
'reject'
'rays_'
'predecessor_'
'oi_'
'monoc'
'intermi'
'implied_'
'illa_'
'explosive_'
'doctrin'
'coup_'
'aftermath_'
'ables_'
'VH'
'Thousand'
'Scal'
'Rwanda'
'Paint'
'Dog_'
'Changes_'
'310'
'viv'
'stha'
'stepp'
'landowner'
'itt_'
'indr'
'finit'
'disi'
'discriminat'
'corners_'
'convincing_'
'coin'
'cep'
'boots'
'accomplishments_'
'Road'
'Return_'
'Rau'
'Ostr'
'Mone'
'Invit'
'Hut'
'Feat'
'Edmund_'
'113'
'trick_'
'subset'
'stigma'
'spider'
'showcase_'
'saint_'
'onwards_'
'naming_'
'fragil'
'ences_'
'email'
'definitive_'
'Tsa'
'Orio'
'Mechanic'
'Lucy_'
'Eve_'
'Ethi'
'Ernst_'
'Balf'
'233'
'159_'
'114'
'prod'
'nion_'
'microf'
'insure'
'increment'
'fem'
'donat'
'dispose'
'delight'
'cai'
'appendi'
'announcing_'
'agen'
'addiction_'
'Think_'
'Shetland_'
'Philo'
'Expert'
'Bengal'
'Authori'
'vacuum_'
'stak'
'riot'
'quad'
'pus'
'midst_'
'jal'
'iva'
'illustration_'
'idad_'
'heath'
'google_'
'emoji_'
'eleg'
'consultan'
'add'
'Stern'
'S1'
'Rib'
'Pint'
'Occup'
'Navigat'
'Nationalist'
'Lebanese_'
'Inform'
'‟_'
'sura'
'sung_'
'regimes_'
'practis'
'outsider'
'motif_'
'militia'
'licat'
'ingr'
'hash'
'eid'
'chez_'
'boxe'
'anta'
'Visit'
'Via'
'Universe_'
'Trent'
'Thought'
'Mo_'
'Caro'
'Bacon_'
'twist_'
'str'
'splend'
'racti'
'nucleotide_'
'itle'
'install_'
'infamous_'
'elle'
'eers_'
'crater_'
'carding_'
'batting_'
'Perce'
'Muh'
'Metal_'
'MIC'
'Kings'
'Hori'
'Fix'
'Evaluation_'
'Dep_'
'visibility_'
'unpre'
'signal'
'rigorous_'
'prost'
'primi'
'orate'
'odor'
'nting_'
'kok'
'instantly_'
'inn_'
'imperi'
'gg_'
'eland'
'dirty_'
'crin'
'bush_'
'benchmark'
'atro'
'aquatic_'
'Von_'
'Tris'
'Qi'
'Marks'
'MIL'
'Ferguson_'
'Fast_'
'sensor_'
'raph_'
'osity_'
'neural_'
'ncil'
'nchi'
'lod'
'horn'
'geological_'
'fib'
'feminis'
'escort'
'engage'
'ece'
'detector'
'dah'
'classi'
'bless'
'Sanders_'
'Pharmaco'
'OECD_'
'Mahon'
'HTML'
'Fift'
'Bois_'
'Aviation_'
'transmi'
'spora_'
'parallel'
'monst'
'magni'
'longi'
'impuls'
'hostilit'
'hoot'
'clock'
'clean'
'aine'
'Triassic_'
'T1_'
'Ring_'
'RH'
'Melvi'
'Latino_'
'Ene'
'Dj'
'Anne'
' ~ _'
'tively_'
'tet_'
'storey'
'replicate'
'prema'
'nun'
'linguist'
'lap_'
'defendants_'
'cort'
'builds_'
'aran'
'Yun'
'Shaw'
'Rent'
'Orkla_'
'Lone'
'Increase'
'wick'
'undu'
'trunk'
'sincere'
'neighbouring_'
'emic'
'copi'
'concentr'
'chus'
'brown'
'ases_'
'antiquit'
'advancing_'
'Time'
'Sug'
'Sisters_'
'Role_'
'Regina'
'Ples'
'Mount'
'Greatest_'
'Erik'
'Deco'
'Chas'
'Ain'
'187_'
'securing_'
'rocket_'
'remembers_'
'preserving_'
'ples'
'overs_'
'ographic_'
'nurses_'
'menta'
'livestock_'
'initiation_'
'hast'
'film'
'employ'
'dp'
'cancelled_'
'barrel_'
'Vladimir_'
'Sams'
'Response'
'KR'
'Galla'
'Clean'
'Citizens'
'Cav'
'Betty_'
'vintage_'
'trave'
'transform'
'tay'
'sob'
'saturat'
'oup'
'omis'
'dinat'
'arde'
'alienat'
'Wolve'
'Sergeant_'
'Reviews_'
'Peg'
'Maa'
'Headquarters_'
'Defin'
'Cast'
'Alexandria_'
'104'
'....'
'. , _'
'ка'
'trusted_'
'tand'
'rivalry_'
'reservations_'
'refugee_'
'ratifi'
'rami'
'psychopath'
'patrol_'
'notions_'
'manifestation'
'licensing_'
'eck_'
'devise'
'cookie'
'cko'
'chet'
'carousel_'
'aya_'
'Tropical_'
'Pastor'
'Ign'
'Ia'
'xin'
'ved'
'thicke'
'metallic'
'marvel'
'lal'
'inco'
'ilant'
'genealogi'
'gable'
'evic'
'estern_'
'eat'
'crat'
'barga'
'ati_'
'aqui'
'Sen_'
'Registr'
'Migra'
'Kes'
'Joseph'
'Elementary_'
'Chech'
'Bradford_'
'Bib'
'upgrade_'
'muni'
'erod'
'determines_'
'chambers_'
'agro'
'Sr'
'Pine_'
'Interest_'
'Haiti'
'Gott'
'Galax'
'Dominican_'
'BAR'
'Anta'
'tees_'
'supporter_'
'step'
'revenge_'
'repairs_'
'proceeding_'
'lities_'
'hierarchi'
'estuar'
'eos'
'enlighten'
'dra_'
'diff'
'dictate'
'broker'
'bags_'
'adhere'
'Tribe_'
'Nearly_'
'Hemi'
'Gei'
'Fran'
'Establish'
'107'
'zol'
'wreck'
'suppressi'
'steril'
'spelling_'
'prone_'
'prete'
'monast'
'marijuana_'
'interpreter_'
'imet'
'ibut'
'halo'
'glow'
'educators_'
'coron'
'chase_'
'bond'
'batsm'
'adhe'
'Unf'
'Tomo'
'Monica_'
'Mich'
'Magi'
'MV'
'MON'
'Lenno'
'Lear'
'Grammy_'
'Europ'
'Dres'
'roy_'
'reconn'
'recon'
'planting_'
'fum'
'ecl'
'defend'
'color'
'antim'
'Wachau_'
'Roch'
'NAD'
'Godd'
'Gabriel_'
'Doc'
'Direct'
'Amar'
'Advertis'
'224'
'169_'
'***'
'іn_'
'Ш'
'wherein_'
'privileges_'
'princip'
'pipeline_'
'linger'
'leb'
'icis'
'globul'
'gentle_'
'drown'
'dried_'
'diss'
'contempora'
'calculation_'
'broadcasts_'
'SEA'
'Philippine_'
'Nagata_'
'License_'
'Ferra'
'Electric'
'Cl'
'Administrative_'
')'''
'yi_'
'unite'
'teenager_'
'stays_'
'retic'
'lli_'
'ironic'
'ewe'
'ellan'
'QT_'
'Paw'
'Novel'
'Licen'
'Estonian_'
'ATE'
'320_'
'260_'
'162_'
'umb'
'sprin'
'premiere'
'oner'
'nance_'
'mpton_'
'knocked_'
'jn'
'fine'
'entran'
'edg'
'doms_'
'disturb'
'creep'
'conci'
'ceased_'
'breed_'
'Willie_'
'Rog'
'Quanti'
'Ley'
'Kali'
'Jor'
'Instan'
'Grass'
'118'
'urit'
'unn'
'toss'
'swift'
'sunk_'
'southeastern_'
'searches_'
'retains_'
'quas'
'liquid'
'heterosexual_'
'handb'
'fect'
'ego'
'arag'
'Therapy_'
'Sociolog'
'Serbia_'
'Ramsey_'
'MY'
'Ind'
'Ho_'
'HD'
'Grow'
'Golds'
'Form'
'Corre'
'Cope'
'Anxiety_'
'viole'
'tenth_'
'technically_'
'summon'
'stant'
'sleeping_'
'orti'
'envision'
'culturally_'
'coral_'
'cis_'
'authoris'
'accessor'
'Winner'
'OP_'
'Geology_'
'Finding'
'FROM_'
'Effective'
'Dos'
'Caesar'
'Bt'
'Brigh'
'Advi'
'ulo'
'tributar'
'rider'
'reas'
'nuts_'
'nings'
'irra'
'harde'
'grassland'
'dissolved_'
'deh'
'admits_'
'Word'
'Vehicle'
'PAC'
'Minor'
'Few_'
'DOT_'
'Baye'
'24th_'
'stimulus_'
'specially_'
'receiv'
'nephew_'
'interns'
'fant'
'east'
'dune'
'deducti'
'ariu'
'allocat'
'Second'
'Profi'
'Plane'
'Oak_'
'NZ_'
'Kwa'
'Jah'
'Harmon'
'Hammond_'
'Ghost'
'GIS_'
'Farr'
'Afro'
'AST'
'و'
'xv'
'usti'
'upstream_'
'success'
'striker_'
'simul'
'rence'
'rapper_'
'ow'
'nho'
'manipulation_'
'ingen'
'habit_'
'centri'
'aq'
'alk'
'ales_'
'affinity_'
'adjust_'
'Wave_'
'Step_'
'Reproduc'
'Mud'
'Glenn_'
'Claus'
'226'
'worship'
'vsk'
'routin'
'philosophers_'
'nik'
'moth'
'ledg'
'hani'
'griev'
'grace'
'flour_'
'enduring_'
'corrupt_'
'cci_'
'arrest'
'Parent'
'Nah'
'Lao'
'Guan'
'Donne'
'Brighton_'
'Algeria_'
'uris'
'prises_'
'passport'
'interrupt'
'icati'
'hra_'
'gman'
'expan'
'curator'
'contractors_'
'atmospheric_'
'Vor'
'Prai'
'Partic'
'Lancaster_'
'Cog'
'Beck_'
'üh'
'unr'
'traced_'
'stereo'
'questionnaire'
'mess_'
'laund'
'hemi'
'exhi'
'enthusiastic_'
'deployment_'
'dealers'
'db_'
'certificates_'
'adequately_'
'Jim'
'Jama'
'Example_'
'Determin'
'ر'
'wic'
'vigorous'
'topped_'
'stereotypes_'
'rust'
'refere'
'preach'
'mural'
'molecule_'
'mang'
'larvae_'
'flesh_'
'distr'
'Wester'
'Tyn'
'Sty'
'Poe'
'Pell'
'Hanna'
'Fisch'
'Argent'
'sulf'
'sharpe'
'recipe_'
'presently_'
'playoffs_'
'exceeded_'
'diate'
'decorative_'
'cco'
'captures_'
'biologi'
'backs'
'analysed_'
'Sard'
'Personal'
'Orn'
'Obi'
'Modi'
'JD'
'Going_'
'Eric'
'Craft'
'Coal_'
'Approach'
'158_'
'surgeon_'
'stern'
'rifi'
'rene'
'oon'
'dity_'
'complementary_'
'characteri'
'Tank'
'Shore_'
'Politi'
'Manage'
'Crash_'
'Colt'
'Butt'
'Bhan'
'Beverl'
'Anno'
'.''' _'
'waive'
'trat'
'solve'
'scenic_'
'refund'
'ratios_'
'plas'
'ones'
'inappropriate_'
'hiding_'
'handi'
'geology_'
'estates_'
'dish'
'corrected_'
'Pioneer'
'Opportunit'
'Nit'
'Kit_'
'Exhibition_'
'Este'
'Compet'
'CITY_'
'!'''
' ''
'welcoming_'
'ully_'
'suff'
'sod'
'rushing_'
'resignation_'
'positioned_'
'peptide_'
'outi'
'ols'
'gent'
'divert'
'conspiracy_'
'coh'
'chancel'
'broadcasters_'
'atr'
'Wes'
'THIN'
'Music'
'KH'
'Corona'
'Control'
'Cari'
'Beha'
'127'
'−'
'tyr'
'trajector'
'tones_'
'tiz'
'tite_'
'supernat'
'shortage_'
'pts_'
'orch'
'obscur'
'niti'
'mism'
'intervene'
'homolog'
'finishe'
'duck'
'correspond_'
'casual_'
'asing'
'aph'
'Voca'
'Tis'
'Rolling_'
'Rhode_'
'Oo'
'Chronicle_'
'Bob'
'Analy'
'аnd_'
'withdraw_'
'umbr'
'rhi'
'proves_'
'flash_'
'dispens'
'deepen'
'cribe'
'concurrent'
'beam'
'arter'
'Sof'
'Soccer_'
'SOU'
'Pens'
'Mu_'
'LV'
'Gloucester'
'Crisis_'
'Continue'
'Calif_'
'vesic'
'vegetables_'
'upe'
'thunder'
'oman'
'loid'
'lier'
'cogni'
'algorithms_'
'accommodati'
'Products_'
'Mura'
'Moro'
'COMM'
'Bound'
'.' '
'ule_'
'tto_'
'translator'
'synthesize'
'speculation_'
'policing_'
'mpo'
'modal_'
'listeners_'
'hazard_'
'folding_'
'exter'
'congressional_'
'betting_'
'avoid'
'Stur'
'Stefan'
'Rip'
'Oh'
'Jav'
'Herb'
'Glen_'
'Darre'
'Content_'
'Certificate_'
'Bangla_'
'1812_'
'∼'
'ѕ_'
'uva'
'succeed'
'portal_'
'odic'
'intri'
'directi'
'automat'
'artisan'
'american'
'Skill'
'Mist'
'Generation_'
'Ein'
'Airlines_'
'zani'
'yse'
'unna'
'sus'
'rz'
'revolt_'
'psychologist'
'promoter_'
'pixel'
'omb'
'natives_'
'invade'
'ideali'
'hof'
'federation'
'diat'
'catalyst_'
'Xin'
'Nos_'
'Nass'
'Municipal_'
'Fio'
'Ding'
'Collecti'
'Aru'
' (.'
'zoning_'
'viewpoint'
'vaccine'
'unto_'
'preca'
'owski_'
'outlook_'
'missile_'
'locali'
'hink'
'geon'
'crude_'
'coinciden'
'carc'
'caps_'
'bass'
'Ug'
'Soci'
'Santo'
'Mohammad_'
'Michel'
'MBA'
'Kant'
'Instrument'
'Filip'
'Cyber'
'Aut'
'Ao'
'zel_'
'ventr'
'ultur'
'spp_'
'spear'
'sher_'
'quietly_'
'pianist_'
'philo'
'oids_'
'ndu'
'mourn'
'monot'
'escent_'
'ensures_'
'earne'
'eB'
'crit'
'bride_'
'boast'
'atol'
'EAS'
'Derby_'
'Buen'
'Barnes_'
'Apollo_'
'Alon'
'AME'
'340'
'168_'
' § _'
'ó_'
'tram_'
'spacecraft_'
'scha'
'prince_'
'popular'
'grams_'
'eir'
'dairy_'
'clouds_'
'chester_'
'anno'
'Tut'
'Tum'
'Transc'
'Saturn_'
'Require'
'Rail'
'NES'
'Legi'
'Detai'
'253'
',... _'
'$'
'viat'
'titi'
'spic'
'ordained_'
'nud'
'nsely_'
'nali'
'mesh'
'ivo'
'interc'
'fist'
'enic_'
'cock'
'bip'
'apic'
'alpha_'
'Writers_'
'TIME'
'Seal'
'Liqu'
'Integrati'
'Hung'
'Hoffman'
'Allied_'
'ASE'
'throat'
'retrospect'
'pube'
'phosphorylation_'
'newest_'
'fork'
'facade'
'exhausti'
'diabetes_'
'databases_'
'bann'
'atin'
'arbo'
'Vari'
'Topic'
'Raci'
'Presiden'
'Pli'
'Madden_'
'Hansen_'
'Gwyn'
'Duran_'
'Burke_'
'Bric'
'Beck'
'AMA'
'wil'
'tactical_'
'skeleton'
'rum'
'recession_'
'nbe'
'lari'
'antibiotic'
'Wonder'
'Universit'
'Tid'
'Prime'
'Jou'
'Herz'
'Dime'
'Chase_'
'Burton_'
'Australians_'
'265'
'-''
'¶ _'
'wyn_'
'whip'
'swar'
'stero'
'simulat'
'reunion_'
'perceive'
'monopoly_'
'lowl'
'liberation_'
'liable_'
'hectare'
'favor'
'estra'
'dug'
'dive_'
'dall'
'conscience_'
'celebrates_'
'bribe'
'ayer'
'Uncle_'
'Tech'
'Solution'
'Samar'
'Receiv'
'REV'
'Prose'
'Niagara_'
'Fi_'
'DR_'
'Buch'
'218'
'undo'
'traveller'
'stipulat'
'smuggl'
'peris'
'nsk'
'intestinal_'
'grit'
'expedit'
'enso'
'distill'
'diocese_'
'charitable_'
'automo'
'affl'
'Zion'
'Yu_'
'User_'
'Tria'
'TV'
'Sudan_'
'Prot'
'MVP_'
'Lodge_'
'Lap'
'Kirk_'
'COR'
'Bear'
'Arcad'
'vein'
'sharpener'
'ses'
'remind_'
'politan'
'ophil'
'limitation_'
'ilo'
'heroin'
'handle'
'fourteen_'
'ford'
'folia'
'flowering_'
'erga'
'capit'
'agu'
'Roads_'
'Rem'
'Penta'
'Pend'
'Nab'
'Kari'
'Famili'
'DV'
'273_'
'ц'
'tolog'
'simplifi'
'seated_'
'pioneering_'
'hurl'
'framed_'
'destroying_'
'ceae_'
'apex_'
'UR_'
'Tic'
'Shad'
'JN_'
'Hutch'
'Dip'
'Courte'
'unsuccessful_'
'refi'
'range'
'precedent'
'pavi'
'patt'
'nonetheless_'
'liss'
'jim'
'insec'
'enta'
'educate_'
'delays_'
'cylinder'
'crip'
'clash_'
'boro_'
'RNA'
'Olive'
'Lal'
'Jenny_'
'Gandhi_'
'Celebrat'
'Amazing_'
'=''
'1700'
'); (_'
'switched_'
'repu'
'qualifie'
'pull'
'ordering_'
'monetary_'
'intersecti'
'enlisted_'
'eligibility_'
'dead'
'dari'
'appropriation'
'antibodies_'
'alia'
'akin'
'Space'
'Randy_'
'OUT_'
'Neighbor'
'FET'
'247'
'triangle'
'structur'
'stori'
'songwrit'
'seal'
'resort'
'oard'
'lich'
'intensifi'
'guarantees_'
'eternal_'
'enhance'
'eclipse'
'diversifi'
'cooling_'
'cki'
'circums'
'Truth_'
'Obviously_'
'Mous'
'Metro'
'LH'
'Kerr'
'Kenny_'
'JC'
'Fos'
'Bela'
'>, _'
'189_'
'tuc'
'rides_'
'introduct'
'gus'
'ddl'
'amp_'
'abo'
'Tasmania'
'Reid_'
'Reason'
'Qualif'
'Novak_'
'Gent'
'GO_'
'Discussion_'
'Cretaceous_'
'1836_'
'velop'
'uprising'
'uate'
'towers_'
'tio'
'thon_'
'taker'
'spina'
'postm'
'pharmac'
'partisan'
'onde'
'iac'
'herland_'
'gospel_'
'essa'
'charter'
'billion'
'bene'
'arra'
'arn'
'Wu_'
'Sami'
'Pati'
'NOR'
'Inter_'
'Gaza_'
'183_'
'zan_'
'yde'
'warming_'
'vd'
'utilize_'
'surroundings_'
'snakes_'
'reminiscen'
'recepti'
'prevalent_'
'peninsula'
'overly'
'noticeabl'
'morality_'
'eel'
'catastroph'
'bile'
'Stan_'
'Short'
'Shiva'
'SL_'
'Process'
'Newb'
'Mog'
'Mahe'
'Bloc'
'±_'
'white'
'unsp'
's1'
'rushed_'
'near'
'inevitably_'
'enjoyable_'
'elie'
'communicati'
'chocolate_'
'aceae_'
'Youn'
'Statut'
'SIN'
'Rol'
'Hood'
'Definition'
'Conra'
'Activities_'
'venti'
'uria'
'symmetr'
'suffer'
'story'
'roph'
'retire_'
'rell_'
'regeneration_'
'oxy'
'ows'
'numerical_'
'ntar'
'nshi'
'instability_'
'exemption_'
'exempt_'
'dyn'
'conforma'
'Zimbabwe_'
'Yor'
'Weekly_'
'Staff'
'Sindhudurg_'
'Simm'
'Sheriff_'
'Regis'
'MTV_'
'Cath'
'Caroline_'
'Biog'
'xio'
'voltage_'
'vl'
'untr'
'unfor'
'successes_'
'storyline_'
'slan'
'retiring_'
'patrioti'
'parade_'
'nell'
'leverage'
'deo'
'chand'
'cage'
'blame'
'avoiding_'
'athi'
'Yank'
'Veri'
'Skin'
'Process_'
'NJPW_'
'Indy'
'Ibn_'
'Gart'
'Duff'
'Burge'
'; -'
' ́_'
'tribun'
'sociologi'
'sexually_'
'proportional'
'ink_'
'hatred_'
'fined_'
'defeating_'
'cultur'
'constituency_'
'butto'
'armor'
'YP'
'Vl'
'Torres_'
'Survey'
'Responsib'
'Requ'
'Regulat'
'P1_'
'Idaho_'
'Hilton_'
'Godwin_'
'GB'
'Flying_'
'FH'
'Chatt'
'232'
'173_'
'tural'
'tlin'
'split'
'recognis'
'oz_'
'needle'
'marit'
'forb'
'floods_'
'financially_'
'exchanges_'
'equilibrium_'
'emat'
'effect'
'defen'
'container_'
'comics_'
'chicken_'
'bail'
'amuse'
'altar_'
'alen'
'Synt'
'Standing_'
'SOC'
'Revenue_'
'Pasc'
'Massi'
'Gio'
'EUR'
'Budget_'
'Amat'
'ATION_'
'243'
'23rd_'
'yad'
'voice'
'unwa'
'ulati'
'telegra'
'swamp'
'sleeve'
'serv_'
'norm_'
'monog'
'incorporating_'
'eki'
'depr'
'cuto'
'centric_'
'admissi'
'Minn'
'Milton_'
'Info'
'Dean'
'Conten'
'Columb'
'Choice_'
'Bang_'
'BIG_'
'valve_'
'rh'
'recurren'
'predi'
'phosphate_'
'omp'
'iar'
'disparit'
'deg'
'Wesley'
'Mobi'
'McGra'
'Lanc'
'Expo'
'Beli'
'Baden'
'tibi'
'thumb'
'remar'
'mination_'
'explanations_'
'exemplif'
'conflict'
'amph'
'Walsh_'
'VM'
'Surp'
'Providence_'
'Posse'
'PH_'
'Motor'
'Lamp'
'Ire'
'Es_'
'Category_'
'Armo'
'Archaeological_'
'AY'
'3a_'
'Á'
'ulus_'
'sports'
'reversed_'
'mott'
'medication_'
'lesi'
'invoke'
'invaria'
'great'
'grazing_'
'ership'
'epide'
'chorus_'
'buyers_'
'assignments_'
'ashi'
'affiliation_'
'USC_'
'SPI'
'Rena'
'Prima'
'Presbyterian_'
'Panel_'
'Middles'
'MUS'
'Johannes'
'Impr'
'§ _'
'yis'
'yearly_'
'ube'
'spiral'
'solit'
'siona'
'merchandise_'
'lonel'
'homosexuality_'
'fed'
'ench'
'aurus_'
'Rauschenberg_'
'Pirates_'
'Heid'
'1849_'
'yielded_'
'venture'
'valv'
'streak_'
'stocks_'
'smart'
'pte'
'orde'
'nostalgi'
'nerv'
'limb'
'lah'
'itive'
'interpret'
'imply_'
'explorer'
'eth'
'deeds_'
'confession'
'aval'
'Plymouth_'
'Muawiyah_'
'Mn'
'Maritime_'
'Katherine_'
'Jerome_'
'GC_'
'Evi'
'DIA'
'106'
'troop'
'swap'
'riv'
'occupie'
'nop'
'nen'
'leather_'
'istr'
'ionis'
'intellect'
'hepato'
'els'
'downs'
'dispos'
'das'
'crowded_'
'coastline_'
'classics_'
'centraliz'
'cass'
'Venezuela_'
'UI'
'Shannon_'
'Profess'
'Paralympic'
'Nuclear_'
'KU'
'wondering_'
'victor'
'vic_'
'triggered_'
'riders_'
'repair'
'predictions_'
'phylogen'
'invalid'
'curse'
'commodities_'
'cola'
'beverage'
'beri'
'battleship'
'Viol'
'Nor_'
'Manito'
'Infra'
'HIS'
'Carr_'
'Cardi'
'Ais'
'ylate'
'weake'
'tunes_'
'satiri'
'profil'
'phili'
'parap'
'oxide_'
'operati'
'nall'
'holis'
'heated_'
'dei'
'crie'
'contamination_'
'broadcaster_'
'ammunition_'
'allowance'
'Wra'
'Worke'
'Viole'
'Tucker_'
'Telegraph_'
'Petro'
'Locke'
'Inva'
'Hes'
'Georgian_'
'Center'
'208_'
')/'
''' ('
'ς_'
'transnational_'
'spray'
'riches'
'reput'
'prolific_'
'outg'
'oming_'
'miser'
'maturity_'
'hman'
'enth'
'brai'
'astronomer'
'aj_'
'Uganda_'
'Seoul_'
'SEC_'
'Prevention_'
'Plas'
'Petrol'
'Joyce_'
'Get'
'Coordinat'
'Cherry'
'Canton'
'Bollywood_'
'ă'
'wait'
'unfortunate_'
'ulc'
'uar'
'straightforward_'
'refuge_'
'rationali'
'ousness_'
'oir_'
'lineup_'
'legends_'
'jump'
'jou'
'hurst_'
'grading_'
'give'
'flic'
'explo'
'cardio'
'brave_'
'bei'
'analyzing_'
'Promo'
'Michel_'
'Enter_'
'Dic'
'DP_'
'Ato'
'271'
'testi'
'tera_'
'subcon'
'screw'
'restr'
'perp'
'oria_'
'nets_'
'mortgage_'
'lip_'
'lifelong_'
'heterogene'
'entar'
'convo'
'collectors_'
'canvas_'
'badge_'
'aven'
'Sunni_'
'Print_'
'Leop'
'Jake_'
'Cotton_'
'Buk'
'BN'
'Always_'
'ARD'
'212_'
'! (_'
'xide_'
'vols_'
'uss_'
'ui_'
'trivia'
'treaties_'
'tina'
'sv'
'shorten'
'rg'
'puzzl'
'pile'
'onian'
'intert'
'inad'
'hens'
'glasses_'
'friend'
'fid'
'feit'
'cto'
'charm_'
'caution_'
'belie'
'beet'
'Zho'
'XL'
'Redd'
'Muk'
'Jupiter_'
'Immigration_'
'Heat'
'Else'
'Biom'
'316'
'164_'
'tect'
'porat'
'persua'
'orphan'
'open'
'lom'
'lman_'
'lization_'
'grabb'
'emen'
'dich'
'colonialis'
'ches'
'batch'
'ased_'
'Smart_'
'Sail'
'Pray'
'Planet_'
'Month'
'Elliott_'
'Address_'
'?,'
'×_'
'verified_'
'ustic'
'traumati'
'tackles_'
'solid'
'sensory_'
'mund'
'hex'
'gnant_'
'frustration'
'discour'
'comb_'
'blind'
'beck'
'Wonder_'
'Vai'
'Survivor'
'Rican_'
'Resu'
'Pena'
'Manuel_'
'Janet_'
'Inn'
'Infect'
'Faye'
'FCC_'
'Depart'
'Bia'
'Attack'
'Afri'
'Adrian_'
'validate'
'toxicity_'
'sle_'
'prem'
'marketplace_'
'mansion_'
'gum'
'fortun'
'fam'
'debuted_'
'cot_'
'cipa'
'artif'
'anarchi'
'aff'
'VR'
'Programm'
'Poi'
'Monthly_'
'Cine'
'Beth_'
'280_'
'roller'
'rod_'
'notorious_'
'herald'
'gib'
'eon'
'despa'
'complet'
'cd_'
'bula'
'boost'
'arr'
'Won'
'Norton_'
'Confederate_'
'Appeals_'
''':'
'utt'
'theatrical_'
'spore'
'ribo'
'prose_'
'nonprofit_'
'negotiated_'
'multim'
'licenses_'
'iff'
'idin'
'gold'
'ec_'
'dread'
'dialysis_'
'dawn_'
'correspondent'
'Xiao'
'SEN'
'Md'
'Marvel'
'Job_'
'Brenda'
'Barne'
'Adapt'
'5000'
'1847_'
'15'
'xt_'
'termed_'
'stars'
'screens_'
'rse_'
'robber'
'ression_'
'incubat'
'gran'
'expansi'
'elephant'
'deploy'
'definite_'
'composi'
'bizarre_'
'arbitra'
'Selected_'
'Psychiatr'
'Parag'
'Mey'
'Ide'
'Courts_'
'Casti'
'BF'
'Abacetus_'
'1835_'
'177_'
'126'
'ан'
'uri_'
'resona'
'rector'
'phyt'
'nickname_'
'landslide_'
'lain_'
'incorrect_'
'globaliz'
'endorsement'
'embrac'
'doses_'
'cultivat'
'church'
'builder_'
'antly_'
'Yon'
'Taliban_'
'Pain'
'Noti'
'Morrison_'
'Manuscript'
'Incre'
'Deer'
'Chambers_'
'181_'
'uard'
'telec'
'suc'
'sole'
'punct'
'phosphor'
'pars'
'olar'
'mom'
'mistre'
'maxim'
'kol'
'feat_'
'echoe'
'complement'
'coa'
'chun'
'cence_'
'cede'
'butter'
'biop'
'avan'
'ao'
'allied_'
'Wander'
'Store'
'Stephenson_'
'Scheme_'
'Produce'
'Mega_'
'Humphr'
'Automat'
'112'
'utilis'
'umen'
'truct'
'planetary_'
'orthodox'
'naked_'
'mis_'
'instrumenta'
'grove'
'galleries_'
'evoke'
'energi'
'clever_'
'bian'
'Rochester_'
'Grey'
'GH_'
'Dynamic'
'Dors'
'Czechoslovak'
'Cly'
'Cf_'
'Box'
'Aco'
'unconscious'
'selecting_'
'pope'
'pne'
'litter'
'intercept'
'flourish'
'erp'
'doubles_'
'dense'
'ctions_'
'comfort'
'climbe'
'acio'
'acce'
'Weal'
'Vul'
'Sri'
'Slovak'
'Male'
'Johnston_'
'Inj'
'Hya'
'Griffith_'
'Geoffrey_'
'Find'
'Fina'
'Feel'
'270_'
'211_'
'179_'
'yho'
'tracke'
'torn_'
'strings_'
'spinn'
'its'
'holi'
'frighten'
'drastic'
'depths_'
'cart_'
'apse_'
'alia_'
'Wac'
'Theres'
'Noi'
'Grap'
'Choi'
'Calv'
'Bey'
'. :'
'verti'
'ulat'
'typ'
'sealed_'
'ripp'
'preferabl'
'patho'
'onate_'
'omitted_'
'ocate'
'improvise'
'fossils_'
'eda_'
'detained_'
'delegate'
'cathedral_'
'appropriately_'
'accusation'
'Tec'
'Possibl'
'Moh'
'Income_'
'Exi'
'Devon_'
'Chun'
'Brom'
'229'
'1841_'
'year'
'ust'
'supplier_'
'share'
'seminars_'
'monks_'
'logs_'
'lively_'
'infus'
'humid'
'hise'
'gues'
'fc'
'exaggerat'
'doubled_'
'depicting_'
'cres'
'compe'
'chau'
'baptism'
'audition'
'YS_'
'Thank'
'Quit'
'Perc'
'Marxist'
'Founder'
'Emmis_'
'Emerg'
'Clearly_'
'Carpenter_'
'Bring'
'!'' '
'urgi'
'slum'
'recruit_'
'rctic'
'psychot'
'omn'
'nay_'
'mitochondrial_'
'keep'
'ements_'
'destin'
'cooke'
'cio'
'catalytic_'
'automated_'
'Northeast_'
'Kerry_'
'Jung'
'Inse'
'Holiday_'
'Hardin'
'Eye_'
'Electro'
'stabili'
'sometime_'
'redu'
'poore'
'pg'
'pb'
'feld_'
'dule'
'distributor'
'complic'
'advise_'
'Train'
'TEA'
'Rebecca_'
'Ministers_'
'Mete'
'Manufacture'
'Joshua_'
'INTE'
'Emil'
'Different_'
'AZ'
'wireless_'
'verses_'
'terra'
'pools_'
'ounded_'
'nqui'
'nett'
'loi'
'legi'
'krit'
'herein_'
'gentleman_'
'gari'
'gage_'
'fac'
'epito'
'diplomat'
'cs'
'chromosome'
'breakthrough'
'beta_'
'authored_'
'audi'
'asse'
'WIN'
'Timothy_'
'Rush_'
'Joh'
'JI'
'Han_'
'Cava'
'Carp'
'Asia'
'Abdu'
'166_'
'spend'
'rten'
'prioriti'
'matic'
'lows'
'knife_'
'faci'
'exercised_'
'drought_'
'basket'
'amplifie'
'Pt_'
'Motion_'
'Mond'
'Likewise_'
'Legacy_'
'Kok'
'Build'
'Alis'
'245'
'suppress'
'sultan'
'risk'
'pupp'
'orb'
'noi'
'mbu'
'luen'
'llen'
'inhabit'
'eka'
'eac'
'depress'
'defense'
'cooperate'
'boiler'
'Supplement'
'Stap'
'Scots_'
'IRA_'
'Gusta'
'Gow'
'Gly'
'Emir'
'CM_'
'Barba'
' : '
'vice'
'usc'
'upl'
'specificity_'
'sculpt'
'sag'
'researche'
'quet'
'predat'
'oder'
'miz'
'las'
'interfa'
'fundraising_'
'foref'
'fin_'
'favored_'
'electronics_'
'disas'
'ctur'
'constituen'
'consolidation_'
'catho'
'bs'
'bargaining_'
'algebra'
'Tunisia'
'Transaction'
'Riv'
'Ride'
'McMa'
'MES'
'Lig'
'Include'
'Hali'
'Din_'
'Brewer'
'365'
'zzi'
'zip'
'urbani'
'unfair_'
'tto'
'skull'
'scrutiny_'
'mun'
'manor'
'lter'
'longitude_'
'kum'
'für_'
'furthe'
'fic_'
'disapp'
'desp'
'conservatives_'
'barbe'
'Stil'
'Rouge'
'Recording'
'Peters_'
'Olivi'
'NH_'
'Giu'
'Flash'
'Face'
'Dixon_'
'Deli'
'Anyone_'
'''. ``_'
'undergo_'
'scent_'
'rse'
'reinforce'
'rations_'
'oppression_'
'olk'
'imagina'
'geno'
'fru'
'dime'
'depot_'
'deposition_'
'constitution'
'compromise'
'coding_'
'cliffe_'
'cci'
'canon'
'broaden'
'XI_'
'Prior'
'Priest'
'Equal'
'217_'
' - ``_'
'spheric'
'refusal_'
'receipts_'
'rang'
'prohibition_'
'oblige'
'mystic'
'listened_'
'js'
'itution'
'isk'
'gher'
'eville_'
'evidence'
'disturbed_'
'crest_'
'cliff_'
'Material_'
'Catch'
'Bombay_'
'restrict_'
'rchi'
'phos'
'pede'
'ordinat'
'nitr'
'mistaken'
'llis'
'inflam'
'implement'
'halls_'
'formulation_'
'comme'
'comedian'
'Tuc'
'Threat'
'Sigm'
'Pink_'
'Lars'
'Expla'
'E1'
'Diocese_'
'Conclu'
'Beaver'
'800'
'1842_'
'172_'
'//'
'twins_'
'thrille'
'supremac'
'ssing_'
'specifi'
'spanning_'
'sett'
'relic'
'rado'
'provision'
'och_'
'nai_'
'marble'
'lys'
'lesions_'
'iest_'
'exce'
'cita'
'cigar'
'cens'
'capturing_'
'Lore'
'Lora'
'Insi'
'Hu_'
'192_'
'Ö'
'washing_'
'vell'
'transplantation_'
'tempera'
'reliance_'
'psychiatric_'
'oval'
'onds'
'nodes_'
'meditati'
'groo'
'gaze'
'fulfil'
'ffen_'
'fact'
'extremist'
'ensemble_'
'donia_'
'disp'
'detain'
'delusion'
'compli'
'clerk_'
'chr'
'celebrities_'
'aunt'
'arcade_'
'Willis_'
'Robbi'
'Piet'
'Mech'
'Lou_'
'Livi'
'250'
'striv'
'ssors_'
'sper'
'sampled_'
'reca'
'quick'
'pump_'
'mploy'
'markete'
'icultur'
'fere'
'diagram_'
'alit'
'Shark'
'Senegal_'
'Psy'
'Pilot'
'Need_'
'Groups_'
'Exclu'
'Enjoy_'
'Edge_'
'Chev'
'BCE_'
'176_'
'174_'
'wage'
'unit'
'sig'
'proge'
'opula'
'newb'
'necessit'
'loses_'
'jk'
'ishi'
'heir'
'diz'
'devil'
'cheaper_'
'augment'
'appointments_'
'Tex'
'Pauli'
'Monta'
'Humb'
'Heavy_'
'Hallo'
'Framework_'
'Fletcher_'
'Deal_'
'DIN'
'Benedict'
'134'
'​'
'whe'
'wet'
'subscribe'
'spreads'
'raphi'
'projections_'
'lux'
'heavie'
'gram'
'binary_'
'accomp'
'Winn'
'Units_'
'Sherman_'
'Raid'
'REN'
'Occ'
'Kane_'
'Jab'
'IW'
'Funeral_'
'Crusade'
'Adve'
'302'
'versa'
'taxation_'
'sadd'
'revolve'
'retaining_'
'relaxed_'
'phan'
'observa'
'mio'
'lid_'
'hook_'
'fringe'
'criterion_'
'chk'
'abandon'
'Scor'
'Prefe'
'Obs'
'Matthews_'
'Ita'
'Inver'
'Hannah_'
'Goth'
'Gosport_'
'Epis'
'Chest'
'ANT'
'2a'
'207_'
'therapist'
'tg'
'shade'
'oure'
'ordina'
'mitigation_'
'melody_'
'lion'
'kri'
'hoe_'
'hib'
'gst'
'gio_'
'gateway'
'garner'
'eke'
'deport'
'chro'
'ait'
'Worcester'
'Reme'
'Pik'
'Philipp'
'Nes'
'Middleto'
'Latin'
'Him_'
'Hamburg_'
'251_'
''-'
'treas'
'regulating_'
'questionabl'
'outlet_'
'noun_'
'ignorance_'
'gentr'
'deep'
'bast'
'adopting_'
'Yuji_'
'Whilst_'
'Waller'
'Uns'
'Tana'
'Return'
'Memo'
'Lance_'
'KS'
'Glas'
'Ethics_'
'Env'
'Cavalry_'
'Canyon_'
'Audio'
'Ascen'
',''
'utilization_'
'turnover_'
'tent_'
'shirts_'
'realism_'
'quar'
'prox'
'olo_'
'narrator_'
'mandate'
'limb_'
'ju_'
'gauge_'
'ebook_'
'deline'
'cultivated_'
'coor'
'appealed_'
'TION'
'Safe'
'Running_'
'Rui'
'Iris_'
'Intro'
'Historian'
'Guru_'
'Gille'
'Crew'
'Actually_'
'147'
' '''
'tap_'
'subscriber'
'sors'
'rsion'
'residual'
'redundan'
'poses_'
'pio'
'pause'
'ower_'
'obey'
'manage'
'like'
'leng'
'hic'
'harmonic_'
'erat'
'elas'
'discourage'
'deit'
'degenerat'
'bloody_'
'aller'
'Tig'
'TN_'
'Sites_'
'Probably_'
'Organization'
'Monster'
'Micha'
'Gap'
'Arra'
'254'
'234'
'&'
'treasure_'
'tc'
'sure'
'stub'
'stomach_'
'responsive_'
'profitable_'
'ount_'
'migrant_'
'left'
'intr'
'inducted_'
'illite_'
'distributions_'
'bout_'
'bitte'
'bian_'
'Terre'
'Sharma_'
'Quot'
'Palaeo'
'Line'
'Lafayette_'
'Holly_'
'Genetic'
'Flam'
'F2'
'Ey'
'Effect_'
'Doc_'
'Carni'
'по'
'ycle'
'xit'
'tiffs_'
'scat'
'resonance_'
'quantifi'
'pace'
'mosque_'
'incentive_'
'hne'
'gmatic_'
'equations_'
'borrowed_'
'anima'
'alternati'
'Rey'
'Remi'
'Plains_'
'Peru'
'Magdalen'
'Listen_'
'Leb'
'Ket'
'John'
'Jeff'
'Jak'
'Iceland_'
'Applications_'
'stud'
'shed'
'schedules_'
'ryn_'
'resting_'
'realise_'
'myr'
'lding_'
'kil'
'delicious_'
'commission'
'clicking_'
'bulb'
'Violence_'
'Sussex_'
'Moderni'
'Mathew'
'HL'
'Excellen'
'ERS_'
'Cora'
'Connect'
'Coming_'
'Alleg'
'......'
'., '
'token'
'sbury_'
'sail_'
'presu'
'oline_'
'gula'
'glacial_'
'disasters_'
'dialect_'
'contributor_'
'conservat'
'chronological'
'believing_'
'anxious_'
'Spit'
'Sia'
'Sheet_'
'McCar'
'Lenin'
'Hero_'
'Fue'
'Forward'
'Era_'
'Cons'
'Battle'
'Actor_'
'ACA'
'182_'
'С'
'tooth_'
'sidewalk'
'sensors_'
'sant'
'oor'
'insid'
'filmmaker_'
'dict'
'Technologies_'
'Panther'
'Know'
'Driver'
'Correct'
'Consumer_'
'Calla'
'Braves_'
'!!!'
'wholes'
'wab'
'voca'
'vicar'
'proposi'
'photographi'
'pastoral'
'impairment_'
'ibl'
'gifted_'
'experimenta'
'correcti'
'beard'
'Springer_'
'Skat'
'Maye'
'Esq'
'Chair'
'Archa'
'Adel'
'199_'
', '''
'π'
'unw'
'tter_'
'tere'
'rif'
'reimburse'
'optimization_'
'kon_'
'journey'
'instruct'
'gill'
'frat'
'dig_'
'contain'
'articulated_'
'aque'
'adr'
'Zha'
'Valer'
'Scholars'
'Romans_'
'Retr'
'Rao_'
'Persia'
'Nine_'
'Loa'
'Flynn_'
'FIN'
'Experiment'
'Ethnic'
'Dix'
'Dew'
'Copt'
'Calli'
'B1'
'Appr'
'228'
'uchi'
'spat'
'parasites_'
'negatively_'
'mell'
'manual'
'injustice'
'impo'
'iles_'
'homeo'
'harvest_'
'gather'
'depicts_'
'aspirations_'
'affiliat'
'Whereas_'
'Pig'
'PE_'
'McKi'
'Ip'
'Ino'
'Ez'
'Exeter_'
'Direction'
'Croatia_'
'Canon'
'1200_'
'uplift'
'scriptur'
'relies_'
'refined_'
'premiers'
'physicist'
'massa'
'loom'
'itis_'
'imped'
'hurri'
'ggle'
'companions'
'coco'
'canoe'
'brighte'
'books'
'approv'
'aggr'
'SAM'
'Portrait'
'Mix'
'Legn'
'Hinduism_'
'Enli'
'Disab'
'Dian'
'DAT'
'truth'
'strive_'
'resolut'
'reminder_'
'paired_'
'oppose_'
'notified_'
'nosi'
'jon'
'jit'
'iste'
'eud'
'dman_'
'della_'
'dag'
'catalog_'
'ative'
'arge'
'adviser_'
'Wetlands_'
'Team'
'Specifically_'
'Printed_'
'Parents_'
'Pak'
'Multiple_'
'Mats'
'Grad'
'Dura'
'Dama'
'Bally'
'Archd'
'-- '
'!' '
'void_'
'transmitt'
'tile'
'thriller_'
'ssive'
'sixteen_'
'rtion'
'riot_'
'rente'
'pocket'
'phant'
'pal_'
'ntain_'
'insan'
'extant_'
'decor'
'contender'
'consci'
'breast'
'affe'
'Verd'
'Translation'
'Stalin_'
'RI_'
'Previous_'
'Photos'
'Mohi'
'Mitt'
'Fuller'
'Estimate'
'Downtown_'
'Dome'
'Describ'
'Dei'
'Barr'
'1820_'
'yle_'
'unte'
'undergo'
'tual'
'tier'
'siv'
'rize'
'otte'
'offens'
'navigate'
'mill'
'milita'
'likewise_'
'lands'
'intrica'
'heroic_'
'expectation_'
'excerpt'
'debts_'
'cog'
'coded_'
'blaz'
'ambition_'
'aided_'
'UCL'
'Trib'
'Track'
'Teh'
'IEEE_'
'Arsenal_'
' >'
'rhy'
'quanti'
'particula'
'overhead_'
'obituar'
'oak_'
'lysi'
'ivat'
'interacti'
'inputs_'
'inni'
'hemo'
'cone'
'commissioner_'
'coloured_'
'chip_'
'alga'
'Twel'
'Tier'
'Ranch'
'Protein'
'Milk'
'Libya_'
'Laugh'
'Lamar_'
'Brother'
'zel'
'unes_'
'tiu'
'submissions_'
'spli'
'quantum_'
'promotions_'
'mosquito'
'illusion'
'erw'
'eill'
'detecti'
'comrade'
'chman'
'brick'
'Soa'
'Santiago_'
'Leu'
'Hoc'
'Elections_'
'ERA_'
'Dawn_'
'Christine_'
'CTI'
'CLA'
'116'
'sharply_'
'rubber_'
'pulat'
'multil'
'lyt'
'isolate'
'invers'
'impla'
'hell'
'forts_'
'factions_'
'dragg'
'contributors_'
'commissions_'
'certi'
'capsule'
'antin'
'aki_'
'Vince'
'Schenectady_'
'Prison'
'Peterson_'
'Mü'
'Justi'
'Jani'
'JR'
'Honor'
'Habitat_'
'Cobb_'
'Boc'
'Balan'
'257'
'197_'
'1844_'
'way'
'vacat'
'stretche'
'retail'
'polariz'
'overlapp'
'nova'
'lest'
'jersey'
'investigators_'
'interg'
'fiber_'
'exclude_'
'elector'
'deac'
'aud'
'attorneys_'
'Smy'
'Rankin'
'Pond'
'Pian'
'Nobel_'
'Kua'
'G2'
'Confederat'
'Chit'
'Cate'
'Active_'
'.,'
'ñ'
'xu'
'thread'
'sustain'
'station'
'sketche'
'seism'
'rmed_'
'rememb'
'recruit'
'pollut'
'pastor_'
'muscles_'
'modern'
'maid'
'humble_'
'eri_'
'ems_'
'dc'
'converg'
'cigarette_'
'astronomical_'
'assassination_'
'aer'
'advise'
'Plo'
'Orlando_'
'Nano'
'NW'
'Logan_'
'LV_'
'Joey_'
'Inten'
'Garcia_'
'Except_'
'Emme'
'AF_'
'26th_'
'xica'
'vy'
'tapes'
'subver'
'sonic_'
'slogan'
'sacrifice'
'rau'
'permea'
'noble'
'nist'
'newer_'
'neglected_'
'must'
'motivat'
'mese'
'martyr'
'localities_'
'lme'
'kul'
'jacket_'
'issan'
'hak'
'gradual_'
'ffic'
'establishments_'
'descended_'
'crowned_'
'congestion_'
'c1'
'buyer_'
'awa_'
'appro'
'ame_'
'Web'
'Rise_'
'Kall'
'Integra'
'DL_'
'Consta'
'Chain'
'305'
')--_'
'ни'
'zat'
'vitamin'
'verna'
'turtle'
'taxpayer'
'spectac'
'seman'
'rebell'
'panic_'
'nerab'
'merits_'
'kt_'
'fierce_'
'erman_'
'coal'
'clam'
'capita_'
'alio'
'adays_'
'accumulat'
'Steph'
'Speech'
'Sod'
'Plot'
'Less_'
'Lead'
'Derr'
'Connecti'
'Carbon'
'Basel'
'197'
'я_'
'vet_'
'tast'
'rpe'
'promotional_'
'otia'
'optimize'
'liner_'
'invaded_'
'intellig'
'ichi'
'hesitat'
'enlarged_'
'dema'
'cyn'
'cated_'
'carbo'
'accl'
'Zim'
'Reeve'
'Plum'
'Peak'
'Myl'
'LK'
'Dept_'
'stil'
'retinoic_'
'oxida'
'opic'
'ngo'
'intrinsic_'
'inga'
'hydroc'
'helmet'
'gull'
'geodetic_'
'fill'
'face'
'diminishe'
'detective_'
'delicate_'
'apar'
'Yama'
'Website'
'Simon'
'Ori'
'Lio'
'Cave_'
'Cardinals_'
'CHE'
'Alter'
'Acta_'
'Accounting_'
'303'
'xton_'
'replace'
'recr'
'prer'
'posters_'
'monol'
'lso'
'litho'
'import'
'fishe'
'fellowship_'
'disagreement'
'depriv'
'darker_'
'commercially_'
'childb'
'budgets_'
'bounce'
'blun'
'Ulster_'
'Spring'
'Santos_'
'Revol'
'Opinion'
'Moza'
'Mahm'
'Casino_'
'Arabian_'
'1845_'
'на'
'xico'
'xen'
'tya'
'ssue'
'recognizing_'
'proposition_'
'poste'
'optim'
'insi'
'heimer_'
'distribute_'
'cf'
'bted'
'bounded_'
'arro'
'alumin'
'Wha'
'Somerset_'
'Resid'
'Observe'
'Named_'
'Mace'
'Legislature_'
'Kr'
'Hunt'
'Hope'
'Ecuador_'
'Const'
'Clare_'
'Carnegie_'
'Agu'
'ACT'
'236'
'1792_'
'wounds_'
'sitions_'
'prin'
'ngth'
'mol_'
'mmer'
'kai'
'ib_'
'facilitated_'
'excavation_'
'encouragement_'
'ello_'
'crushe'
'coerc'
'blur'
'appealing_'
'Woodl'
'Stic'
'RAT'
'Myr'
'MIS'
'Islamist'
'Hindus'
'Fram'
'Fara'
'DW'
'Cruise'
'Cantor_'
'Beacon_'
'Alcohol'
'1839_'
' (?'
'xha'
'veil'
'unfi'
'sprint'
'neph'
'intera'
'gn_'
'ghts_'
'ethi'
'consi'
'compute'
'bani'
'assumes_'
'assisting_'
'anon'
'affiliate_'
'Repe'
'Packa'
'Pac_'
'Espec'
'Constant'
'Chandra'
'Chan_'
'Capa'
'CL_'
'Britannica_'
'vre'
'unpro'
'uki'
'thirteen_'
'silk_'
'provoke'
'prototype_'
'ontolog'
'ogue_'
'ntial'
'miscellaneous_'
'mask'
'lieutenant_'
'grab_'
'garden'
'dirt_'
'dang'
'corner'
'communicat'
'caves_'
'batter'
'ais_'
'Telecom'
'Sot'
[...]
